{"\n":0," ":1,"#":2,"+":3,"-":4,".":5,"0":6,"1":7,"2":8,"3":9,"4":10,"5":11,"6":12,"7":13,"8":14,"9":15,"=":16,"B":17,"K":18,"N":19,"O":20,"Q":21,"R":22,"a":23,"b":24,"c":25,"d":26,"e":27,"f":28,"g":29,"h":30,"x":31," 1":32," 2":33," N":34," 3":35," R":36," B":37," Q":38,"1.":39," 4":40,"5.":41,"xd":42,"6.":43,"7.":44,"8.":45,"9.":46," K":47,"0.":48,"2.":49,"3.":50,"4.":51,"xe":52,"f6":53,"xc":54,"f3":55,"-O":56,"O-O":57,"d4":58,"e4":59," c":60,"f4":61,"c3":62,"f5":63," 5":64," d":65,"e5":66,"d7":67,"xb":68,"g5":69,"e6":70,"e7":71,"e3":72,"c4":73,"e2":74,"g4":75,"d2":76,"g6":77,"xd4":78,"c6":79,"d3":80,"xd5":81,"g3":82," b":83," a":84," Nf6":85,"Nf3":86,"g7":87," 2.":88," 3.":89," 4.":90," 5.":91," 6.":92," 7.":93," 8.":94," 9.":95," 10.":96," 11.":97," 12.":98," 13.":99,"d5":100," 14.":101," 15.":102," 16.":103," h":104," 17.":105," 18.":106," 19.":107," 20.":108,"b3":109,"xe5":110," 21.":111," 22.":112,"e8":113," O-O":114," 23.":115,"e1":116,"a4":117,"Nc3":118," 24.":119,"b4":120,"h4":121," 25.":122,"d1":123,"c7":124,"d6":125,"c5":126,"d8":127," 26.":128,"g2":129,"h3":130,"xe4":131," 27.":132," 28.":133,"c8":134,"f8":135,"Ra":136,"f7":137," 29.":138,"f2":139,"c2":140," 30.":141," Ra":142," Nc6":143," 31.":144," c5":145,"b6":146,"c1":147,"xa":148,"b5":149," 32.":150," 6":151,"f1":152,"h5":153," 33.":154," d5":155," 34.":156," 35.":157," e6":158,"xf6":159,"b7":160," 36.":161," e5":162," g6":163,"xc4":164,"a3":165," 37.":166,"xc5":167,"b8":168,"xc3":169,"h6":170," d6":171," 38.":172,"b1":173," 39.":174," Be7":175,"a5":176,"xc6":177,"xf5":178,"Be3":179," 40.":180," a6":181," e":182," 41.":183,"Bd3":184,"xf3":185," Bg7":186,"b2":187,"xf4":188," b5":189,"g8":190,"h7":191," h6":192," 42.":193,"xb5":194," f5":195,"xe6":196," 43.":197,"h2":198,"xd6":199,"Be2":200," c6":201," Qc7":202,"h8":203,"g1":204,"Re1":205," 44.":206," a5":207,"Bg5":208," Bd7":209,"h1":210," Re8":211," cxd4":212,"xg5":213,"xb4":214,"Qd2":215," b6":216," Nd7":217," 45.":218,"a6":219," 46.":220,"Qe2":221,"xg4":222,"Rf":223,"Bg2":224," h5":225," 47.":226,"Nxd4":227," Rc8":228," Be6":229,"xd3":230," Rf":231," Bb7":232," f":233," Nb":234," Kg7":235,"xe3":236,"Qc2":237,"xg6":238," g5":239," 48.":240," 7":241," f6":242,"Nd2":243," 49.":244," Nbd7":245," Qe7":246,"xe7":247,"Rc1":248," Rx":249,"Rd1":250,"Kg2":251,"Bd2":252," g":253," Kf7":254,"Rx":255,"Bc4":256,"Bf4":257,"Kf2":258," 50.":259,"xd7":260," Rd8":261," Rb8":262,"xb3":263," Bd6":264," 51.":265," Qb6":266," Ke7":267," Qd7":268," Kf8":269,"cxd5":270," Bg4":271,"Ne5":272,"xb6":273,"xd2":274," 52.":275,"Kh1":276,"Ne2":277,"xd8":278," Kh8":279,"exd5":280," Bf5":281,"Bx":282," Bx":283,"Bb5":284," 53.":285," Ne7":286,"Ke2":287,"Rb1":288," Ne5":289," Bb4":290," Ne4":291,"Nd5":292," Nd5":293,"xe2":294,"Ne4":295," 54.":296,"Kf1":297,"Qd3":298,"Nb":299,"Kh2":300," Qa5":301,"xd1":302," Nc5":303,"Qb3":304,"xb2":305," 55.":306,"xb7":307," Kx":308," Kh7":309," Kf6":310,"Bb2":311,"Qf3":312," Nb6":313," Nxd5":314," Bc5":315," exd5":316," Kg8":317,"Ke3":318,"xg3":319,"Kf3":320," b4":321,"Rad1":322," 56.":323,"Nd4":324," Bf6":325,"Qx":326,"dxe5":327,"xa5":328,"Nbd2":329,"xa6":330,"Bb3":331,"Qe3":332," Ke6":333," 57.":334," Nd4":335," Kd7":336,"Nb3":337," Rf8":338,"Kg1":339," Qx":340,"a7":341," Qf6":342,"Bf3":343,"Nxe4":344,"Rd2":345,"xc8":346,"Bxf6":347,"Ng5":348," 58.":349,"Ne3":350,"Nc4":351," Nxe5":352," Bc6":353,"Rf1":354," Bf8":355,"Ng3":356,"Kd2":357,"O-O-O":358," dxe4":359,"bxc3":360," dxe5":361," Qd8":362," exd4":363," e4":364," Qd6":365," Nxe4":366,"Kx":367,"Kd3":368,"Kg3":369,"xc2":370," a4":371," 59.":372,"xc7":373," Kg6":374," Rd7":375,"xe8":376," Ng4":377," Ne6":378," c4":379,"Nxe5":380," Kd6":381," dxc4":382,"xc1":383," f4":384,"Rfd1":385,"Re2":386,"cxd4":387," Rad8":388," Ng6":389," 60.":390," Bxc3":391,"Nx":392,"dxc5":393," Rg8":394," Rac8":395,"a2":396,"Nd3":397,"Bc2":398," Bxf3":399," Nh5":400," d4":401,"Rac1":402," Nf5":403,"xa3":404,"Rfe1":405,"xe1":406,"Nb5":407," Rc7":408," Nxd4":409," Re7":410,"Nf4":411," Ra8":412,"Ng":413," Nc4":414," Ng":415," cxd5":416," h4":417,"Bf1":418,"xa2":419," bxc6":420,"Qg3":421,"xa7":422," Nx":423,"a8":424," Na5":425," Ba6":426,"Bxc4":427," Rf7":428," Rfd8":429," Ne8":430," 61.":431,"Nxd5":432,"Bg3":433," 8":434,"Qf2":435,"Qg4":436," Nb4":437,"Re3":438,"Rc2":439,"Rg1":440," Rfe8":441,"Bd4":442,"Bc3":443,"Rd3":444," Qc6":445,"fxe5":446,"Nf5":447,"Rd":448,"Ra1":449," g4":450,"Rh":451," Qe6":452,"Qc3":453,"Rf2":454,"Bh4":455," 62.":456," Na6":457," Nf4":458," Nd6":459,"Bxc6":460," Kc7":461," Ke8":462,"Qa4":463," Qe8":464," Bg6":465," Qc8":466,"Nxc6":467,"Nc5":468,"Kb1":469," Bxd5":470,"Bxe4":471," Nc7":472,"Na4":473," Bc8":474,"Rf3":475," Nf8":476,"a1":477,"Be4":478," axb5":479,"Re":480,"Qxd4":481,"Qd4":482," Bxe5":483," 63.":484,"Qd1":485," Qxd5":486,"Kc2":487,"Qf4":488,"Rc7":489," Bxf6":490,"Qe1":491,"exf5":492," Qc5":493," Nf":494,"Bxd4":495,"Qh5":496," O-O-O":497," Nxc3":498," Bd4":499," Ke5":500,"Ke4":501,"Qe4":502,"Bf2":503," Be5":504," Qg5":505," Bd5":506," Qf7":507,"Rd7":508,"Nh4":509," 64.":510,"Bxd5":511," exf4":512," fxe4":513," Qb7":514," Re":515," Rd":516,"xa8":517,"Nf1":518," Kf5":519,"Kf4":520," Kc6":521," Rc2":522," Re6":523," Qg6":524," Bb6":525,"Nd6":526,"gx":527,"Kc3":528,"axb5":529," Qe5":530," Rh":531," gx":532,"Qh4":533,"axb4":534," Qd5":535," gxf5":536,"Bh6":537,"Bd5":538,"Rae1":539," fxe6":540," Rd2":541,"Ra7":542," Qh4":543," 65.":544,"Ke1":545," Bxd4":546,"Kd4":547,"Nge2":548," gxf6":549,"Nc2":550,"Bc1":551," Rf6":552," Qf5":553," Bh6":554,"exf6":555," Kd8":556,"Ne1":557," Bxe4":558,"Bxe5":559,"Ba4":560," Rh8":561,"Nd":562," axb4":563," Ra7":564,"Rc3":565," Rd6":566," Rc":567," Bxc5":568,"Rc":569,"Qc1":570," Kxg7":571,"Ba3":572,"Na3":573," Kd5":574,"Qc4":575," Ra2":576,"Rb7":577," 66.":578," Bg5":579,"Bxg7":580,"Nxf6":581," hxg5":582," Kh6":583,"Rg3":584," Rc6":585,"Bxe7":586," Be8":587,"xa1":588," Nd3":589," Rb2":590,"Rd6":591," Qb8":592,"Rxd8":593," Rae8":594,"Rd4":595," Be4":596,"Rh1":597," Bd8":598,"Be5":599," Bb5":600," Rfc8":601," Rb7":602," Rc4":603," Nge7":604,"exd4":605,"Qxd3":606,"Kh3":607," 67.":608," Rb":609,"Re7":610," Bh5":611," Qh5":612,"Bh3":613,"hxg4":614,"Qg5":615,"Qxe4":616,"Ng4":617,"Rb3":618," Kb8":619," Bc7":620," Qb4":621,"Rb":622," hxg6":623,"Rd8":624," Kg5":625," Rxd1":626,"Bxf4":627," Rc5":628," Qxe7":629," Qd4":630," Rd5":631,"Rab1":632," Bxf5":633,"Bxc5":634,"Kg4":635," Qxd6":636," Qxe5":637,"Bc5":638,"Rxd5":639,"Qxd5":640," Nfd7":641," 68.":642," Re2":643," Ra1":644," Ra3":645," Qxf6":646,"Ra8":647," bxc4":648,"Ra2":649,"Qxf3":650," Qxd4":651,"hxg5":652,"gxf3":653," Rb6":654,"Ra3":655," hxg4":656,"Rc6":657," Rab8":658,"Nxe6":659,"cxb5":660,"Kd1":661,"Qd5":662,"Rh3":663,"Qb2":664,"Nd1":665," Rd4":666," bxc5":667,"xb8":668,"Re4":669,"Qe5":670," Rb4":671,"Ra6":672," Bxd3":673," Rd3":674,"gxf4":675,"Nc6":676," Rd1":677," Rc3":678," Bc4":679," Qe4":680,"Rxd4":681,"Bxf3":682,"axb3":683,"Qh3":684,"Rc8":685," Nh6":686,"Rc5":687," Rxd8":688,"Rb6":689," Nxf6":690,"Rd5":691,"Rfc1":692," Rc1":693,"Bxe6":694,"Bd1":695," Rg6":696," 69.":697,"Nc":698,"Bg4":699,"Nf2":700," Nf7":701,"Rb2":702," Re5":703,"Kc4":704,"Rxe5":705," Bf7":706,"Rc4":707," fxe5":708," Kc5":709,"Rxd6":710,"gxf5":711," Ra6":712," Qf4":713," exf5":714," Nb8":715," d3":716,"Rb8":717,"xa4":718," Nxc5":719," Rg7":720,"Ne6":721,"Re5":722," Re4":723," Bxg2":724,"xb1":725," Rb3":726," e3":727,"fxe4":728," a3":729,"Nf6":730,"Bxf5":731,"Qxc4":732,"bxc4":733," Ng5":734," Ra4":735," Rb1":736," Rf5":737," Nxf3":738,"Kb2":739," Nxe3":740,"Rxd1":741,"Bd6":742,"Rf4":743,"Bxd6":744,"Rxe4":745," 70.":746," Qb5":747,"Bb4":748," Qg4":749,"Be1":750,"Kxg2":751,"bxc5":752," Rxb2":753,"Re8":754," Re1":755," Bxe3":756," Qc4":757," Rxd5":758,"Ra5":759,"Rxe8":760,"Qb4":761," Rxd4":762,"Rb5":763,"exd6":764," Kb7":765,"Rxb7":766,"fxe3":767,"hxg3":768," dxc5":769," Qxc5":770,"Nh3":771," Nd":772,"Rxc8":773,"Qf5":774," Qa6":775," Rxe5":776," Bxc6":777," Bxc4":778,"Nxc5":779," Nxd3":780," Nc":781,"Bb1":782," Qf8":783,"Ra4":784," Ne3":785,"Rxe6":786," Qg7":787," Nd8":788," Ra5":789," Nxc4":790,"Nxc4":791," Rxc4":792,"Bxd7":793," Rxc3":794," Kc8":795," Kb6":796," b3":797," Rxe4":798," 71.":799," Rxe1":800,"Qxe5":801,"Qb5":802,"Qh6":803,"hxg6":804,"Kb3":805," 9":806,"Rxf7":807,"Nxd6":808," c3":809," gxf4":810,"Kc1":811,"Rg2":812,"Bf5":813," Rxc1":814,"Rb4":815," Ke4":816," Rxa2":817,"Qxc3":818," Nc3":819," Bd3":820," Bf4":821,"dxe6":822," f3":823,"Qc5":824,"Ke5":825," Rb5":826,"Nxf5":827,"Qa3":828,"Re6":829," Nh7":830," axb6":831," Bxe2":832," Kf4":833," Qxb2":834,"Qg2":835," Rf4":836,"Qb1":837,"dxc6":838,"Nf":839," Kd4":840," Qxd7":841,"dxe4":842," Nc8":843,"Qd6":844,"Rxa7":845," 72.":846,"Rxd7":847,"Nc1":848," Bh3":849,"Bxb7":850,"Nxd7":851,"Rxc6":852,"Nh2":853," Qxe4":854," Nxf4":855," Bxf4":856,"Rf7":857," Re3":858," Bxg5":859," Ng7":860,"Bc6":861," Qa7":862," Bxb2":863,"Rxc5":864,"Kd5":865,"Qxe3":866,"Rh8":867," Rh6":868," Qh6":869,"Kf5":870," h3":871,"Rh7":872," Rxc2":873," Rf2":874," Ngf6":875," Qe3":876," Ne":877," Kxf7":878,"Qe6":879,"Bxb5":880,"Qf6":881," Bc3":882,"Rh4":883," fxg6":884,"Qc7":885,"Bb6":886,"Nxb5":887,"Qxd6":888,"Qxd8":889," Bxd6":890," cxb4":891," Bxd2":892," 73.":893,"Nb6":894,"Rxe7":895,"Bxg5":896," Nb5":897," Rh1":898," Qxc3":899," Qa4":900,"Qxe2":901,"Nb4":902," Rxc8":903," Nf3":904,"Bxa6":905," Rh2":906,"Qxb7":907,"Rhe1":908,"Qf1":909," Rxd6":910,"Rg4":911,"Kg5":912," Ng8":913,"fxg5":914,"Rf6":915," Rxf2":916,"Rxf6":917," Qd3":918,"Kc5":919,"Rxf5":920,"Qe7":921,"Qxd2":922,"Rxa6":923," Qc2":924,"Bxc3":925,"Rf5":926,"Nb1":927," Rxe3":928," Qd2":929,"Rxc7":930," bxc3":931,"Rg7":932," Rxf4":933," Bxb5":934,"Qxf6":935,"Qxe6":936," Bxe6":937," Rxc5":938," fxg4":939,"Qc6":940," Kg4":941,"Rxc4":942," Rg4":943,"Rxd3":944,"Nh5":945,"Rxc1":946," Nxb3":947,"Qd7":948," 74.":949," Qxc6":950,"Be6":951," Be3":952," Rh5":953,"Qxf5":954," Qxc4":955,"Bxg6":956," Rh7":957,"Rxf8":958," Qc3":959,"Rh2":960," Rg5":961," Bxg4":962," Rxd2":963," Rxf3":964," Rxd3":965,"Qxc5":966,"Rxf4":967,"R1":968,"Bxf7":969,"Ne":970," Kc4":971," Ba5":972," Na4":973,"Rg5":974,"Nxe7":975,"Nc7":976," Rxf6":977,"Rf8":978,"fxg6":979,"Nxg6":980,"Rg8":981," Rf1":982,"Rxc3":983,"Na5":984," Qxe6":985," Rxe8":986," Rxf5":987," Qe2":988,"Nxg5":989," Rg2":990,"Rxd2":991," gxh5":992," Qxf4":993," Rf3":994," bxa4":995," Nxd2":996,"Qxf4":997," Bh4":998,"Rh6":999," Rg1":1000," dxc3":1001," Qxa2":1002," Rxe6":1003,"Kb4":1004,"Qxc6":1005,"Rxe1":1006," Rh4":1007," exf3":1008," 75.":1009," Rxd7":1010,"Ba2":1011," g3":1012," Rxe2":1013,"Kh4":1014,"Rxe3":1015,"Bxh6":1016," Rxf1":1017,"Nxf4":1018,"Qa5":1019," Nxg3":1020,"Qd8":1021," Rh3":1022," Kh5":1023,"Red1":1024," cxd6":1025,"Rxa5":1026," Qxf3":1027," Ba4":1028," Qxd2":1029,"Ngf3":1030,"Nxf7":1031,"Ne7":1032,"Rh5":1033," Nxg4":1034," Rxe7":1035," cxb5":1036," Rxb3":1037," Rxc6":1038,"Bf6":1039,"cxb4":1040," Qa3":1041," Kb5":1042," Qh3":1043," Qe1":1044,"Rxg7":1045," Qxg5":1046," Qa8":1047,"Nxc3":1048,"Qg6":1049," Rxa4":1050," Qxd1":1051,"Qxh6":1052," Nh4":1053," Qd1":1054," Qf3":1055," Qb2":1056,"gxh5":1057,"Rxf3":1058," R8":1059,"Qb7":1060," Qc1":1061,"Rxh7":1062,"Qe8":1063," Rxg2":1064,"Qxg4":1065," Bxb4":1066," 76.":1067,"Qxf7":1068,"Kxf2":1069,"Rxb6":1070," Nb3":1071,"Qb6":1072," Nb7":1073," Nxf5":1074,"Bh5":1075,"Qxg6":1076," axb3":1077,"Qxb6":1078," Nxd7":1079,"Nxf3":1080," Rg3":1081,"Qc8":1082," Qxe3":1083,"Rg6":1084," Rxa3":1085,"Qxg5":1086,"fxg4":1087,"Qxa7":1088,"Bc7":1089," Rxb4":1090,"Bxg4":1091,"Bxb6":1092,"bxa5":1093,"axb6":1094," Ne2":1095,"Rxb5":1096,"Ba5":1097,"Ng2":1098," Qxf5":1099,"Qa2":1100,"Nd7":1101,"Rxg6":1102," Nxb4":1103," Red8":1104,"cxd3":1105," Rxf7":1106," hxg3":1107,"Kb5":1108," 77.":1109,"Bxb4":1110,"fxe6":1111," Bxf2":1112," Kxf8":1113," fxg3":1114," Bb3":1115," Qxb3":1116,"Bxf8":1117," fxg5":1118,"Qf7":1119," Nxc6":1120,"Rde1":1121," Qxb4":1122,"Qxb5":1123," Bf3":1124," Nc2":1125,"Rxe2":1126,"Qxe7":1127," Qf2":1128,"Rxb4":1129," Bxh3":1130," Qb1":1131," Qxf2":1132,"Ba6":1133,"cxd6":1134," Qa1":1135," gxh4":1136," Bc2":1137,"Qxb4":1138,"Rg":1139,"Rcd1":1140,"Kf6":1141," Qg3":1142,"Rxa4":1143,"Ng1":1144," Nd2":1145,"Qb8":1146," Bxg3":1147,"Nxb6":1148,"Be7":1149," Rxh2":1150," Bxb3":1151," Qb3":1152,"Kd6":1153,"gxf6":1154," Nxe2":1155,"bxc6":1156,"Qxa6":1157,"Qxd7":1158," 78.":1159," Kf3":1160," Rxb5":1161," Ke3":1162,"Kxf1":1163,"Rxa8":1164,"Qxh5":1165," Rg":1166,"Qa6":1167," Qxb5":1168,"Rxh5":1169,"fxg3":1170," Kb4":1171," Kd3":1172,"Bxd3":1173,"Nb2":1174," Rxc7":1175," Rxg3":1176," Bxf1":1177," dxc6":1178," Qxc2":1179," Qxd3":1180,"Rxh6":1181," Ba7":1182,"Ka2":1183," Rfb8":1184,"Ke6":1185," Ba3":1186,"Qh8":1187," Rxa5":1188,"Bh2":1189,"Kc6":1190," Qxe2":1191," Rcd8":1192," Kxe7":1193,"gxh4":1194,"Qxg7":1195,"exf4":1196," Kxf6":1197," Rxf8":1198,"Ng6":1199,"Ndb5":1200," Kxd8":1201," Qxg3":1202," Ng3":1203," a2":1204,"bxa4":1205," Bb8":1206," Rhe8":1207," d2":1208,"Bg6":1209,"Qa8":1210,"Qh7":1211," Be2":1212," 79.":1213," Bh7":1214," Qxg4":1215,"Nf7":1216," Kg3":1217," Bd2":1218," Rxh4":1219," Rxb7":1220," Kc3":1221,"Rxc2":1222,"Rxf2":1223,"Rxf1":1224,"Qa7":1225,"Bxh7":1226," Bxd7":1227," cxb3":1228,"Kg6":1229," c2":1230,"Bd7":1231,"Nce2":1232,"Qxc7":1233," Qxh4":1234," Nxf2":1235,"Ka1":1236," bxa5":1237," Rxh3":1238," Bxa3":1239,"Raf1":1240," Ndf6":1241,"Rhd1":1242," Raf8":1243," Rxa1":1244," Ba8":1245," Nxe6":1246,"Na2":1247," Qxb6":1248,"dxc4":1249," exf6":1250," Nxg5":1251," 10":1252," Qxa4":1253," Ka7":1254," Nxd6":1255," Bxa4":1256," Rxa8":1257," Nxe7":1258,"Qa1":1259,"Qxa5":1260,"Rxg5":1261,"Nxb7":1262," 80.":1263,"Qxh7":1264," b2":1265," Kxd7":1266,"Kxd2":1267," Rde8":1268,"cxb6":1269,"Nxd2":1270,"Rfb1":1271,"Rxa1":1272," Rxg4":1273," Qh1":1274,"Kb6":1275,"Bxd2":1276," Bb2":1277," Nxb2":1278,"Rxb2":1279," Qxb7":1280,"Bxe3":1281,"Bb7":1282," Qxh3":1283," e2":1284," Na7":1285," Nf2":1286," Bxh4":1287,"Kxf3":1288," Qxa3":1289,"Bxa7":1290," Nbc6":1291," Qa2":1292,"Qf8":1293," Qf1":1294," Rxa6":1295," Rxb6":1296," Bg3":1297," Kxh7":1298," Bxh6":1299," Bf2":1300," Qxd8":1301," Nxa4":1302," Nxb5":1303,"Nxb4":1304,"Nxg4":1305,"Qh2":1306," 81.":1307," Bxc2":1308," Rxg5":1309," Ka8":1310,"Nxc7":1311,"Kxe2":1312," Nxb6":1313,"Bf7":1314,"Ndf3":1315," Kb3":1316,"N1":1317," gxf3":1318,"Bg1":1319," Qxg2":1320,"Nxa5":1321," Kh4":1322," Qxc7":1323,"Bxh5":1324,"Qg7":1325,"Rhg1":1326," Rbc8":1327,"Kh5":1328," Rhd8":1329,"bxa6":1330,"Nxc8":1331," Bxa2":1332," Rxb8":1333,"Nh6":1334,"Qxc2":1335,"Rxb8":1336,"Rxg4":1337,"Bxc7":1338,"Nxg7":1339," gxh6":1340,"Rhf1":1341," Rec8":1342," Qxc8":1343," Nxc2":1344,"Nxe2":1345,"Qg8":1346,"Nxe3":1347," 82.":1348,"Ka3":1349," Kxe6":1350," Rxb1":1351," Qxa5":1352,"Qxb3":1353," Qh2":1354,"Rxb1":1355,"Bxa5":1356," Nxh5":1357,"Rxb3":1358,"Qxb2":1359,"Nxa4":1360," Qg1":1361," h2":1362,"Rxa3":1363,"Rbc1":1364," Qxe8":1365,"Rbd1":1366,"Qxd1":1367," Rbd8":1368,"Kxe3":1369," Ka6":1370,"Bxd8":1371,"Bxc8":1372," bxa3":1373,"Nfd2":1374," dxe3":1375," Rxa7":1376,"Nde2":1377," Nh":1378,"cxb3":1379,"bxa3":1380,"Rec1":1381," exd6":1382," f2":1383," 83.":1384,"xf7":1385,"Kxd1":1386," cxd3":1387," Rxh5":1388," Kxg6":1389,"Qxa4":1390," Rhg8":1391,"xg7":1392,"gxh6":1393," Qh7":1394,"Rdc1":1395,"gxh3":1396," Qg8":1397," Bxh2":1398,"Be8":1399," exd3":1400,"Nxd3":1401,"Qg1":1402," Rdc8":1403,"Kxg3":1404,"Rxh4":1405," Be1":1406," Qg2":1407," Qxf7":1408," Nce7":1409,"Nxh5":1410," Bc1":1411," Bxc1":1412,"Qxe1":1413," Qxh2":1414,"Bxe2":1415," 84.":1416," Kxe5":1417,"Qxc1":1418,"Kxf4":1419," Bxd8":1420," Nh3":1421,"Bd8":1422,"Nxf8":1423," N8":1424,"Nxa7":1425," Kxg5":1426," bxa6":1427,"Ba1":1428," Kxd6":1429,"Ka4":1430,"Nxb3":1431," Bxe7":1432,"Bc8":1433," Na":1434," Rhf8":1435," N7":1436," Bh8":1437,"Kxe4":1438," Bxc8":1439," Kxf5":1440,"Kxh2":1441," Bxa6":1442,"Rdg1":1443," Nbd5":1444,"Bxa8":1445," g2":1446," Nxg2":1447," Bxd1":1448," Bd1":1449," 85.":1450," Nxa6":1451,"Rdf1":1452,"Nb7":1453,"Nxh4":1454,"Rxa2":1455,"Nxh6":1456,"Kxg4":1457," Nb2":1458,"Qxf2":1459," Ka5":1460," Bf1":1461,"Kxd3":1462," fxe3":1463," Rce8":1464,"Kc7":1465," Bg8":1466," Rxg7":1467," Nxa2":1468,"Rce1":1469,"exf7":1470,"Nbc3":1471,"Qxe8":1472," Kxh6":1473," Nxa5":1474," Nxh4":1475,"Bxd1":1476,"Nxa6":1477," 86.":1478,"Ke7":1479,"Bg7":1480,"Kh6":1481," Qxf8":1482," Kf2":1483,"Kf7":1484," Bg2":1485,"Qxh4":1486,"Nh":1487,"Bf8":1488,"Nxh7":1489," Bxa1":1490,"Qxc8":1491,"Bh7":1492," Ke2":1493,"Rxh8":1494,"Nxa8":1495," Kc2":1496,"Kd7":1497,"Bxa4":1498," Nxg6":1499," Rxg6":1500,"Kg7":1501," Nxh3":1502,"Kb7":1503," Qxe1":1504," Kd2":1505," Qxa8":1506," 87.":1507," Kxe8":1508," N6":1509," gxh3":1510," Kh3":1511," Kxd5":1512," Rbe8":1513,"Na":1514," Qxg7":1515," Kg2":1516,"Ka5":1517,"R5":1518," Qxh5":1519," Nxc1":1520," Nxf1":1521,"N2":1522,"Nxd8":1523," Rdf8":1524,"Rbe1":1525," Bb1":1526,"Bxc1":1527," Rxh6":1528,"Ne8":1529,"Rxg3":1530,"Nxe8":1531," Qxg6":1532," cxb6":1533," Na3":1534," Rhc8":1535," Rdg8":1536,"Qxa8":1537,"fxg7":1538," Kb2":1539," Nxa3":1540,"Ba7":1541," Bxf8":1542,"Rxg8":1543,"Bxe8":1544,"Rdd1":1545,"Qxg3":1546,"xg2":1547,"R3":1548,"Kxd4":1549," 88.":1550," Qxc1":1551," Nxd1":1552,"R4":1553," Nxd8":1554," Rxh1":1555,"Nbd4":1556,"Bb8":1557," 11":1558,"Kxh3":1559,"Qxf8":1560," Bg1":1561,"Kxf5":1562,"Nxd1":1563,"Kxe1":1564," R4":1565,"R6":1566,"Nxg3":1567," Ka4":1568,"Bxb8":1569,"Qxf1":1570,"Nd8":1571," Kxf4":1572,"Rxg2":1573,"Bg8":1574," Kxc7":1575," Qh8":1576," 89.":1577,"Kxc2":1578,"Bxb3":1579,"Qxg2":1580,"Kxc3":1581,"Rxh3":1582," Rxg1":1583,"Qxa1":1584,"Ree1":1585,"Bxh3":1586," Bxa5":1587,"Na6":1588," Nec6":1589,"Bxh4":1590," Bxe1":1591," Kxc6":1592," Kxh5":1593,"Kxc4":1594,"Nc8":1595,"Kxh4":1596," Ned7":1597," Rcc8":1598,"Kxh5":1599," Bh2":1600," Nfd5":1601," Na8":1602," Kxh4":1603," R5":1604,"Nce4":1605," Nde5":1606,"Rhc1":1607," Ne1":1608," Nhf6":1609," Kxg8":1610," 90.":1611," Qxa6":1612,"Ka6":1613,"xf2":1614," Qxa1":1615," Nxg7":1616,"Kxg5":1617," Nge5":1618,"exf3":1619," R6":1620," Kxg4":1621," Kxc5":1622," a1":1623,"Nge4":1624,"Qh1":1625," Ree8":1626,"N3":1627,"Bxc2":1628," Bxb1":1629," Rdd8":1630,"Bh1":1631," Bxb6":1632," Nxe1":1633,"R7":1634,"Rfa1":1635," Nxh2":1636,"Kxb2":1637," Bxa8":1638," Nxe8":1639," Bxe8":1640,"Bxf1":1641," Nd1":1642," Qxf1":1643," Nxc7":1644,"dxc3":1645," Bxh5":1646," Ka3":1647," Kxb7":1648," N8d7":1649," 91.":1650,"Na7":1651," Reb8":1652,"Kxe5":1653," Rxh7":1654," Nc1":1655," Rag8":1656," N5":1657," Bxb7":1658,"Reb1":1659,"Nde4":1660," b1":1661,"Nfd4":1662," Rfa8":1663," Ba2":1664," Nxa1":1665,"Qxb8":1666,"Nxg2":1667," R2":1668,"Kxb4":1669," Bxc7":1670,"Ng7":1671," 92.":1672,"Bxg3":1673," R3":1674," Qxh6":1675," Raa8":1676," Kxe4":1677," Ncd7":1678,"Nxa3":1679,"Kxg1":1680,"Rxh1":1681,"Rcc1":1682," c1":1683,"Bxe1":1684," Qxb8":1685,"Kxd5":1686," Rxg8":1687," Rxh8":1688,"N5":1689," Nxh6":1690,"gxf7":1691,"Nec3":1692,"Bxb2":1693," Bxg6":1694," cxb2":1695," Nce5":1696,"Rag1":1697," Kxc4":1698," Nxb7":1699," Kxb5":1700," 93.":1701,"Ref1":1702,"Nxe1":1703,"R1d2":1704," Ndxe5":1705,"Red2":1706,"Kxc5":1707," Ng2":1708,"Qxa3":1709," Ngxe5":1710,"Nh7":1711," Nxc8":1712," N7f6":1713," d1":1714," Bxg7":1715,"Bxa3":1716,"Nbxd4":1717," Rff8":1718,"Nf8":1719,"Nbxd2":1720,"Nxc2":1721," Nef6":1722,"Raa1":1723,"dxe7":1724,"Nfe5":1725,"Nxc1":1726,"Rff1":1727," 94.":1728," Kxd4":1729,"R8":1730," fxg2":1731," Ref8":1732,"Qxh3":1733," Nf1":1734," N6d7":1735,"Nxb2":1736," Qxb1":1737," Nh8":1738,"Qxh8":1739,"Nh1":1740,"Ncd5":1741," exf2":1742,"Rxg1":1743," Kxb6":1744," Nce4":1745," Rbb8":1746," Nfe4":1747,"Kxb5":1748," Kxb4":1749," Na2":1750," Nxf7":1751,"Rxh2":1752,"Nce3":1753," e1":1754,"N1c3":1755," Kh2":1756," h1":1757,"Kxa5":1758," Rcb8":1759," 95.":1760,"Kh7":1761," Bxf7":1762," R1":1763,"Qxb1":1764,"Kxg6":1765," Nbxd5":1766,"Kxb3":1767," Nxf8":1768,"Rdh1":1769,"Ned4":1770,"Neg5":1771,"hxg7":1772," f1":1773," Kxa4":1774," Kxh8":1775,"cxb7":1776," Rcf8":1777," Nfxd5":1778," 96.":1779," Qxa7":1780,"Bxf2":1781,"Rde2":1782," Kxg3":1783,"Bxa1":1784,"Ka7":1785,"Kxh6":1786,"Na1":1787,"Rcd2":1788," Kxh3":1789,"N4":1790," Rdb8":1791,"Rdb1":1792," Ndc5":1793," Raxc8":1794," g1":1795,"gxh7":1796," 97.":1797,"Rbb1":1798,"Nxh8":1799,"Rcf1":1800," Kxc8":1801,"Nxh3":1802," 12":1803," Kxf3":1804,"Rdd7":1805," Ka2":1806," Ncxe5":1807,"Nxb8":1808,"Ndxe4":1809,"exd3":1810,"N2f3":1811," Rbf8":1812,"dxc7":1813,"exd7":1814,"Kxa4":1815,"Kxf6":1816,"Nce5":1817,"Rea1":1818,"Rcb1":1819," 98.":1820," Kg1":1821,"Kxc1":1822," Red7":1823,"Rdd2":1824," Kxa5":1825,"Qxa2":1826," N4":1827,"R1e2":1828,"Nxf2":1829," R8d7":1830,"Kg8":1831,"Rbf1":1832," Rcd7":1833,"Nb8":1834," dxe6":1835," Rfxd8":1836,"Nxf1":1837," axb2":1838,"Rdc2":1839,"Raxd1":1840," hxg2":1841," Nh2":1842,"Ree2":1843," Kf1":1844,"Kf8":1845,"Kb8":1846," Rhb8":1847," 99.":1848,"Rhb1":1849,"N1d2":1850,"Kc8":1851,"R2":1852,"Bxg8":1853," Neg4":1854," Ree7":1855,"Kxh1":1856,"Rcc7":1857,"Kxa6":1858,"Nfg5":1859,"Nhf3":1860," Ke1":1861," Kxb3":1862,"N1h2":1863,"Ke8":1864," Kb1":1865,"Qxg8":1866,"Kxe6":1867," Qxh1":1868,"fxe7":1869,"Rfe2":1870," Nxh7":1871," Rde7":1872," Raxd8":1873,"Rfd2":1874," Kc1":1875," 100.":1876,"Ned2":1877," Nbxd7":1878," Bxh8":1879," Nxb8":1880," Rdd7":1881,"Bxh8":1882,"Kd8":1883," Rdd2":1884," Ned5":1885," Kd1":1886," Kxa3":1887,"Kxa3":1888," Rfe7":1889," Nxb1":1890," Rdc7":1891,"Kxb6":1892," Rcc7":1893," Nb1":1894,"Bxg2":1895,"Rge1":1896," N7b6":1897," Rea8":1898," Kxc3":1899,"Rfxd1":1900," R8c7":1901," Nde7":1902,"Raxc1":1903,"Nfxd4":1904,"Ncb5":1905," R7":1906," Bxh1":1907,"Ndc4":1908," 101.":1909," Rgf8":1910,"Ree7":1911," Rdh8":1912," Kxa6":1913," R8e7":1914," Rff7":1915,"axb7":1916," Rcc2":1917," Qxg1":1918," Nfg4":1919," Rge8":1920," gxf2":1921,"Red3":1922," N5f6":1923,"Ned5":1924,"Rgf1":1925,"Ncxe4":1926,"R1c2":1927,"Rcc2":1928,"Kxa2":1929,"Kxc6":1930,"Ng8":1931," Qxh7":1932,"Ncd2":1933,"Rah1":1934," Nfxe4":1935,"Rff2":1936,"Nef3":1937,"Nexd4":1938," 102.":1939," Ndb4":1940," Rah8":1941," Bxg1":1942," gxh2":1943,"N1e2":1944," Nxh1":1945," Nfe8":1946,"Nxb1":1947,"Nxa2":1948," Ncd4":1949,"Rgd1":1950," Nac5":1951," Ree2":1952," Rgd8":1953," Nxa7":1954,"Ree3":1955," Kxa7":1956," 103.":1957," dxc2":1958,"Rec2":1959," bxc2":1960,"Kxd6":1961,"R1f2":1962," Nhf4":1963," Bxa7":1964," Ndc6":1965,"Kxh7":1966,"cxd7":1967,"R3d2":1968," Nxa8":1969,"Bxb1":1970," Kxe3":1971," Nfe7":1972,"Nhf5":1973,"Ngxe4":1974,"Ref2":1975," Rce7":1976," Rec7":1977," Rhh8":1978," R8f7":1979,"Rdd3":1980," dxe2":1981," Ndf8":1982,"Rhh1":1983," Nac7":1984,"N5c3":1985," Ncxe4":1986," 104.":1987,"Rda1":1988," Ref7":1989,"Rce2":1990," Ba1":1991," cxd2":1992,"Bxa2":1993," Rca8":1994," Kxa2":1995,"Nxg8":1996,"Nfd5":1997,"Kxf7":1998," Rcg8":1999,"Rdf2":2000," Rfd7":2001," Kxh2":2002," Nac4":2003,"Qxh2":2004," bxa2":2005,"xf8":2006," Rfg8":2007," Rgg8":2008,"Rfe3":2009," 105.":2010," Nexd5":2011," Nbc4":2012," Nac6":2013," Kh1":2014,"Rde3":2015," Qxh8":2016," Ng1":2017," Nef5":2018," Bxb8":2019,"Rbb7":2020," Kxb2":2021,"Kxa7":2022," Kxg2":2023,"Bxh1":2024,"bxc7":2025,"Kh8":2026," 13":2027,"Nxh2":2028,"Ba8":2029," Rba8":2030," 106.":2031,"Nfe2":2032," Kxf2":2033,"Ka8":2034,"Ndxb5":2035,"N2b3":2036,"xf1":2037,"Rcg1":2038,"Kxb7":2039," Ka1":2040," Rbc7":2041,"R3e2":2042,"Rfd3":2043,"Rfg1":2044," Rab7":2045," Rda8":2046," Rbb7":2047," Nce8":2048,"R1d3":2049,"Rca1":2050,"Kxg7":2051,"Rcd3":2052," Bh1":2053," Rgc8":2054," Ncb4":2055,"Nac3":2056,"Qxh1":2057," N5b6":2058,"N3d2":2059," 107.":2060,"N1f3":2061," Ncd5":2062," Nce6":2063,"Raa7":2064," Rbb2":2065," N8e7":2066,"Rgg1":2067," Rac7":2068,"Ndf1":2069," Qxg8":2070,"Nef4":2071,"Nfxe5":2072,"Rff3":2073,"Rba1":2074," fxe2":2075,"N2c3":2076,"Reg1":2077,"bxa7":2078," Reg8":2079," Ncxd4":2080," Raa7":2081," 108.":2082," Rdf7":2083,"Ndc3":2084," exd2":2085," Raa2":2086," Kxb8":2087,"Rfc2":2088," Kxd3":2089," Nxg1":2090,"Bh8":2091,"R4d2":2092," Nec5":2093,"Nxa1":2094," Nfd4":2095," 109.":2096," Rbg8":2097,"N4f3":2098," Ned4":2099,"Kxb1":2100," Rbd7":2101," Rfc7":2102," Nfe6":2103,"R1e3":2104,"Ncxd5":2105," Rae7":2106,"Ncxe5":2107,"Rbc2":2108," Rcb7":2109,"Qxg1":2110," R6e7":2111," Rfxc8":2112,"Nac5":2113," N8h7":2114,"Nac4":2115," N7c6":2116,"Nfe3":2117," Ndb6":2118,"N2g3":2119," R6d7":2120,"Nde5":2121,"Ngf5":2122,"Rbb2":2123,"Nde3":2124," 110.":2125,"Rgf3":2126,"Ncd4":2127," Ndb8":2128," R8b7":2129," Ree6":2130,"Rff7":2131," Rfe6":2132,"Rbg1":2133," Ncb6":2134,"Nec4":2135," Red6":2136,"Rbd2":2137,"R3f2":2138,"Nbc5":2139," Rff2":2140," 111.":2141," Rad7":2142,"Ndf5":2143," Nxg8":2144,"Rgc1":2145,"Ref3":2146," Nhf8":2147,"Rac2":2148," Nba6":2149," Nfxd4":2150," Rha8":2151," Kxc2":2152," Raf7":2153,"Rab2":2154,"Rdc3":2155,"Rcc3":2156,"N3h2":2157,"Rha1":2158," Rdd6":2159,"R1b2":2160,"Kxc7":2161," Ngf4":2162,"Rcb2":2163,"Nef5":2164," 112.":2165," Neg6":2166," Rcf7":2167,"N5f3":2168," Bxh7":2169," Ndxc5":2170," Neg8":2171,"Raa2":2172,"Ned3":2173,"Rae2":2174," R6f7":2175,"Rdf3":2176,"R3c2":2177," Ncxd5":2178,"Rce3":2179,"Ncd1":2180," R6c7":2181,"R6d2":2182,"R1a2":2183,"Rfxf7":2184,"N7":2185," Nec7":2186,"Rec3":2187,"Nac2":2188,"Rad2":2189,"Nfd3":2190," Rcd6":2191,"Na8":2192," Ncd3":2193,"Ngxe2":2194,"Ncd3":2195," Rgf7":2196," 113.":2197,"Rhf3":2198," Ncxe7":2199," Ned6":2200," Ned3":2201," Rff6":2202,"Rbc3":2203," Rch8":2204,"Rcf2":2205,"Rge3":2206,"Nhf1":2207,"Rdd6":2208," Rde6":2209,"Rgh1":2210,"N4b3":2211," Nfg6":2212,"Ncb4":2213,"R4d3":2214," R5d7":2215," Rgh8":2216,"Rch1":2217,"Ndb1":2218," Rbxc8":2219," R8e6":2220," Nec4":2221," Nde4":2222,"Nbd5":2223," N4d5":2224,"Bxh2":2225," 14":2226," 114.":2227,"R4e2":2228," Rdb7":2229,"Nxg1":2230,"R1c3":2231," Rbc6":2232," Nge6":2233," R8c6":2234," R8d6":2235,"Nfe1":2236,"dxe3":2237," Rcc6":2238,"R5d2":2239," Ngxe7":2240," N7g6":2241," Na1":2242,"Nge3":2243,"exf8":2244,"Ndxc4":2245," Rbe7":2246," Rfg7":2247,"Rhg3":2248,"Reh1":2249,"Neg3":2250,"Ngf1":2251,"Nfxd5":2252,"Rdb2":2253," Ndf4":2254," Ncb8":2255,"Rgf2":2256,"Nh8":2257," R8g7":2258," N8c6":2259,"R1g2":2260," Rgg7":2261,"Nce1":2262," Nef4":2263,"Ncxb5":2264," R8a7":2265,"R1d6":2266," Rab6":2267,"Ndb3":2268,"R4f2":2269," 115.":2270,"R5e3":2271," Ngf8":2272,"R1d4":2273," Rfxe8":2274,"Rdd8":2275,"Nfe4":2276,"Rab3":2277," Kxa8":2278," Ncd6":2279,"R5e2":2280," Nde6":2281," Nbd3":2282,"Bxg1":2283,"Rfg2":2284," R4c7":2285,"Rbd3":2286,"R1f3":2287,"Ndf4":2288,"Raf2":2289," N2":2290," N5c6":2291," Rgf6":2292,"Rbe2":2293,"Ned6":2294," Rbf7":2295,"Nab5":2296," Rfd6":2297," Rba7":2298," R5e7":2299," 116.":2300," Rfxf2":2301," N6h7":2302," Rgb8":2303," Reh8":2304,"Kxa1":2305,"N3h4":2306,"Rhd3":2307," Nfxd7":2308,"R5d3":2309,"Rhg2":2310," Nxh8":2311,"Rgg2":2312," R5f7":2313," Rexd8":2314,"Rfh1":2315,"R4e3":2316,"Ncb1":2317,"Nec5":2318,"Rfxc1":2319," Rca7":2320," Rhg7":2321,"Ncd6":2322," N6h5":2323,"Rhx":2324,"Rgd3":2325,"Red4":2326," Raxb8":2327,"Rfg3":2328,"Ndc5":2329,"Rbh1":2330," 117.":2331,"Rdd4":2332," R5c7":2333,"Reb2":2334," N6d5":2335," Reb7":2336,"Nbd6":2337," Rbh8":2338,"Nhg4":2339," Rfb7":2340," R8f6":2341,"Rfxe1":2342,"Rcc8":2343,"Rgx":2344,"Ncxd4":2345," Rdc6":2346," N3":2347," Rdd1":2348," Rfh8":2349," Nab4":2350," Bxg8":2351,"Nxh1":2352,"Nge5":2353,"Nhf4":2354,"Rdh2":2355," Rac6":2356," Ndf5":2357,"N3d4":2358,"Rbb3":2359," Nh1":2360,"Rcc6":2361," 118.":2362,"Rhe3":2363,"N6":2364," Rgx":2365," R4c6":2366,"xg8":2367,"Rhd2":2368,"Rac3":2369,"Rgb1":2370,"Rexd1":2371,"Rgg7":2372," Nbc5":2373," Nab6":2374," Kxe2":2375,"R5c2":2376," Nfg8":2377," Ndxf6":2378,"Nfg3":2379,"R4f3":2380," Rcc1":2381," Ref6":2382,"N3e4":2383,"N5d4":2384,"Rba2":2385,"Ree4":2386," Nbc8":2387,"Nfxd2":2388,"Ree8":2389," Ree1":2390," Rcc4":2391," Nfd6":2392,"Kxe7":2393,"Rfb2":2394," Nfe5":2395,"Rdg2":2396," 119.":2397," Rce6":2398," Rec6":2399,"Ncb3":2400," Nhf5":2401,"dxe8":2402,"Rhg7":2403," Nec8":2404,"N5e4":2405,"R6d3":2406,"Nbd3":2407," Rcc3":2408," Rhg6":2409,"Raa8":2410," Nge4":2411,"Nab1":2412,"Rbf2":2413," Rge7":2414,"R8d7":2415," Rdd5":2416,"Rhxf1":2417,"Rca2":2418,"Nec1":2419," Rfg6":2420,"R5c3":2421," Rbb6":2422," R5d6":2423,"Rde4":2424," Rhx":2425," Rbd6":2426,"Neg1":2427," Raxe8":2428," Nab8":2429,"Ree6":2430," 120.":2431," Rdd3":2432," R8d3":2433,"Nbc4":2434," R4e7":2435,"R6d4":2436,"Rcb3":2437," Ndc4":2438,"Nab6":2439,"R1d5":2440," Rhf6":2441,"R1c6":2442,"Rbb8":2443,"Nbc7":2444," Rhg2":2445," Rcc5":2446,"Kxd7":2447,"Rfe4":2448," R6b7":2449," R8c3":2450,"R4c2":2451," R8d5":2452,"Nbc1":2453,"Rge2":2454,"Nba3":2455," Rgg2":2456," Rcb6":2457,"Rbxc1":2458,"Reg2":2459,"R7d6":2460,"Ndf2":2461," Rge6":2462," Kxd2":2463,"gxf8":2464,"Rcd4":2465,"N4c3":2466," Nfxg4":2467,"Nhg5":2468," Reg7":2469,"Nec2":2470,"Rgh3":2471," Raa1":2472," R8d4":2473," R8c5":2474," R4c5":2475,"Nbxd6":2476," Ree3":2477,"Rhh7":2478,"exd8":2479," 121.":2480," R4e6":2481," Nbd4":2482,"Rad3":2483,"Nfxg5":2484,"Nexg5":2485,"R1e6":2486," R5e6":2487,"Rgg3":2488,"Nhf2":2489,"Rgd2":2490," R5f6":2491,"Reg3":2492,"N3e2":2493," Rdf6":2494," Nhf7":2495," R1d2":2496," 15":2497," Rba6":2498,"Rab7":2499,"Raa3":2500,"R1h2":2501,"Rhh2":2502,"Nfd1":2503,"Rae3":2504,"dxc8":2505,"Rda2":2506,"R3b2":2507," Rhh7":2508,"Rfd4":2509,"Rea2":2510,"Rhf2":2511,"R1e4":2512,"Rdd5":2513,"Rba3":2514," Nbd6":2515,"Kxc8":2516," R4d7":2517," Rgh7":2518," N4c6":2519,"Rdxd3":2520," Rdxd7":2521,"R6d5":2522," Rdxd6":2523,"Ncxe2":2524," Ncd8":2525," 122.":2526," R8c4":2527," Rda7":2528," Ree5":2529," Rbb1":2530,"Rdb3":2531," Rea7":2532," Rcd5":2533," R8b6":2534,"R5d4":2535,"R1d7":2536,"Rcc4":2537,"Rbb6":2538,"Ngxf7":2539," N6e7":2540," exf1":2541,"Kxb8":2542,"R1b3":2543,"fxe8":2544,"R1a3":2545,"R5e4":2546," Nexg4":2547,"R5f2":2548,"R5f3":2549,"Raxe1":2550,"xh5":2551,"Rcc5":2552,"Rfc3":2553,"Rdxd5":2554,"R1c4":2555," R4f7":2556," R4f6":2557,"Rdc4":2558," R8a3":2559,"Rbe3":2560," R8e5":2561," 123.":2562," Raa3":2563," Rab2":2564," Red5":2565,"Nde6":2566," R1e2":2567,"R8e7":2568," R5c6":2569," Rfe5":2570,"R1a6":2571," Naxc5":2572,"Nac6":2573,"Rgh2":2574,"Rexe6":2575,"Ncb6":2576," Rbb3":2577," N8c7":2578," Nge8":2579,"Ree5":2580,"Rbxb7":2581,"Neg4":2582,"Raa6":2583," N5g6":2584," Rbxb2":2585,"Ncxd6":2586,"Rgxg7":2587," Kxf1":2588," Raa6":2589,"Nexd5":2590,"Rdxd4":2591," Nfd3":2592," Rhh2":2593,"Rff4":2594," Nfh5":2595," Kxc1":2596," Rcxd8":2597,"Rdxd7":2598," R8h7":2599,"Ngxe6":2600,"N1a2":2601," Nce3":2602," R3d7":2603," 124.":2604," Rdg7":2605,"Ndc6":2606,"Rgf7":2607," Rac5":2608,"Rexe4":2609,"Rexe3":2610,"cxd8":2611," N6e5":2612,"N4g3":2613,"Nfe6":2614," Kxe1":2615,"R2d3":2616,"Rhf4":2617,"Rbc7":2618," R8e3":2619," Rdd4":2620,"Kxd8":2621,"Raxb1":2622," Rbb4":2623," Nhg7":2624,"Naxc5":2625," Rfa7":2626," Rgxg2":2627,"Naxc4":2628,"Rff6":2629,"Rfa2":2630,"R1e5":2631,"R1h7":2632," Kxd1":2633," N4e5":2634,"Kxa8":2635,"Rbd4":2636," R4b7":2637,"Rcf3":2638,"Rfh3":2639,"Rgf4":2640,"Rexe7":2641," Nba4":2642,"Nge6":2643," Rhf7":2644,"R1e7":2645," Rcxc2":2646," Nde3":2647," cxd1":2648," Ngxf6":2649,"Rhh3":2650,"R7c6":2651," R2d3":2652,"Rac4":2653,"Rhe2":2654," Rexe7":2655," Rdxd5":2656,"Ndxe6":2657," R8a6":2658,"R1c5":2659," 125.":2660," Rff3":2661," R8e4":2662," Nhg4":2663," Kxb1":2664," Rde5":2665,"Raxa7":2666,"Nfg1":2667,"Nef6":2668," Rgf2":2669,"R8c7":2670," Rbc5":2671," Nexc5":2672," Ree4":2673," Rfd5":2674," Rhxf8":2675," Rgd7":2676,"xh4":2677,"xg1":2678," dxe1":2679,"R4c3":2680,"Rdg3":2681," Nexf6":2682," Ndf7":2683,"Ref4":2684," Rga8":2685,"Rca3":2686," R6g7":2687," Rff5":2688,"Kxf8":2689,"Nfd6":2690," Rac4":2691," R8d2":2692,"N2c4":2693,"Red7":2694," Nfe3":2695," Rexe6":2696," Rgh6":2697," Rff4":2698," 126.":2699,"Nfxe6":2700," Ndxe7":2701,"Rbc4":2702,"R6e2":2703," Naxc4":2704,"Nac1":2705," Rad6":2706,"Nab3":2707,"Rfe7":2708,"Ngh5":2709," Rgg6":2710," R4d6":2711," R2c3":2712," Rdc5":2713," Rca6":2714," Rdb6":2715,"R1f4":2716," R1c2":2717,"R1c7":2718," gxf1":2719," R6a7":2720,"Red5":2721,"Rdxd6":2722,"Rdxd2":2723," N6a5":2724," Nfxe5":2725," R4e5":2726,"Rdf4":2727,"R3g2":2728," Nge3":2729,"Ngh2":2730," Raxa2":2731," R8e2":2732," R8c2":2733," Ngf5":2734," Rdxd4":2735,"Nexf4":2736," Nac3":2737," Rbb5":2738," Rbxd8":2739," Kxa1":2740," Rexc8":2741,"N5a3":2742," Rhe6":2743," N7xf6":2744,"R7e6":2745,"Rcxd1":2746," Rbd5":2747,"Rga1":2748,"Rdc7":2749,"R4b2":2750,"Rfh2":2751,"xh6":2752," Rcg7":2753," Nef8":2754,"xh7":2755,"Rexe5":2756,"Nef1":2757,"Kxe8":2758," Nhg5":2759,"Ndxe2":2760,"R5c4":2761," 127.":2762," Nhxf4":2763,"Nce6":2764,"Rcxc3":2765,"R1g3":2766,"Rcg2":2767," Rcxc3":2768," Rgf5":2769," R5b7":2770,"Rexe2":2771," Rcxc7":2772," Kxg1":2773," Rexe5":2774,"Rag7":2775,"Rhd4":2776,"R1a5":2777,"N3a4":2778,"Rac5":2779,"Kxg8":2780," Kxh1":2781,"Nfxe4":2782," Nexd4":2783," Ndc7":2784," R4d5":2785," R4b6":2786,"bxc8":2787," Rae6":2788,"Rcxc6":2789,"R5f4":2790," Nca6":2791," R8g6":2792,"Rff8":2793," Ref5":2794,"Nhxf5":2795,"R6e5":2796," R3c7":2797,"Rbg7":2798,"Raf3":2799,"Ndxe5":2800,"bxa8":2801," Rce5":2802," Rbe6":2803," bxc1":2804,"Rfxf6":2805," Nexc4":2806," Rbxb7":2807," R4f5":2808,"Rec4":2809,"Rcxc7":2810,"Rhg4":2811," Rag2":2812," exd1":2813,"Reb3":2814," 128.":2815,"Nbxc5":2816,"R6f4":2817," Raa4":2818,"R6f2":2819," Rhf5":2820,"Ngf6":2821,"Nhg3":2822,"Nab2":2823," Nef3":2824," Rfe2":2825," Neg7":2826,"Naxb5":2827," Nbxc4":2828," Rdxc8":2829," Ndc3":2830," R8f5":2831,"Ndc2":2832,"R3a2":2833," Rgc7":2834," bxa1":2835,"Rac7":2836,"Ndxf3":2837,"Ned1":2838,"Rge4":2839," Rac2":2840," R8b3":2841," Nhg6":2842," Nhxf6":2843,"Rad4":2844,"Rce4":2845," Ncb5":2846," N7c5":2847,"hxg8":2848," Rcxc4":2849,"Nexc4":2850,"Rbd7":2851,"R6e4":2852," Rbc2":2853," Nexf5":2854," Rfh7":2855,"Rexd4":2856,"Rbb4":2857,"Nec6":2858," Rab5":2859,"Ngf4":2860,"Rhe4":2861," Nfd8":2862," N7e6":2863,"R7d5":2864,"R2e3":2865,"Rff5":2866," Ngh7":2867," Nca4":2868," Rcxc6":2869,"Rcg7":2870,"Rab4":2871,"Kxh8":2872," Red2":2873,"Rbxb2":2874,"R1h6":2875,"R1b6":2876,"R1a7":2877," R8a4":2878,"R7d2":2879,"Rexd3":2880," R3c4":2881," 129.":2882,"xh3":2883,"Rbf3":2884,"Rcd7":2885," Ngh6":2886,"Rdh3":2887,"R6c2":2888," Reg6":2889," R8h2":2890," Rfxf7":2891,"cxb8":2892," R3d4":2893," Nhg8":2894,"Rhh8":2895," R2e4":2896," Raa5":2897," Rff1":2898," Rexe2":2899,"Ngxf3":2900,"Rde5":2901,"Nfh5":2902," dxc1":2903," Rcg2":2904,"Nhg2":2905,"R5b2":2906,"Rbb5":2907,"R1xd4":2908,"R1a4":2909,"Ngh3":2910,"Reh2":2911," Rbg2":2912," N8e6":2913," R2e3":2914,"Rcxc4":2915,"R6e3":2916," fxe1":2917,"R8d6":2918," R3d5":2919," Nde8":2920," Rgd6":2921," 130.":2922," Rhh1":2923,"R7e5":2924," Ngh5":2925," Nec3":2926,"Nhf6":2927," Rexe4":2928," R8a2":2929,"Rcxc5":2930," Rbd2":2931,"N1c2":2932,"Rhxh7":2933," Rfh6":2934," Rhe7":2935,"R1h3":2936,"R4a3":2937," N8a7":2938,"Rexd5":2939,"Raa4":2940," Rcxc5":2941,"Rcxc2":2942,"Nexd6":2943,"axb8":2944,"Nexf7":2945,"Rcd5":2946,"Rbxd1":2947,"R6f3":2948," R2d4":2949,"Raxa6":2950," Rec5":2951,"Ndf6":2952," Ncxb4":2953," Rge5":2954,"N7d5":2955," Ndxe4":2956,"R1b7":2957," N7a6":2958,"Ncxe6":2959," N8f6":2960," Rhd7":2961,"Nde1":2962,"Rec7":2963,"Nfg4":2964,"Qc":2965,"Rgc2":2966,"R8f7":2967,"Rad7":2968,"N1e3":2969,"R4b3":2970,"Ngxe5":2971," Rdc4":2972," Rca4":2973," Rca5":2974,"R4a2":2975,"Rfd7":2976,"Ngxf5":2977," Rcxd6":2978,"R7d3":2979,"Rfe5":2980," Nac8":2981," R2c4":2982,"R8h7":2983," R8h3":2984,"Rgh4":2985," Rfxf3":2986," Rexd6":2987,"Nexd2":2988," Rbc4":2989,"R7c2":2990," R3e4":2991,"Nexf5":2992," Rab4":2993," Rcb5":2994,"Nca4":2995,"R6c5":2996,"Rbd5":2997," R5b6":2998,"Red6":2999,"Ndxf7":3000,"N1d3":3001,"Nba5":3002,"Rfg4":3003," Rhg5":3004," Ncxd3":3005," R8a5":3006,"Rgc3":3007," 131.":3008," Qc":3009,"Rfh4":3010," Nbxd3":3011," Rcd2":3012,"Reh3":3013," Rcd4":3014,"Rge7":3015," N4a5":3016,"Nde7":3017,"R1xd5":3018,"Rfxf5":3019," Rdh7":3020," R3e7":3021," N4xd5":3022,"Rdxe4":3023,"Rcb4":3024," R5a6":3025,"R8a7":3026," Rfc6":3027,"Rfxf2":3028," N6xd5":3029," R2a3":3030,"fxg8":3031," Qd":3032," N8g6":3033," 16":3034,"Nbc6":3035,"R1f6":3036," R8b4":3037," Nab7":3038,"R5g3":3039," R7d6":3040," R5a7":3041,"R8b7":3042," axb1":3043," Rad5":3044,"R5b3":3045,"Rhf5":3046," Rdc2":3047,"Ndc7":3048,"Qd":3049," Ngxe4":3050,"Rexc1":3051,"Rgxg6":3052,"R2c3":3053," Ndxb4":3054," R3f7":3055,"Raa5":3056,"Rhg5":3057," Rexe3":3058,"Rhd7":3059," Rdb5":3060," Nexd7":3061,"R1f7":3062,"R7e2":3063," R3c5":3064,"Rdxe5":3065,"Rab5":3066," Ngxf2":3067,"Rfxf3":3068," Rge2":3069," 132.":3070," Raxa4":3071,"R6c4":3072,"Rca4":3073," Rhg4":3074," Rhh6":3075,"Rdg7":3076,"Rdb4":3077,"R1b4":3078," R8b2":3079,"R7c5":3080,"R7b6":3081," Rcxd5":3082," Rad2":3083,"Rea3":3084," Ndf3":3085," Rba5":3086,"Qb":3087,"R7f6":3088," R2c7":3089,"Rdc5":3090,"Rfb3":3091,"Rda3":3092,"Rba4":3093," R8b5":3094,"Rgg8":3095," Rgg4":3096," R7e6":3097,"Rac6":3098," Rfxe6":3099,"Ndb4":3100," Rfd2":3101,"Rgg6":3102,"Rcd6":3103," Nfg5":3104,"Rab6":3105,"Qa":3106,"Rhe7":3107," R1f2":3108," R1b2":3109,"Ngf7":3110," Reh7":3111," Rbxb3":3112,"Rgd4":3113," Rag7":3114,"R7a6":3115,"Ndxc5":3116,"Rdc6":3117,"gxh8":3118," Nab3":3119," R4g6":3120," Qe":3121,"Ndxf5":3122,"Rhc3":3123," Rfxf4":3124,"N1f2":3125,"Rhh6":3126," Rce4":3127," R1h2":3128," Nbxc6":3129,"R5a2":3130,"R6f5":3131,"R7e3":3132," 133.":3133," Nbc7":3134," Neg5":3135," R3b7":3136," Red4":3137,"Rge5":3138,"Raxa5":3139," Rfxf6":3140," Rhf4":3141,"Rca5":3142," R4b5":3143," Rcxd4":3144,"Rfxf4":3145," Rdf5":3146,"Rbd6":3147," N7e5":3148,"Rde7":3149,"Rdxe3":3150,"N2e4":3151,"Nfh4":3152," R3f4":3153," R1a2":3154," R8h6":3155,"R5a4":3156," Rbd4":3157," R8f3":3158," Rgg3":3159,"R7d4":3160," Rde4":3161," R3e5":3162," Qb":3163," R3d6":3164," R1d3":3165," Rgf4":3166,"Rcxd5":3167," 134.":3168,"Rcxd4":3169,"Rfxe3":3170," Rfe4":3171," Rbxb4":3172,"Rdxc1":3173,"R5b4":3174," R3f6":3175," R3f5":3176,"Nca3":3177," R2b3":3178,"Qe":3179,"R4g3":3180," Rhxh2":3181,"Rae7":3182,"Neg2":3183,"R6c3":3184,"Rdxf1":3185,"R1xe4":3186," Raxf8":3187,"Rbc5":3188,"Nhg1":3189,"Rfc7":3190," Reb6":3191,"N3c4":3192," R7c6":3193,"Qf":3194," cxb1":3195," Rhe5":3196," R5g7":3197," Rbf2":3198," Rab3":3199,"Rhc2":3200,"Nfh2":3201,"Nab4":3202,"Ndb2":3203,"R4g2":3204," Rexd5":3205," Rdxd3":3206," R8f4":3207," Rgg1":3208,"R6b2":3209," Qa":3210,"Rec5":3211,"R1xd2":3212,"Ned7":3213,"N1g3":3214," N4h5":3215,"R7c3":3216," Rac3":3217,"Rhf7":3218," Rec2":3219,"N3xd4":3220,"Rdxc3":3221,"Rbxb6":3222,"Rad6":3223," Rfg5":3224," Rcf6":3225," Rbxb6":3226,"Rgd7":3227," N8xd7":3228," R2f3":3229," Qf":3230," Ngf7":3231," Rec4":3232," Rhxc8":3233,"Rch2":3234,"R5g2":3235," Rdg2":3236,"Rbxb5":3237," 135.":3238," Raxa7":3239,"Rexd2":3240," R8f2":3241," Rgxg3":3242,"N2e3":3243," N4a6":3244," Nhf3":3245,"Rce5":3246," Rgh5":3247,"Ncd7":3248,"Rgf5":3249," Rgg5":3250,"N3g4":3251," Rfxb8":3252," Rhe2":3253,"R6b3":3254," Nbxd4":3255,"R6xd5":3256,"xh2":3257,"Nbxd5":3258," Rexd7":3259,"R5a3":3260,"Ndb6":3261,"Rae4":3262," Rae2":3263,"Rdxe6":3264,"Rcb7":3265," Ncb3":3266," R4g7":3267," R3a4":3268," Rhd5":3269," Rhd6":3270,"Rgg4":3271," Ngxf4":3272," Rdxd2":3273," R2d7":3274,"Rfd5":3275,"R3h2":3276," Rce2":3277," N8d6":3278,"N8":3279,"Rhg6":3280," R2c6":3281,"Raf7":3282," Rbxb5":3283," R8xd5":3284," N6xe5":3285,"Qh":3286,"Raxa4":3287," Rfh5":3288,"Nbc2":3289,"R1b5":3290," R5g6":3291,"R7e4":3292," R4a7":3293," Rdxe5":3294," Rfxf5":3295," Rcb4":3296,"Rag2":3297," Raf2":3298,"Rdxc4":3299," Nca5":3300," R7f6":3301," Raxa3":3302,"Ngf2":3303," Rhh5":3304,"Nexc5":3305,"Nca5":3306,"Nfxd6":3307," Ncxe3":3308," 136.":3309,"Rhh4":3310," Rcxd7":3311,"Rbf7":3312," R8xd7":3313," R3b6":3314,"R6a5":3315,"Rad5":3316," Ndxe3":3317," Rbe2":3318," Nef7":3319," N5e6":3320," Rhh3":3321,"Rce7":3322," Ndxf4":3323,"Rgg5":3324," R3b4":3325," Rhg3":3326," R3c6":3327,"Rfxe4":3328,"R1h4":3329,"Rde6":3330," Rcf2":3331,"Nexc3":3332," R2d6":3333,"Nbxc3":3334,"Rhg8":3335," Rde2":3336," Nexc6":3337," Rgd2":3338," Rhd2":3339," Nbc2":3340,"Rbe7":3341,"R1f5":3342,"R1xd3":3343," Nbc3":3344," Ngf3":3345," Ned8":3346," Nexf4":3347,"Rbc6":3348," Ndb5":3349," N8g7":3350,"Qg":3351," Rcd3":3352," Rbg7":3353," Rgc2":3354," hxg1":3355," Raf6":3356,"Rcf7":3357," R2e7":3358," N4xe5":3359,"Rfxe2":3360,"Ndxf4":3361," Rfc2":3362,"R2f3":3363," R3e6":3364," 137.":3365,"Rfd6":3366," Rdxe6":3367,"Rbxb4":3368,"Ncxb4":3369," N8a6":3370," Raxa5":3371," Rfxe7":3372,"Rbxb3":3373," Ndb7":3374," Nab5":3375,"R6b4":3376," R2d5":3377,"Rdb7":3378,"Ref5":3379," Rcxc8":3380," Ndxc4":3381," Rhh4":3382,"Reg4":3383," Rda6":3384," N6c5":3385," Rcb2":3386,"Nhg6":3387,"R5g4":3388," Rdxe7":3389," Raxa6":3390,"R2d4":3391," Qh":3392,"Raxa2":3393," Rbf6":3394," R2e6":3395,"Nfe7":3396," R8xe7":3397," R4a6":3398," R6h7":3399,"N3xe4":3400,"Nge1":3401,"Rdxf7":3402,"Nbxc7":3403," Nfh4":3404,"Rcxd2":3405,"Rcxd3":3406," R8xd6":3407," R4a5":3408,"R6b5":3409,"R1h5":3410,"Rfe6":3411," Ref4":3412," Reg5":3413," R8h4":3414," Nhg3":3415,"Rfg7":3416,"Nfg6":3417,"N5a4":3418,"Rdxc5":3419,"Rhc7":3420," Rcxe4":3421,"R7c4":3422," R2b4":3423,"N3d5":3424,"Nexf6":3425," 138.":3426," Rfxe5":3427,"Rdf7":3428," Nde2":3429,"Rdh4":3430," Rhg1":3431,"Rcb5":3432,"R1xe6":3433,"Nef2":3434," N2d4":3435,"Rdb6":3436," Rdg6":3437,"R1xe5":3438," Rge4":3439," N6g5":3440," R3b5":3441,"R8e6":3442," Nfh7":3443," N4c5":3444,"Rhxh6":3445,"Ndc1":3446," Nexd3":3447,"Nac7":3448," Qg":3449,"Nba4":3450,"Rgc7":3451,"N1g2":3452," Rfd4":3453," Red3":3454," Rda5":3455,"R7b3":3456," R1e3":3457," Nba5":3458," Ngh4":3459," Rdf4":3460," Rbc3":3461,"Rba5":3462," Naxc3":3463," R2f4":3464," R8xc5":3465," R4g5":3466,"R7f3":3467," N6c7":3468," Ndxf2":3469," R8h5":3470," Rhc7":3471,"R1xc4":3472,"Rbg2":3473," Ncd2":3474," R2b7":3475," 139.":3476,"Rda4":3477,"Rhh5":3478," Rba4":3479,"Rgb2":3480," N6f5":3481,"N2xf3":3482,"Rdf6":3483," Rea6":3484," Rdc3":3485," Nexf3":3486,"Q8":3487," Rdb4":3488,"Nexf3":3489,"Rfb7":3490," Nbd8":3491,"Rdxc2":3492," Rbxc6":3493," R8xd4":3494,"Rgf6":3495,"Rbe4":3496,"Nfh3":3497," Ned2":3498," Rgd5":3499,"R5xd4":3500," Rdxc5":3501,"Rcg3":3502," R2e5":3503,"R8d2":3504," Ngf2":3505," N1":3506,"Rdb5":3507," Nfe2":3508," Rch7":3509,"Rcb6":3510,"Nce7":3511," Ncxd7":3512,"R1xe2":3513," R3a6":3514," Rfc5":3515," fxg1":3516," Rgc6":3517," Rgb7":3518,"Rfa3":3519," Rfxd6":3520,"Reh4":3521," Rexd4":3522," R2f6":3523,"N1a3":3524," R3a7":3525,"Rhxh5":3526,"Rhe5":3527," Rbd3":3528,"R1xc2":3529," Rfb2":3530," Rbxc4":3531," Nexf2":3532,"R1g4":3533,"R5h4":3534,"R4h2":3535," N5f4":3536,"R8c6":3537,"Rdxe2":3538,"R7f4":3539," Rae5":3540,"Ngh4":3541,"Rhf6":3542,"Ref7":3543,"N5c4":3544," Nexd6":3545," Rad4":3546,"Rdxe1":3547," R8xe6":3548,"N4f5":3549," 17":3550," Rfb6":3551,"Nbd1":3552,"Rdf5":3553,"Reb7":3554," Ncxe6":3555,"R3d4":3556," R5h7":3557,"R7f2":3558," R8xc6":3559," Nbxa4":3560," Rdf2":3561," Rhf2":3562,"R1xf2":3563,"R6a4":3564,"Rdxc6":3565,"Reg7":3566," Rdxc6":3567," Rdxd8":3568," R8xe5":3569,"Nhxf6":3570,"N3f4":3571," 140.":3572," Rfe3":3573," Ndc8":3574," R1c3":3575," N4f6":3576,"Ndxc6":3577,"Rca6":3578," Rgf3":3579,"R8d4":3580," Ngxe3":3581," R8g5":3582,"R5h2":3583,"R8d3":3584," R1d5":3585,"Rfxd2":3586," Nfxe3":3587,"N1xd2":3588," R2g3":3589," R7b6":3590," Naxb3":3591," Rdxc7":3592,"R8d5":3593," Rdxe4":3594," Rdxe8":3595," Rdxf8":3596,"Ndxc3":3597," Ndxf5":3598,"Nhxf3":3599,"Naxc6":3600,"R2a3":3601," Reb2":3602,"R6h4":3603,"R7h6":3604,"N5h4":3605," R7d5":3606,"Rae5":3607,"Rfg5":3608,"Rfc4":3609,"Rgf8":3610,"Raxc6":3611," Rfxd7":3612," Rcf4":3613," R8xc7":3614," R2c5":3615," Rexf5":3616," Nfxe6":3617," Rhxh3":3618,"Raxf1":3619,"Rcxd6":3620,"R1xc3":3621,"R7b2":3622,"Rda5":3623,"Ndf7":3624,"Rgxg5":3625," Rfg2":3626,"Ngxf6":3627,"R4h3":3628," R2b6":3629," 141.":3630,"Nhxg6":3631,"Nef7":3632,"R6a2":3633," Raxb4":3634,"Rgh5":3635," N8f7":3636,"R7g6":3637,"Raxb5":3638,"Raxa3":3639," Raxc3":3640,"Rfxd3":3641,"Rexf4":3642," Rexf6":3643,"N5xe4":3644," Rgxg7":3645," Rde3":3646," Rcb3":3647,"Rcxc1":3648,"R1g7":3649," R4h7":3650,"R7f5":3651," N5xf6":3652,"Rbxc3":3653," Rfd3":3654,"Rec6":3655," Ref2":3656," R8xf7":3657,"R6g5":3658," R2f7":3659,"R2c4":3660,"Nbd7":3661,"Red8":3662," Reh6":3663,"Rcxf7":3664,"R8g7":3665,"Rgxf1":3666,"Rad8":3667,"Raxb4":3668," Raxb2":3669," R1g2":3670," Nhxg4":3671," Raxc4":3672," Rhf3":3673," Rhc2":3674,"Rbxd5":3675,"R1xe3":3676," R1d4":3677,"R2b3":3678," R7c5":3679," Rdxf2":3680," Rhxd8":3681,"R6g4":3682,"R2d6":3683," Raxd7":3684,"Rfxe5":3685," Nfg3":3686," R8xe4":3687," R2h3":3688," 142.":3689,"Rexf5":3690," Red1":3691," Rhe4":3692," Rdxc4":3693,"R1xc5":3694," R8g2":3695," N8b6":3696,"R7a5":3697," R3a5":3698," Reg2":3699,"Rbxc6":3700,"Rfh5":3701,"Rhxe1":3702,"Rexd6":3703," Rdb2":3704," Rbe5":3705," R3g7":3706,"Rdxf6":3707,"Ref6":3708," Rce3":3709," Rbxd6":3710," R2a4":3711,"Rhb2":3712,"Reg5":3713,"Rexf3":3714,"Rce6":3715,"Nec7":3716,"R7b5":3717,"Rfxd4":3718," Rfc4":3719," Rec3":3720,"Nexc6":3721," Rhb2":3722," Rbe4":3723," Rgxg4":3724,"Rexc3":3725,"R1xd6":3726," R8g3":3727," Nhxf5":3728," Q1":3729,"Raxb7":3730,"R6xd4":3731,"N7e5":3732,"Rah2":3733," Rdf3":3734,"Rgb7":3735,"R2e4":3736," 143.":3737," Naxb4":3738," Rexf7":3739,"R5xe4":3740,"N3a2":3741,"Nhxg5":3742,"Rab8":3743," Raxb6":3744,"Ndxf6":3745," Rcxe5":3746," Rca3":3747," Rcxe8":3748," Rbxf2":3749,"N2d4":3750," R5h6":3751," R3g4":3752,"Naxb6":3753," Rfg4":3754," Nfg7":3755,"Rbxc4":3756,"R1xc6":3757," R8xc3":3758,"Rgb3":3759," N7xb6":3760,"N2d3":3761,"Nbxa5":3762," Rexe8":3763," Rbxe8":3764," Ndxc3":3765,"R6h5":3766,"N5xd4":3767," Rac1":3768," Raxc5":3769,"Rdg4":3770,"N1b2":3771," R3g5":3772," R1e4":3773," Raxd6":3774,"Rea4":3775,"Nhxf4":3776," N2c4":3777,"Rfe8":3778," Nfh6":3779,"Rcf4":3780," Nexc3":3781,"N4b5":3782," Rad3":3783," Rfxf8":3784," Reh5":3785," Rhxe8":3786,"N2f4":3787," R2a7":3788," 144.":3789,"Raxd6":3790," Raxb5":3791," Raxb3":3792," Reg4":3793," Rhd4":3794," Rcxf2":3795," Rae4":3796," Rdb3":3797," Rcf5":3798,"Rcxe4":3799,"Rbc8":3800,"Ncxb6":3801,"Naxc3":3802," R2f5":3803,"Rac8":3804," Ndb3":3805," Rgc5":3806," R1e5":3807," Rcxb5":3808," Rcxe7":3809,"Ncxd7":3810,"Nfxg6":3811,"Rge6":3812," Rab1":3813,"Rdxd1":3814,"Ndxe7":3815," Rbxa4":3816,"Rgxg4":3817," Rhxh4":3818,"Raxf7":3819," Rfh4":3820," Rgh4":3821,"R6xe5":3822," Rbxc3":3823,"Rfxf1":3824,"Rhe8":3825,"R1g6":3826,"R6h2":3827," N3c5":3828,"Reg6":3829,"Rexf2":3830," Nfxd3":3831," Rexf4":3832," Rcd1":3833," Rbxd4":3834,"Rbxf7":3835," Nce2":3836,"Nexd7":3837,"Nhxf7":3838,"R7xe6":3839," Rad1":3840,"Rhb7":3841," Rcxb4":3842,"Rcd8":3843,"Rbf4":3844," Rgf1":3845," 145.":3846,"Reb4":3847," Rgxg5":3848,"R2d5":3849," Nhxg3":3850," Rfxe4":3851,"Rhe6":3852,"Rch3":3853,"Rbxc5":3854,"Rbxd6":3855,"Ncxe3":3856," Ndxb6":3857," R1d7":3858,"Rfxb1":3859,"Rbe5":3860," Ndxf3":3861," Ncxb3":3862,"R7a2":3863," Rae1":3864," Ref3":3865," Rdh6":3866," Rcxb7":3867," Rbxe4":3868," R8xe3":3869,"Rgd5":3870," R4h5":3871," N4g5":3872,"N7b5":3873,"Raxd5":3874," Rah7":3875," Raxb7":3876," Rhc5":3877,"N5g4":3878," R7d4":3879," R7d3":3880," 146.":3881," Rgxf8":3882," Ncxb5":3883,"Raxc5":3884," Rfxd5":3885,"Rexf7":3886,"Rcxe6":3887," R8xf5":3888," R8xb5":3889,"N3c2":3890," R3h4":3891," Raxc7":3892,"Rexc2":3893," Rdxe3":3894," Rba3":3895," Ncb7":3896," Neg3":3897," Rge3":3898,"R5h3":3899,"R7b4":3900," 147.":3901,"Raxb2":3902," Raxc6":3903,"Rfxe6":3904," Reb4":3905,"Rbxa5":3906," Ncxd6":3907,"R1g5":3908,"R6g2":3909,"N4e3":3910,"Raxb3":3911," Rfxc7":3912," Rexc7":3913," Rdxc3":3914,"Ndxc7":3915," Rcxf7":3916," Rbxd5":3917,"R1xf4":3918," Nhxf3":3919,"R8b6":3920," R7g6":3921,"Rhc4":3922,"Rhb3":3923,"Rexe1":3924," Rbxc5":3925," Rgb2":3926," R3g6":3927," R7a6":3928," Rfe1":3929," Nfxe8":3930," N5e4":3931," N4e6":3932,"Raxd4":3933,"Rfg6":3934,"Nbxc4":3935," gxh1":3936,"Rcxb4":3937,"Rbg3":3938," Rdg5":3939," Nef2":3940," R4xd5":3941,"R8e4":3942," N3f4":3943,"Rdg6":3944," Rbxd7":3945," Rbxc2":3946,"Rbxd4":3947,"R6g3":3948,"R6a3":3949,"R8e5":3950," 148.":3951,". ":3952," Raxd5":3953," Ngxf3":3954,"Rdc8":3955,"Rda6":3956," Reb5":3957," R4xc5":3958,"R7g5":3959," R1d6":3960," N4f5":3961,"R2d7":3962,"R2c6":3963,"Raxb6":3964,"Rfxd5":3965,"R1xf5":3966," Rgd4":3967,"N2a3":3968," R7c3":3969," Rdxf7":3970,"Rcxc8":3971," Ncxb6":3972," R8xc4":3973,"Rge8":3974,"Rgxg2":3975,"Raxc4":3976," Nbxc5":3977," Rhe1":3978," Ndxe6":3979,"Neg6":3980," R8g4":3981," N2e4":3982,"Rag3":3983," Rhc6":3984,"Rcxe1":3985," Rbd1":3986,"Nfxe7":3987,"Rgc4":3988," Naxc6":3989," R2g4":3990,"Nhxg4":3991,"Rfxc3":3992," Rdh5":3993," Ndc2":3994,"N2xb3":3995,"R4xd3":3996,"Raf8":3997,"Rag8":3998,"Raxe6":3999,"Rhxd4":4000,"Rhxf7":4001," Rexc4":4002," Rexc6":4003," Rbc1":4004,"Nexg6":4005,"R3xd2":4006," R7e5":4007," Rdxf4":4008,"Rcxe5":4009,"Rba6":4010," R1e6":4011,"R2g3":4012,"Raxd3":4013," Ngxe6":4014,"Rdg8":4015,"Rhd5":4016,"Rhxd3":4017,"Rcxe3":4018," Nexg3":4019,"R1xf3":4020," R8xf6":4021," Rga7":4022,"Nhf7":4023,"R7xc6":4024," R1a3":4025," 149.":4026," Raxf7":4027,"Ngxh7":4028,"Rbd8":4029,"Rbh2":4030,"Rbxd3":4031,"R3f4":4032," R4h6":4033,"Rcxb2":4034," Rbh7":4035," N7d5":4036," R6d5":4037,"R8e2":4038," R1c4":4039,"Rgxf3":4040,"Raf4":4041," Rag1":4042," Raxf2":4043," Rfa6":4044," Nbd2":4045,"Rdxf5":4046," Rhf1":4047,"R7a4":4048," N3e5":4049,"Rfd8":4050,"Rfxd6":4051," Rbxc7":4052,"Rbxa4":4053," Rgc4":4054,"R3e4":4055,"R8e3":4056,"N6f5":4057," Rfg3":4058," Rfb5":4059," Rea5":4060," Rcg6":4061," N7d6":4062," R2xc3":4063," R2a6":4064,"N5e3":4065," R1e7":4066,"N7c5":4067,"Rhxf5":4068,"Rhxd1":4069,"Rhxc1":4070," Rdc1":4071," Ncxe8":4072,"Rgxg3":4073,"R3c4":4074,"R7a3":4075,"Rdxf3":4076,"Rexc4":4077," Rexb7":4078,"Rhf8":4079,"Rexf6":4080," Rhb7":4081," Rbxa6":4082," Ndf2":4083,"Rgxe3":4084," N6a7":4085,"R6h3":4086,"N4e5":4087,"R2f4":4088," 150.":4089,"Rde8":4090," Rcf3":4091," R8xb7":4092,"N1xe2":4093," N5a6":4094," Nhxg5":4095}