{
  "version": "1.0",
  "truncation": null,
  "padding": null,
  "added_tokens": [
    {
      "id": 0,
      "content": "[g_start]",
      "single_word": false,
      "lstrip": false,
      "rstrip": false,
      "normalized": false,
      "special": true
    },
    {
      "id": 1,
      "content": "[g_end]",
      "single_word": false,
      "lstrip": false,
      "rstrip": false,
      "normalized": false,
      "special": true
    },
    {
      "id": 2,
      "content": "[unknown]",
      "single_word": false,
      "lstrip": false,
      "rstrip": false,
      "normalized": false,
      "special": true
    }
  ],
  "normalizer": {
    "type": "NFD"
  },
  "pre_tokenizer": {
    "type": "Split",
    "pattern": {
      "Regex": " ?\\d+\\.|\\. ?| ?[-\\w]+|[#+]"
    },
    "behavior": "Isolated",
    "invert": false
  },
  "post_processor": {
    "type": "ByteLevel",
    "add_prefix_space": true,
    "trim_offsets": true,
    "use_regex": true
  },
  "decoder": {
    "type": "ByteLevel",
    "add_prefix_space": true,
    "trim_offsets": true,
    "use_regex": true
  },
  "model": {
    "type": "BPE",
    "dropout": null,
    "unk_token": "[unknown]",
    "continuing_subword_prefix": null,
    "end_of_word_suffix": null,
    "fuse_unk": true,
    "byte_fallback": false,
    "ignore_merges": false,
    "vocab": {
      "[g_start]": 0,
      "[g_end]": 1,
      "[unknown]": 2,
      " ": 3,
      "#": 4,
      "+": 5,
      "-": 6,
      ".": 7,
      "0": 8,
      "1": 9,
      "2": 10,
      "3": 11,
      "4": 12,
      "5": 13,
      "6": 14,
      "7": 15,
      "8": 16,
      "9": 17,
      "=": 18,
      "B": 19,
      "K": 20,
      "N": 21,
      "O": 22,
      "Q": 23,
      "R": 24,
      "[": 25,
      "]": 26,
      "_": 27,
      "a": 28,
      "b": 29,
      "c": 30,
      "d": 31,
      "e": 32,
      "f": 33,
      "g": 34,
      "h": 35,
      "n": 36,
      "r": 37,
      "s": 38,
      "t": 39,
      "x": 40,
      " 1": 41,
      " 2": 42,
      " N": 43,
      " 3": 44,
      " R": 45,
      " B": 46,
      " Q": 47,
      "1.": 48,
      " 4": 49,
      "g_": 50,
      "5.": 51,
      "xd": 52,
      "6.": 53,
      "7.": 54,
      "8.": 55,
      "9.": 56,
      " K": 57,
      "0.": 58,
      "2.": 59,
      "3.": 60,
      "4.": 61,
      "xe": 62,
      "f6": 63,
      "xc": 64,
      "f3": 65,
      "][": 66,
      "ar": 67,
      "en": 68,
      "st": 69,
      "g_en": 70,
      "g_st": 71,
      "art": 72,
      "g_end": 73,
      "g_start": 74,
      "-O": 75,
      "O-O": 76,
      "d4": 77,
      "e4": 78,
      " c": 79,
      "f4": 80,
      "c3": 81,
      "f5": 82,
      " 5": 83,
      " d": 84,
      "e5": 85,
      "d7": 86,
      "xb": 87,
      "g5": 88,
      "e6": 89,
      "e7": 90,
      "e3": 91,
      "c4": 92,
      "e2": 93,
      "g4": 94,
      "d2": 95,
      "g6": 96,
      "xd4": 97,
      "c6": 98,
      "d3": 99,
      "xd5": 100,
      "g3": 101,
      " b": 102,
      " a": 103,
      " Nf6": 104,
      "Nf3": 105,
      "g7": 106,
      " 2.": 107,
      " 3.": 108,
      " 4.": 109,
      " 5.": 110,
      " 6.": 111,
      " 7.": 112,
      " 8.": 113,
      " 9.": 114,
      " 10.": 115,
      " 11.": 116,
      " 12.": 117,
      " 13.": 118,
      "d5": 119,
      " 14.": 120,
      " 15.": 121,
      " 16.": 122,
      " h": 123,
      " 17.": 124,
      " 18.": 125,
      " 19.": 126,
      " 20.": 127,
      "xe5": 128,
      "b3": 129,
      " 21.": 130,
      " 22.": 131,
      "e8": 132,
      " O-O": 133,
      " 23.": 134,
      "e1": 135,
      "a4": 136,
      "Nc3": 137,
      " 24.": 138,
      "b4": 139,
      "h4": 140,
      " 25.": 141,
      "d1": 142,
      "c7": 143,
      "d6": 144,
      "c5": 145,
      "d8": 146,
      " 26.": 147,
      "g2": 148,
      "h3": 149,
      "xe4": 150,
      " 27.": 151,
      " 28.": 152,
      "c8": 153,
      "f8": 154,
      "Ra": 155,
      "f7": 156,
      " 29.": 157,
      "f2": 158,
      "c2": 159,
      " 30.": 160,
      " Ra": 161,
      " Nc6": 162,
      " 31.": 163,
      "b6": 164,
      " c5": 165,
      "c1": 166,
      "xa": 167,
      "b5": 168,
      " 32.": 169,
      "f1": 170,
      " 6": 171,
      "h5": 172,
      " 33.": 173,
      " d5": 174,
      " 34.": 175,
      " 35.": 176,
      " e6": 177,
      "xf6": 178,
      "b7": 179,
      " 36.": 180,
      " e5": 181,
      " g6": 182,
      "xc4": 183,
      "a3": 184,
      " 37.": 185,
      "b8": 186,
      "xc5": 187,
      "xc3": 188,
      "h6": 189,
      " d6": 190,
      " 38.": 191,
      "b1": 192,
      " 39.": 193,
      " Be7": 194,
      "a5": 195,
      "xc6": 196,
      "xf5": 197,
      "Be3": 198,
      " 40.": 199,
      " a6": 200,
      " e": 201,
      " 41.": 202,
      "Bd3": 203,
      "xf3": 204,
      " Bg7": 205,
      "b2": 206,
      "xf4": 207,
      " b5": 208,
      "g8": 209,
      "h7": 210,
      " h6": 211,
      " 42.": 212,
      "xb5": 213,
      " f5": 214,
      "xe6": 215,
      " 43.": 216,
      "h2": 217,
      "xd6": 218,
      "Be2": 219,
      " c6": 220,
      " Qc7": 221,
      "h8": 222,
      "g1": 223,
      "Re1": 224,
      " 44.": 225,
      " a5": 226,
      " Bd7": 227,
      "Bg5": 228,
      "h1": 229,
      " Re8": 230,
      " cxd4": 231,
      "xg5": 232,
      "xb4": 233,
      "Qd2": 234,
      " b6": 235,
      " Nd7": 236,
      " 45.": 237,
      "a6": 238,
      " 46.": 239,
      "Qe2": 240,
      "xg4": 241,
      "Rf": 242,
      "Bg2": 243,
      " h5": 244,
      " 47.": 245,
      "Nxd4": 246,
      " Rc8": 247,
      " Be6": 248,
      " Rf": 249,
      "xd3": 250,
      " Bb7": 251,
      " Nb": 252,
      " f": 253,
      " Kg7": 254,
      "xe3": 255,
      "Qc2": 256,
      "xg6": 257,
      " g5": 258,
      " 48.": 259,
      " 7": 260,
      " f6": 261,
      "Nd2": 262,
      " 49.": 263,
      " Nbd7": 264,
      "xe7": 265,
      " Qe7": 266,
      "Rc1": 267,
      " Rx": 268,
      "Rd1": 269,
      "Kg2": 270,
      "Bd2": 271,
      " g": 272,
      " Kf7": 273,
      "Rx": 274,
      "Bf4": 275,
      "Bc4": 276,
      "Kf2": 277,
      " 50.": 278,
      "xd7": 279,
      " Rd8": 280,
      " Rb8": 281,
      "xb3": 282,
      " Bd6": 283,
      " 51.": 284,
      " Qb6": 285,
      " Ke7": 286,
      " Qd7": 287,
      " Kf8": 288,
      "cxd5": 289,
      " Bg4": 290,
      "xb6": 291,
      "xd2": 292,
      "Ne5": 293,
      " 52.": 294,
      "Ne2": 295,
      "Kh1": 296,
      "xd8": 297,
      " Kh8": 298,
      "exd5": 299,
      " Bf5": 300,
      "Bx": 301,
      " Bx": 302,
      "Bb5": 303,
      " 53.": 304,
      " Ne7": 305,
      "Ke2": 306,
      "Rb1": 307,
      " Ne5": 308,
      " Bb4": 309,
      " Ne4": 310,
      "Nd5": 311,
      " Nd5": 312,
      "xe2": 313,
      "Ne4": 314,
      " 54.": 315,
      "Kf1": 316,
      "Qd3": 317,
      "Nb": 318,
      "Kh2": 319,
      " Qa5": 320,
      "xd1": 321,
      " Nc5": 322,
      "Qb3": 323,
      "xb2": 324,
      "xb7": 325,
      " 55.": 326,
      " Kx": 327,
      " Kh7": 328,
      " Kf6": 329,
      "Bb2": 330,
      "Qf3": 331,
      " Nb6": 332,
      " Nxd5": 333,
      " Bc5": 334,
      " exd5": 335,
      "Ke3": 336,
      " Kg8": 337,
      "xg3": 338,
      "Kf3": 339,
      " b4": 340,
      "Rad1": 341,
      " 56.": 342,
      "Nd4": 343,
      " Bf6": 344,
      "Qx": 345,
      "dxe5": 346,
      "xa5": 347,
      "Nbd2": 348,
      "xa6": 349,
      "Bb3": 350,
      " Ke6": 351,
      "Qe3": 352,
      " 57.": 353,
      " Kd7": 354,
      "Nb3": 355,
      " Nd4": 356,
      "Kg1": 357,
      " Rf8": 358,
      " Qx": 359,
      "a7": 360,
      " Qf6": 361,
      "Bf3": 362,
      "Nxe4": 363,
      "xc8": 364,
      "Rd2": 365,
      "Bxf6": 366,
      "Ng5": 367,
      "Ne3": 368,
      " 58.": 369,
      "Nc4": 370,
      " Nxe5": 371,
      " Bc6": 372,
      " Bf8": 373,
      "Rf1": 374,
      "Ng3": 375,
      "Kd2": 376,
      "O-O-O": 377,
      "bxc3": 378,
      " dxe4": 379,
      " dxe5": 380,
      " Qd8": 381,
      " exd4": 382,
      " e4": 383,
      " Qd6": 384,
      "Kd3": 385,
      " Nxe4": 386,
      "Kx": 387,
      "Kg3": 388,
      "xc2": 389,
      " a4": 390,
      " 59.": 391,
      "xc7": 392,
      "xe8": 393,
      " Kg6": 394,
      " Rd7": 395,
      " Ng4": 396,
      " c4": 397,
      " Ne6": 398,
      "Nxe5": 399,
      " Kd6": 400,
      " dxc4": 401,
      "xc1": 402,
      " f4": 403,
      "Rfd1": 404,
      "Re2": 405,
      "cxd4": 406,
      " Rad8": 407,
      " Ng6": 408,
      " 60.": 409,
      " Bxc3": 410,
      "Nx": 411,
      "dxc5": 412,
      " Rg8": 413,
      " Rac8": 414,
      "Bc2": 415,
      "Nd3": 416,
      " Nh5": 417,
      "a2": 418,
      " Bxf3": 419,
      " d4": 420,
      " Nf5": 421,
      "Rac1": 422,
      "xa3": 423,
      "Rfe1": 424,
      "Nb5": 425,
      "xe1": 426,
      " Rc7": 427,
      " Nxd4": 428,
      " Re7": 429,
      "Nf4": 430,
      "Ng": 431,
      " Ra8": 432,
      " Nc4": 433,
      " cxd5": 434,
      " Ng": 435,
      " h4": 436,
      "Bf1": 437,
      "xa2": 438,
      " bxc6": 439,
      "Qg3": 440,
      "xa7": 441,
      " Nx": 442,
      " Na5": 443,
      "a8": 444,
      " Rf7": 445,
      " Ba6": 446,
      "Bxc4": 447,
      " Rfd8": 448,
      " Ne8": 449,
      " 61.": 450,
      "Bg3": 451,
      "Nxd5": 452,
      " 8": 453,
      "Qf2": 454,
      "Qg4": 455,
      " Nb4": 456,
      "Re3": 457,
      "Rc2": 458,
      "Rg1": 459,
      "Bd4": 460,
      " Rfe8": 461,
      "Bc3": 462,
      "Rd3": 463,
      " Qc6": 464,
      "fxe5": 465,
      "Nf5": 466,
      "Rd": 467,
      "Ra1": 468,
      " g4": 469,
      "Rh": 470,
      " Qe6": 471,
      "Bh4": 472,
      "Qc3": 473,
      "Rf2": 474,
      " 62.": 475,
      " Na6": 476,
      " Nf4": 477,
      " Nd6": 478,
      "Bxc6": 479,
      " Ke8": 480,
      " Kc7": 481,
      " Qe8": 482,
      "Qa4": 483,
      " Bg6": 484,
      " Qc8": 485,
      "Nxc6": 486,
      "Nc5": 487,
      "Kb1": 488,
      " Bxd5": 489,
      "Bxe4": 490,
      " Nc7": 491,
      "Na4": 492,
      " Nf8": 493,
      " Bc8": 494,
      "Rf3": 495,
      "a1": 496,
      "Be4": 497,
      " axb5": 498,
      "Re": 499,
      "Qxd4": 500,
      "Qd4": 501,
      " Bxe5": 502,
      " 63.": 503,
      "Qd1": 504,
      " Qxd5": 505,
      "Kc2": 506,
      "Qf4": 507,
      "Rc7": 508,
      " Bxf6": 509,
      "Qe1": 510,
      " Qc5": 511,
      "exf5": 512,
      " Nf": 513,
      "Qh5": 514,
      "Bxd4": 515,
      " O-O-O": 516,
      " Nxc3": 517,
      " Bd4": 518,
      " Ke5": 519,
      "Ke4": 520,
      " Be5": 521,
      "Qe4": 522,
      "Bf2": 523,
      " Bd5": 524,
      " Qg5": 525,
      " Qf7": 526,
      "Rd7": 527,
      "Nh4": 528,
      " 64.": 529,
      "Bxd5": 530,
      " exf4": 531,
      " fxe4": 532,
      " Qb7": 533,
      " Re": 534,
      " Rd": 535,
      "Nf1": 536,
      "xa8": 537,
      " Kf5": 538,
      "Kf4": 539,
      " Kc6": 540,
      " Rc2": 541,
      " Re6": 542,
      " Qg6": 543,
      "gx": 544,
      " Bb6": 545,
      "Nd6": 546,
      "Kc3": 547,
      "axb5": 548,
      " Rh": 549,
      " gx": 550,
      "Qh4": 551,
      " Qe5": 552,
      " Qd5": 553,
      "axb4": 554,
      " gxf5": 555,
      "Bh6": 556,
      "Rae1": 557,
      "Bd5": 558,
      "Ra7": 559,
      " fxe6": 560,
      " Rd2": 561,
      " Qh4": 562,
      " 65.": 563,
      "Ke1": 564,
      "Nge2": 565,
      " Bxd4": 566,
      "Kd4": 567,
      " gxf6": 568,
      "Nc2": 569,
      "Bc1": 570,
      " Rf6": 571,
      " Qf5": 572,
      " Bh6": 573,
      "exf6": 574,
      "Ne1": 575,
      " Kd8": 576,
      " Bxe4": 577,
      "Bxe5": 578,
      "Ba4": 579,
      "Rc3": 580,
      " Rh8": 581,
      " Ra7": 582,
      "Nd": 583,
      " axb4": 584,
      " Rc": 585,
      " Rd6": 586,
      " Bxc5": 587,
      "Rc": 588,
      "Qc1": 589,
      " Kxg7": 590,
      "Na3": 591,
      "Ba3": 592,
      " Kd5": 593,
      " Ra2": 594,
      "Qc4": 595,
      "Rb7": 596,
      " Bg5": 597,
      " 66.": 598,
      "Nxf6": 599,
      "Bxg7": 600,
      " hxg5": 601,
      " Kh6": 602,
      "Rg3": 603,
      " Rc6": 604,
      "Bxe7": 605,
      " Be8": 606,
      "xa1": 607,
      " Nd3": 608,
      " Rb2": 609,
      "Rd6": 610,
      " Qb8": 611,
      "Rd4": 612,
      " Rae8": 613,
      "Rxd8": 614,
      " Be4": 615,
      "Rh1": 616,
      " Rfc8": 617,
      " Bb5": 618,
      " Bd8": 619,
      "Be5": 620,
      " Rc4": 621,
      " Rb7": 622,
      " Nge7": 623,
      "Qxd3": 624,
      "exd4": 625,
      "Kh3": 626,
      " Rb": 627,
      " 67.": 628,
      "Re7": 629,
      " Bh5": 630,
      " Qh5": 631,
      "Bh3": 632,
      "Qg5": 633,
      "hxg4": 634,
      "Qxe4": 635,
      "Ng4": 636,
      "Rb3": 637,
      " Kb8": 638,
      " Bc7": 639,
      " Qb4": 640,
      "Rb": 641,
      " hxg6": 642,
      "Rd8": 643,
      " Rxd1": 644,
      "Bxf4": 645,
      " Kg5": 646,
      " Rc5": 647,
      " Qxe7": 648,
      " Qd4": 649,
      " Bxf5": 650,
      " Rd5": 651,
      "Rab1": 652,
      " Qxe5": 653,
      "Kg4": 654,
      "Bxc5": 655,
      " Qxd6": 656,
      "Bc5": 657,
      "Rxd5": 658,
      "Qxd5": 659,
      " Ra3": 660,
      " Ra1": 661,
      " Nfd7": 662,
      " Re2": 663,
      " 68.": 664,
      "Ra8": 665,
      " bxc4": 666,
      " Qxf6": 667,
      "Ra2": 668,
      "Qxf3": 669,
      " Qxd4": 670,
      "gxf3": 671,
      "hxg5": 672,
      "Ra3": 673,
      " Rb6": 674,
      " hxg4": 675,
      "Rc6": 676,
      " Rab8": 677,
      "Kd1": 678,
      "Nxe6": 679,
      "cxb5": 680,
      "xb8": 681,
      "Qd5": 682,
      " Rd4": 683,
      "Rh3": 684,
      "Nd1": 685,
      "Qb2": 686,
      " bxc5": 687,
      "Re4": 688,
      "Ra6": 689,
      "Qe5": 690,
      " Bxd3": 691,
      " Rb4": 692,
      "gxf4": 693,
      " Rd3": 694,
      "Nc6": 695,
      " Bc4": 696,
      " Rd1": 697,
      " Rc3": 698,
      " Qe4": 699,
      "Bxf3": 700,
      "Rxd4": 701,
      "axb3": 702,
      "Rc8": 703,
      "Qh3": 704,
      "Rc5": 705,
      " Nh6": 706,
      "Rb6": 707,
      " Rxd8": 708,
      " Nxf6": 709,
      "Rfc1": 710,
      "Rd5": 711,
      " Rc1": 712,
      "Bd1": 713,
      "Bxe6": 714,
      " Rg6": 715,
      "Nc": 716,
      " 69.": 717,
      "Bg4": 718,
      "Nf2": 719,
      "Rb2": 720,
      " Re5": 721,
      " Nf7": 722,
      "Rxe5": 723,
      "Kc4": 724,
      "Rc4": 725,
      " Bf7": 726,
      " fxe5": 727,
      " Kc5": 728,
      "Rxd6": 729,
      "gxf5": 730,
      " Ra6": 731,
      " Qf4": 732,
      " Nb8": 733,
      " exf5": 734,
      " d3": 735,
      "Rb8": 736,
      " Rg7": 737,
      "xa4": 738,
      " Nxc5": 739,
      "Ne6": 740,
      "Re5": 741,
      " Bxg2": 742,
      " Re4": 743,
      "xb1": 744,
      "fxe4": 745,
      " e3": 746,
      " a3": 747,
      "Nf6": 748,
      " Rb3": 749,
      "Bxf5": 750,
      "Qxc4": 751,
      "bxc4": 752,
      " Ng5": 753,
      " Ra4": 754,
      "Bd6": 755,
      " Rf5": 756,
      " Nxf3": 757,
      "Kb2": 758,
      " Nxe3": 759,
      " Rb1": 760,
      "Rxd1": 761,
      "Rf4": 762,
      "Bxd6": 763,
      "Rxe4": 764,
      " Qb5": 765,
      " 70.": 766,
      "Bb4": 767,
      " Qg4": 768,
      "Be1": 769,
      "Kxg2": 770,
      "bxc5": 771,
      "Re8": 772,
      " Qc4": 773,
      " Rxb2": 774,
      "Rxe8": 775,
      " Bxe3": 776,
      " Rxd5": 777,
      " Re1": 778,
      "Ra5": 779,
      "exd6": 780,
      "Rb5": 781,
      "Qb4": 782,
      " Kb7": 783,
      " Rxd4": 784,
      "Rxb7": 785,
      "fxe3": 786,
      "hxg3": 787,
      "Nh3": 788,
      " Qa6": 789,
      " Qxc5": 790,
      " dxc5": 791,
      " Nd": 792,
      "Qf5": 793,
      "Rxc8": 794,
      " Rxe5": 795,
      " Bxc6": 796,
      " Bxc4": 797,
      "Nxc5": 798,
      " Nc": 799,
      "Bb1": 800,
      " Qf8": 801,
      " Nxd3": 802,
      "Ra4": 803,
      " Qg7": 804,
      " Ne3": 805,
      "Rxe6": 806,
      " Nxc4": 807,
      " Ra5": 808,
      " Nd8": 809,
      "Nxc4": 810,
      " Rxc3": 811,
      " Rxc4": 812,
      "Bxd7": 813,
      " Kb6": 814,
      " Kc8": 815,
      " b3": 816,
      " Rxe4": 817,
      "Qxe5": 818,
      " 71.": 819,
      "Qb5": 820,
      " Rxe1": 821,
      "hxg6": 822,
      "Kb3": 823,
      "Qh6": 824,
      " 9": 825,
      "Nxd6": 826,
      " c3": 827,
      "Rxf7": 828,
      " gxf4": 829,
      "Kc1": 830,
      "Rg2": 831,
      "Bf5": 832,
      " Rxc1": 833,
      "Rb4": 834,
      " Rxa2": 835,
      " Ke4": 836,
      " Bd3": 837,
      " Nc3": 838,
      "Qxc3": 839,
      "dxe6": 840,
      " Bf4": 841,
      " f3": 842,
      "Qc5": 843,
      "Ke5": 844,
      "Nxf5": 845,
      "Re6": 846,
      "Qa3": 847,
      " Rb5": 848,
      " Nh7": 849,
      " axb6": 850,
      " Bxe2": 851,
      " Qxb2": 852,
      " Rf4": 853,
      " Kf4": 854,
      "Qg2": 855,
      " Qxd7": 856,
      "Qb1": 857,
      " Nc8": 858,
      "Nf": 859,
      " Kd4": 860,
      "dxe4": 861,
      "dxc6": 862,
      "Rxa7": 863,
      "Qd6": 864,
      " 72.": 865,
      "Rxd7": 866,
      "Nc1": 867,
      " Bh3": 868,
      "Nxd7": 869,
      "Bxb7": 870,
      " Qxe4": 871,
      "Rxc6": 872,
      "Nh2": 873,
      " Nxf4": 874,
      " Bxf4": 875,
      "Rf7": 876,
      " Re3": 877,
      " Qa7": 878,
      " Ng7": 879,
      " Bxb2": 880,
      "Bc6": 881,
      " Qh6": 882,
      " Bxg5": 883,
      "Rxc5": 884,
      "Rh8": 885,
      "Kd5": 886,
      "Qxe3": 887,
      " Rh6": 888,
      "Rh7": 889,
      " h3": 890,
      "Kf5": 891,
      " Rxc2": 892,
      " Ne": 893,
      " Rf2": 894,
      " Qe3": 895,
      " Ngf6": 896,
      " Kxf7": 897,
      "Qe6": 898,
      "Bxb5": 899,
      " Bc3": 900,
      "Qf6": 901,
      "Rh4": 902,
      " fxg6": 903,
      "Bb6": 904,
      "Qc7": 905,
      "Nxb5": 906,
      "Qxd6": 907,
      "Qxd8": 908,
      " Bxd6": 909,
      " Bxd2": 910,
      " cxb4": 911,
      " 73.": 912,
      "Rxe7": 913,
      "Nb6": 914,
      "Bxg5": 915,
      " Qa4": 916,
      " Nb5": 917,
      " Qxc3": 918,
      "Qxe2": 919,
      " Rh1": 920,
      "Nb4": 921,
      " Rxc8": 922,
      " Nf3": 923,
      "Qxb7": 924,
      "Bxa6": 925,
      " Ng8": 926,
      "Rhe1": 927,
      "Kg5": 928,
      "Rg4": 929,
      " Rh2": 930,
      "Qf1": 931,
      " Rxd6": 932,
      "fxg5": 933,
      " Rxf2": 934,
      " Qd3": 935,
      "Rf6": 936,
      "Rxf6": 937,
      "Kc5": 938,
      "Rxf5": 939,
      "Qxd2": 940,
      " Qc2": 941,
      "Qe7": 942,
      "Rxa6": 943,
      "Bxc3": 944,
      "Rf5": 945,
      " Rxf4": 946,
      "Nb1": 947,
      "Rg7": 948,
      " Rxe3": 949,
      " Bxb5": 950,
      " bxc3": 951,
      "Rxc7": 952,
      " Qd2": 953,
      " Rxc5": 954,
      "Qxe6": 955,
      " Kg4": 956,
      " Bxe6": 957,
      "Qxf6": 958,
      "Rxc4": 959,
      "Rxd3": 960,
      " fxg4": 961,
      "Nh5": 962,
      "Rxc1": 963,
      " Rg4": 964,
      "Qc6": 965,
      " Nxb3": 966,
      "Qd7": 967,
      " Qxc6": 968,
      "Be6": 969,
      " Be3": 970,
      " 74.": 971,
      "Rxf8": 972,
      " Rh5": 973,
      "Qxf5": 974,
      " Qxc4": 975,
      " Qc3": 976,
      " Rh7": 977,
      " Rxd2": 978,
      "Bxg6": 979,
      "Rxf4": 980,
      " Rg5": 981,
      " Rxf3": 982,
      " Bxg4": 983,
      "Rh2": 984,
      "R1": 985,
      "Bxf7": 986,
      "Qxc5": 987,
      "Ne": 988,
      " Ba5": 989,
      " Rxd3": 990,
      " Na4": 991,
      " Kc4": 992,
      "Rg5": 993,
      "Nxe7": 994,
      " Rxf6": 995,
      "Nc7": 996,
      "Rg8": 997,
      " Rf1": 998,
      "Rf8": 999,
      "Nxg6": 1000,
      "Rxc3": 1001,
      "fxg6": 1002,
      "Na5": 1003,
      " Qxe6": 1004,
      " Rxe8": 1005,
      " Qe2": 1006,
      " Rxf5": 1007,
      "Nxg5": 1008,
      " Rg2": 1009,
      " Qxf4": 1010,
      " gxh5": 1011,
      "Rxd2": 1012,
      " Rf3": 1013,
      " bxa4": 1014,
      "Qxf4": 1015,
      " Bh4": 1016,
      " Nxd2": 1017,
      "Rh6": 1018,
      " Rxe6": 1019,
      " dxc3": 1020,
      " Rg1": 1021,
      " Qxa2": 1022,
      "Qxc6": 1023,
      "Kb4": 1024,
      "Rxe1": 1025,
      " exf3": 1026,
      " Rxe2": 1027,
      " 75.": 1028,
      " Rxd7": 1029,
      " g3": 1030,
      " Rh4": 1031,
      "Ba2": 1032,
      "Rxe3": 1033,
      "Kh4": 1034,
      "Bxh6": 1035,
      " Rxf1": 1036,
      "Nxf4": 1037,
      "Qa5": 1038,
      "Qd8": 1039,
      " Nxg3": 1040,
      " cxd6": 1041,
      "Rxa5": 1042,
      "Red1": 1043,
      " Ba4": 1044,
      " Rh3": 1045,
      " Kh5": 1046,
      " Qxf3": 1047,
      "Ngf3": 1048,
      " Qxd2": 1049,
      "Nxf7": 1050,
      "Ne7": 1051,
      "Rh5": 1052,
      " Rxe7": 1053,
      " Rxb3": 1054,
      " Nxg4": 1055,
      " cxb5": 1056,
      " Rxc6": 1057,
      "Bf6": 1058,
      "cxb4": 1059,
      " Qa3": 1060,
      " Kb5": 1061,
      " Qh3": 1062,
      " Qxg5": 1063,
      " Qe1": 1064,
      "Rxg7": 1065,
      " Qa8": 1066,
      "Qg6": 1067,
      "Nxc3": 1068,
      " Rxa4": 1069,
      "Qxh6": 1070,
      " Nh4": 1071,
      " Qxd1": 1072,
      " Qd1": 1073,
      "gxh5": 1074,
      " Qf3": 1075,
      " Qb2": 1076,
      " Qc1": 1077,
      "Rxf3": 1078,
      " R8": 1079,
      "Qb7": 1080,
      "Rxh7": 1081,
      " Rxg2": 1082,
      " Bxb4": 1083,
      "Qe8": 1084,
      "Qxg4": 1085,
      " 76.": 1086,
      "Rxb6": 1087,
      "Qxf7": 1088,
      "Kxf2": 1089,
      " Nb7": 1090,
      "Qb6": 1091,
      " Nxf5": 1092,
      "Bh5": 1093,
      " Nb3": 1094,
      "Qxg6": 1095,
      " axb3": 1096,
      "Qxb6": 1097,
      " Rg3": 1098,
      "Nxf3": 1099,
      " Nxd7": 1100,
      " Qxe3": 1101,
      "Qc8": 1102,
      "Rg6": 1103,
      "fxg4": 1104,
      "Bc7": 1105,
      " Rxa3": 1106,
      "Qxa7": 1107,
      "Qxg5": 1108,
      " Rxb4": 1109,
      "Bxb6": 1110,
      "Bxg4": 1111,
      "bxa5": 1112,
      "axb6": 1113,
      " Ne2": 1114,
      "Ba5": 1115,
      "Rxb5": 1116,
      "Rxg6": 1117,
      "Qa2": 1118,
      "Nd7": 1119,
      " Qxf5": 1120,
      "Ng2": 1121,
      " Nxb4": 1122,
      "cxd3": 1123,
      " Red8": 1124,
      " hxg3": 1125,
      " Rxf7": 1126,
      "Kb5": 1127,
      " 77.": 1128,
      "fxe6": 1129,
      "Bxb4": 1130,
      " Qxb3": 1131,
      " Kxf8": 1132,
      " Bxf2": 1133,
      " Bb3": 1134,
      "Qf7": 1135,
      " fxg3": 1136,
      " fxg5": 1137,
      "Bxf8": 1138,
      "Rde1": 1139,
      " Nxc6": 1140,
      "Rxe2": 1141,
      " Bf3": 1142,
      "Qxb5": 1143,
      " Qxb4": 1144,
      "Qxe7": 1145,
      " Qf2": 1146,
      " Nc2": 1147,
      " Bxh3": 1148,
      " Qxf2": 1149,
      " Qb1": 1150,
      "Rxb4": 1151,
      "cxd6": 1152,
      " gxh4": 1153,
      " Qa1": 1154,
      "Ba6": 1155,
      " Bc2": 1156,
      "Rxa4": 1157,
      "Rcd1": 1158,
      " Qg3": 1159,
      "Qxb4": 1160,
      "Rg": 1161,
      "Kf6": 1162,
      "Ng1": 1163,
      "Qb8": 1164,
      "Nxb6": 1165,
      " Nd2": 1166,
      " Bxg3": 1167,
      "Be7": 1168,
      " Bxb3": 1169,
      " Rxh2": 1170,
      " Qb3": 1171,
      " Nxe2": 1172,
      "Kd6": 1173,
      "gxf6": 1174,
      "Qxa6": 1175,
      "Qxd7": 1176,
      "bxc6": 1177,
      " Ke3": 1178,
      " 78.": 1179,
      " Kf3": 1180,
      " Rxb5": 1181,
      "Kxf1": 1182,
      "Qxh5": 1183,
      "Rxa8": 1184,
      " Qxb5": 1185,
      "Qa6": 1186,
      " Rg": 1187,
      "Rxh5": 1188,
      " Kb4": 1189,
      " Kd3": 1190,
      " dxc6": 1191,
      " Bxf1": 1192,
      "fxg3": 1193,
      "Bxd3": 1194,
      " Rxc7": 1195,
      "Nb2": 1196,
      "Rxh6": 1197,
      " Qxc2": 1198,
      " Qxd3": 1199,
      " Rxg3": 1200,
      " Ba7": 1201,
      " Ba3": 1202,
      "Ke6": 1203,
      " Rxa5": 1204,
      "Ka2": 1205,
      " Rfb8": 1206,
      "Bh2": 1207,
      "Qh8": 1208,
      " Kxe7": 1209,
      "Kc6": 1210,
      " Qxe2": 1211,
      "gxh4": 1212,
      " Rcd8": 1213,
      "Qxg7": 1214,
      "exf4": 1215,
      " Kxf6": 1216,
      " Rxf8": 1217,
      "Ng6": 1218,
      " Kxd8": 1219,
      "Ndb5": 1220,
      " Ng3": 1221,
      " Qxg3": 1222,
      " a2": 1223,
      " Rhe8": 1224,
      "bxa4": 1225,
      " Bb8": 1226,
      " Be2": 1227,
      " d2": 1228,
      "Qh7": 1229,
      "Qa8": 1230,
      "Bg6": 1231,
      " Bh7": 1232,
      " 79.": 1233,
      "Nf7": 1234,
      " Qxg4": 1235,
      " Bd2": 1236,
      " Kg3": 1237,
      " Rxh4": 1238,
      " Rxb7": 1239,
      " Kc3": 1240,
      "Rxf2": 1241,
      "Rxc2": 1242,
      "Rxf1": 1243,
      "Qa7": 1244,
      "Bxh7": 1245,
      " Bxd7": 1246,
      "Bd7": 1247,
      " Qxh4": 1248,
      " c2": 1249,
      "Nce2": 1250,
      " cxb3": 1251,
      "Kg6": 1252,
      " Nxf2": 1253,
      "Qxc7": 1254,
      " bxa5": 1255,
      " Rxh3": 1256,
      "Ka1": 1257,
      " Bxa3": 1258,
      "Raf1": 1259,
      " Ndf6": 1260,
      " Raf8": 1261,
      "Rhd1": 1262,
      " Nxe6": 1263,
      " Ba8": 1264,
      " Qxb6": 1265,
      "dxc4": 1266,
      " Rxa1": 1267,
      " exf6": 1268,
      " 10": 1269,
      "Na2": 1270,
      " Ka7": 1271,
      " Qxa4": 1272,
      " Nxg5": 1273,
      " Nxd6": 1274,
      " Bxa4": 1275,
      "Qxa5": 1276,
      "Rxg5": 1277,
      "Qa1": 1278,
      " Rxa8": 1279,
      "Qxh7": 1280,
      " Nxe7": 1281,
      " b2": 1282,
      "Nxb7": 1283,
      " 80.": 1284,
      "Kxd2": 1285,
      " Kxd7": 1286,
      " Rde8": 1287,
      "cxb6": 1288,
      "Kb6": 1289,
      " Rxg4": 1290,
      "Rfb1": 1291,
      "Nxd2": 1292,
      "Rxa1": 1293,
      " Qh1": 1294,
      " Bb2": 1295,
      "Bxd2": 1296,
      " Nxb2": 1297,
      " Qxb7": 1298,
      "Rxb2": 1299,
      "Bxe3": 1300,
      "Bb7": 1301,
      " Na7": 1302,
      " Qxh3": 1303,
      " e2": 1304,
      " Bxh4": 1305,
      " Nf2": 1306,
      "Kxf3": 1307,
      "Bxa7": 1308,
      " Qxa3": 1309,
      " Nbc6": 1310,
      "Qf8": 1311,
      " Qa2": 1312,
      " Rxa6": 1313,
      " Qf1": 1314,
      " Rxb6": 1315,
      " Kxh7": 1316,
      " Bxh6": 1317,
      " Bg3": 1318,
      " Bf2": 1319,
      " Qxd8": 1320,
      " Nxa4": 1321,
      "Nxb4": 1322,
      " Nxb5": 1323,
      " Bxc2": 1324,
      "Qh2": 1325,
      " Rxg5": 1326,
      "Nxg4": 1327,
      " 81.": 1328,
      " Ka8": 1329,
      "Nxc7": 1330,
      "Kxe2": 1331,
      "N1": 1332,
      " Nxb6": 1333,
      " Kb3": 1334,
      "Ndf3": 1335,
      "Bf7": 1336,
      "Bg1": 1337,
      " gxf3": 1338,
      "Bxh5": 1339,
      " Qxg2": 1340,
      "Qg7": 1341,
      " Kh4": 1342,
      "Kh5": 1343,
      "Rhg1": 1344,
      " Rbc8": 1345,
      " Qxc7": 1346,
      "Nxa5": 1347,
      " Rhd8": 1348,
      " Rxb8": 1349,
      "Nxc8": 1350,
      "Nh6": 1351,
      "bxa6": 1352,
      "Qxc2": 1353,
      " Bxa2": 1354,
      " gxh6": 1355,
      "Rxb8": 1356,
      "Nxg7": 1357,
      "Rxg4": 1358,
      "Rhf1": 1359,
      " Rec8": 1360,
      " Qxc8": 1361,
      "Bxc7": 1362,
      "Nxe2": 1363,
      " Nxc2": 1364,
      " Kxe6": 1365,
      "Ka3": 1366,
      "Nxe3": 1367,
      " 82.": 1368,
      "Qg8": 1369,
      " Rxb1": 1370,
      "Qxb3": 1371,
      " Qxa5": 1372,
      " Qh2": 1373,
      " Nxh5": 1374,
      "Rxb1": 1375,
      "Bxa5": 1376,
      "Rxb3": 1377,
      "Qxb2": 1378,
      "Nxa4": 1379,
      " h2": 1380,
      " Qg1": 1381,
      "Rxa3": 1382,
      "Rbc1": 1383,
      " Qxe8": 1384,
      "Rbd1": 1385,
      "Qxd1": 1386,
      " Rbd8": 1387,
      " Ka6": 1388,
      "Bxd8": 1389,
      "Kxe3": 1390,
      " bxa3": 1391,
      "Bxc8": 1392,
      "Nfd2": 1393,
      " Nh": 1394,
      " dxe3": 1395,
      "cxb3": 1396,
      " Rxa7": 1397,
      "Nde2": 1398,
      " f2": 1399,
      "bxa3": 1400,
      "Rec1": 1401,
      "Kxd1": 1402,
      " exd6": 1403,
      " 83.": 1404,
      " cxd3": 1405,
      " Rhg8": 1406,
      "gxh6": 1407,
      " Rxh5": 1408,
      "xf7": 1409,
      "xg7": 1410,
      " Kxg6": 1411,
      " Qh7": 1412,
      "Qxa4": 1413,
      "Rdc1": 1414,
      "gxh3": 1415,
      " Qg8": 1416,
      " Bxh2": 1417,
      "Be8": 1418,
      "Kxg3": 1419,
      "Nxd3": 1420,
      " exd3": 1421,
      "Qg1": 1422,
      " Rdc8": 1423,
      " Be1": 1424,
      "Rxh4": 1425,
      " Qg2": 1426,
      " Qxf7": 1427,
      " Nce7": 1428,
      " Bc1": 1429,
      "Nxh5": 1430,
      " Bxc1": 1431,
      "Bxe2": 1432,
      " 84.": 1433,
      " Qxh2": 1434,
      "Qxe1": 1435,
      "Kxf4": 1436,
      "Qxc1": 1437,
      " Kxe5": 1438,
      " Bxd8": 1439,
      "Bd8": 1440,
      " Nh3": 1441,
      " N8": 1442,
      "Nxf8": 1443,
      "Nxa7": 1444,
      " Kxg5": 1445,
      " Bxe7": 1446,
      " Kxd6": 1447,
      "Nxb3": 1448,
      "Ka4": 1449,
      "Ba1": 1450,
      "Bc8": 1451,
      " Rhf8": 1452,
      " bxa6": 1453,
      " Na": 1454,
      " Bh8": 1455,
      " N7": 1456,
      " Bxc8": 1457,
      "Kxh2": 1458,
      " Kxf5": 1459,
      "Kxe4": 1460,
      "Rdg1": 1461,
      " Nbd5": 1462,
      " Bxa6": 1463,
      " g2": 1464,
      " Nxg2": 1465,
      " Bd1": 1466,
      "Bxa8": 1467,
      " 85.": 1468,
      " Bxd1": 1469,
      " Nxa6": 1470,
      "Rdf1": 1471,
      "Nb7": 1472,
      "Nxh4": 1473,
      "Nxh6": 1474,
      "Rxa2": 1475,
      "Kxg4": 1476,
      " Nb2": 1477,
      "Qxf2": 1478,
      " Bf1": 1479,
      " Ka5": 1480,
      "Kxd3": 1481,
      " Rce8": 1482,
      " Bg8": 1483,
      "Kc7": 1484,
      " fxe3": 1485,
      " Rxg7": 1486,
      "Rce1": 1487,
      " Nxa2": 1488,
      "Qxe8": 1489,
      " Nxh4": 1490,
      "Nbc3": 1491,
      "exf7": 1492,
      " Nxa5": 1493,
      "Bxd1": 1494,
      " Kxh6": 1495,
      "Bg7": 1496,
      " 86.": 1497,
      "Ke7": 1498,
      "Nxa6": 1499,
      " Qxf8": 1500,
      " Bg2": 1501,
      "Kh6": 1502,
      " Kf2": 1503,
      "Kf7": 1504,
      "Bf8": 1505,
      "Qxh4": 1506,
      "Nxh7": 1507,
      " Bxa1": 1508,
      "Nh": 1509,
      "Qxc8": 1510,
      "Rxh8": 1511,
      "Bh7": 1512,
      " Ke2": 1513,
      "Nxa8": 1514,
      "Bxa4": 1515,
      "Kd7": 1516,
      " Kc2": 1517,
      " Rxg6": 1518,
      " Nxg6": 1519,
      " Nxh3": 1520,
      " Qxe1": 1521,
      "Kg7": 1522,
      "Kb7": 1523,
      " Kxe8": 1524,
      " Kh3": 1525,
      " Kd2": 1526,
      " 87.": 1527,
      " Qxa8": 1528,
      " Qxg7": 1529,
      "Ka5": 1530,
      " N6": 1531,
      " Kg2": 1532,
      " gxh3": 1533,
      " Kxd5": 1534,
      " Qxh5": 1535,
      " Rbe8": 1536,
      "Na": 1537,
      "N2": 1538,
      " Nxc1": 1539,
      " Nxf1": 1540,
      "Rbe1": 1541,
      "R5": 1542,
      "Nxd8": 1543,
      " Rdf8": 1544,
      "Bxc1": 1545,
      " Bb1": 1546,
      "Rxg3": 1547,
      " Rxh6": 1548,
      " Qxg6": 1549,
      "Ne8": 1550,
      "Nxe8": 1551,
      " cxb6": 1552,
      " Na3": 1553,
      " Rdg8": 1554,
      "Qxa8": 1555,
      " Rhc8": 1556,
      "fxg7": 1557,
      "Rxg8": 1558,
      " Kb2": 1559,
      " Nxa3": 1560,
      "Ba7": 1561,
      " Bxf8": 1562,
      "Bxe8": 1563,
      "xg2": 1564,
      "Qxg3": 1565,
      "Kxd4": 1566,
      "Rdd1": 1567,
      "R3": 1568,
      " Nxd1": 1569,
      " Qxc1": 1570,
      " 88.": 1571,
      "R4": 1572,
      " Nxd8": 1573,
      " Rxh1": 1574,
      "Nbd4": 1575,
      " 11": 1576,
      "Bb8": 1577,
      " Bg1": 1578,
      "Kxh3": 1579,
      "Qxf8": 1580,
      "Kxf5": 1581,
      " R4": 1582,
      "Kxe1": 1583,
      " Ka4": 1584,
      "Bxb8": 1585,
      "Nxd1": 1586,
      "R6": 1587,
      "Rxg2": 1588,
      " Kxf4": 1589,
      "Qxf1": 1590,
      "Nxg3": 1591,
      "Nd8": 1592,
      " Kxc7": 1593,
      " Qh8": 1594,
      "Bg8": 1595,
      "Qxg2": 1596,
      " 89.": 1597,
      "Rxh3": 1598,
      "Bxb3": 1599,
      "Kxc2": 1600,
      "Ree1": 1601,
      "Kxc3": 1602,
      "Bxh3": 1603,
      " Rxg1": 1604,
      "Na6": 1605,
      " Bxa5": 1606,
      "Qxa1": 1607,
      " Nec6": 1608,
      "Bxh4": 1609,
      " Bxe1": 1610,
      " Kxc6": 1611,
      "Kxc4": 1612,
      " Kxh5": 1613,
      " Rcc8": 1614,
      "Nc8": 1615,
      " Ned7": 1616,
      " Bh2": 1617,
      "Kxh5": 1618,
      " Nfd5": 1619,
      "Kxh4": 1620,
      " R5": 1621,
      " Kxh4": 1622,
      " Nde5": 1623,
      " Na8": 1624,
      " Nhf6": 1625,
      "Nce4": 1626,
      " Kxg8": 1627,
      "Rhc1": 1628,
      " Ne1": 1629,
      "xf2": 1630,
      " 90.": 1631,
      "Ka6": 1632,
      " Qxa1": 1633,
      " Qxa6": 1634,
      " R6": 1635,
      " Nxg7": 1636,
      " Kxc5": 1637,
      "Kxg5": 1638,
      "Nge4": 1639,
      " Nge5": 1640,
      "exf3": 1641,
      " Kxg4": 1642,
      " Ree8": 1643,
      "N3": 1644,
      "Qh1": 1645,
      " Bxb6": 1646,
      " Bxb1": 1647,
      " a1": 1648,
      " Rdd8": 1649,
      "Bxc2": 1650,
      " Nxe1": 1651,
      "Bh1": 1652,
      "Rfa1": 1653,
      "Kxb2": 1654,
      " Nxh2": 1655,
      " Bxa8": 1656,
      " Nxe8": 1657,
      "R7": 1658,
      " Bxe8": 1659,
      "Bxf1": 1660,
      "dxc3": 1661,
      " Nd1": 1662,
      " Qxf1": 1663,
      " Ka3": 1664,
      " Nxc7": 1665,
      " Bxh5": 1666,
      "Na7": 1667,
      " Kxb7": 1668,
      " 91.": 1669,
      " N8d7": 1670,
      " Rxh7": 1671,
      " Reb8": 1672,
      "Kxe5": 1673,
      " Rag8": 1674,
      " Nc1": 1675,
      " Bxb7": 1676,
      " N5": 1677,
      "Nfd4": 1678,
      "Reb1": 1679,
      " b1": 1680,
      "Nde4": 1681,
      " Ba2": 1682,
      " Rfa8": 1683,
      "Ng7": 1684,
      "Qxb8": 1685,
      " Qxh6": 1686,
      "Nxg2": 1687,
      " Nxa1": 1688,
      " R2": 1689,
      " Bxc7": 1690,
      "Kxb4": 1691,
      " 92.": 1692,
      "Bxg3": 1693,
      " R3": 1694,
      " Raa8": 1695,
      " Ncd7": 1696,
      " Kxe4": 1697,
      "Rxh1": 1698,
      "Kxg1": 1699,
      "Bxe1": 1700,
      " Rxh8": 1701,
      " Rxg8": 1702,
      " Qxb8": 1703,
      "Nxa3": 1704,
      "Rcc1": 1705,
      " Nxh6": 1706,
      " c1": 1707,
      "Kxd5": 1708,
      "N5": 1709,
      "Bxb2": 1710,
      "gxf7": 1711,
      "Nec3": 1712,
      " Bxg6": 1713,
      " cxb2": 1714,
      "Rag1": 1715,
      " Kxb5": 1716,
      " Nce5": 1717,
      "Nxe1": 1718,
      " Nxb7": 1719,
      " 93.": 1720,
      " Kxc4": 1721,
      "Ref1": 1722,
      "R1d2": 1723,
      " Ndxe5": 1724,
      "Red2": 1725,
      " Ngxe5": 1726,
      " Ng2": 1727,
      " N7f6": 1728,
      " Nxc8": 1729,
      "Kxc5": 1730,
      "Nh7": 1731,
      "Qxa3": 1732,
      "Nbxd4": 1733,
      " Rff8": 1734,
      " Bxg7": 1735,
      "Bxa3": 1736,
      " d1": 1737,
      " Nef6": 1738,
      "Nbxd2": 1739,
      "Nf8": 1740,
      "Raa1": 1741,
      "Nxc2": 1742,
      "dxe7": 1743,
      "Nfe5": 1744,
      "Nxc1": 1745,
      "Rff1": 1746,
      " 94.": 1747,
      " fxg2": 1748,
      " Kxd4": 1749,
      " Ref8": 1750,
      " N6d7": 1751,
      "R8": 1752,
      "Qxh3": 1753,
      "Qxh8": 1754,
      " Nf1": 1755,
      " Qxb1": 1756,
      "Nxb2": 1757,
      "Nh1": 1758,
      "Ncd5": 1759,
      " Nh8": 1760,
      " exf2": 1761,
      " Nce4": 1762,
      "Rxg1": 1763,
      " Rbb8": 1764,
      " Kxb6": 1765,
      " Nfe4": 1766,
      " Kxb4": 1767,
      "Kxb5": 1768,
      " Na2": 1769,
      " Kh2": 1770,
      "N1c3": 1771,
      " Nxf7": 1772,
      "Nce3": 1773,
      "Rxh2": 1774,
      " h1": 1775,
      "Kh7": 1776,
      " 95.": 1777,
      " Rcb8": 1778,
      " Bxf7": 1779,
      " e1": 1780,
      "Kxa5": 1781,
      "Qxb1": 1782,
      " R1": 1783,
      "Kxb3": 1784,
      "Kxg6": 1785,
      " Nbxd5": 1786,
      "Ned4": 1787,
      " Nxf8": 1788,
      "Neg5": 1789,
      "hxg7": 1790,
      " f1": 1791,
      " Kxh8": 1792,
      "Rdh1": 1793,
      " Kxa4": 1794,
      "cxb7": 1795,
      " Rcf8": 1796,
      " Nfxd5": 1797,
      " 96.": 1798,
      " Qxa7": 1799,
      "Bxf2": 1800,
      " Kxg3": 1801,
      "Rde2": 1802,
      "Na1": 1803,
      "Ka7": 1804,
      "Bxa1": 1805,
      "Kxh6": 1806,
      "N4": 1807,
      " Kxh3": 1808,
      "Rcd2": 1809,
      " Rdb8": 1810,
      "Rdb1": 1811,
      " g1": 1812,
      " Ndc5": 1813,
      " Raxc8": 1814,
      "Nxh8": 1815,
      " 97.": 1816,
      " 12": 1817,
      "Rbb1": 1818,
      "gxh7": 1819,
      "Rcf1": 1820,
      "Nxb8": 1821,
      " Kxc8": 1822,
      " Ka2": 1823,
      "Nxh3": 1824,
      " Kxf3": 1825,
      " Ncxe5": 1826,
      "exd3": 1827,
      "Rdd7": 1828,
      "Ndxe4": 1829,
      "N2f3": 1830,
      "exd7": 1831,
      "dxc7": 1832,
      " Rbf8": 1833,
      "Kxa4": 1834,
      "Rea1": 1835,
      "Kxf6": 1836,
      " Kg1": 1837,
      "Nce5": 1838,
      " 98.": 1839,
      "Rcb1": 1840,
      "Rdd2": 1841,
      " Kxa5": 1842,
      "Kxc1": 1843,
      "R1e2": 1844,
      " Red7": 1845,
      "Qxa2": 1846,
      " N4": 1847,
      "Nxf2": 1848,
      "Nb8": 1849,
      "Kg8": 1850,
      " axb2": 1851,
      " R8d7": 1852,
      " dxe6": 1853,
      "Nxf1": 1854,
      " Rcd7": 1855,
      "Rbf1": 1856,
      " Rfxd8": 1857,
      " hxg2": 1858,
      "Ree2": 1859,
      "Rdc2": 1860,
      "Raxd1": 1861,
      " Kf1": 1862,
      " Nh2": 1863,
      "Kb8": 1864,
      " Rhb8": 1865,
      "Kf8": 1866,
      " 99.": 1867,
      "Rhb1": 1868,
      " Neg4": 1869,
      "Bxg8": 1870,
      "R2": 1871,
      "Kc8": 1872,
      "N1d2": 1873,
      " Ree7": 1874,
      "Kxh1": 1875,
      "Kxa6": 1876,
      "Rcc7": 1877,
      "N1h2": 1878,
      " Ke1": 1879,
      "Nfg5": 1880,
      "Qxg8": 1881,
      " Qxh1": 1882,
      "Nhf3": 1883,
      "Kxe6": 1884,
      " Kb1": 1885,
      "fxe7": 1886,
      "Ke8": 1887,
      " Kxb3": 1888,
      "Rfe2": 1889,
      " Nxh7": 1890,
      " Raxd8": 1891,
      " Bxh8": 1892,
      " 100.": 1893,
      "Ned2": 1894,
      " Rde7": 1895,
      " Kc1": 1896,
      "Rfd2": 1897,
      " Nxb8": 1898,
      "Bxh8": 1899,
      " Nbxd7": 1900,
      " Rdd7": 1901,
      "Kd8": 1902,
      " Rfe7": 1903,
      "Kxb6": 1904,
      " Rdd2": 1905,
      "Kxa3": 1906,
      " Ned5": 1907,
      " Rcc7": 1908,
      " Kd1": 1909,
      " Rdc7": 1910,
      " Kxa3": 1911,
      " N7b6": 1912,
      " Nxb1": 1913,
      "Bxg2": 1914,
      "Rge1": 1915,
      " Rea8": 1916,
      " Nb1": 1917,
      " Nde7": 1918,
      " Kxc3": 1919,
      " R8c7": 1920,
      "Raxc1": 1921,
      "Nfxd4": 1922,
      "Ncb5": 1923,
      " R7": 1924,
      "Ree7": 1925,
      "Rfxd1": 1926,
      " Bxh1": 1927,
      " 101.": 1928,
      " Rgf8": 1929,
      " Kxa6": 1930,
      " Rdh8": 1931,
      "Ndc4": 1932,
      " R8e7": 1933,
      " Rcc2": 1934,
      " Nfg4": 1935,
      "Ned5": 1936,
      " Rff7": 1937,
      " Qxg1": 1938,
      "axb7": 1939,
      " Rge8": 1940,
      " gxf2": 1941,
      "Red3": 1942,
      "Ncxe4": 1943,
      "Rgf1": 1944,
      " N5f6": 1945,
      "Kxc6": 1946,
      "R1c2": 1947,
      "Rcc2": 1948,
      "Kxa2": 1949,
      " Qxh7": 1950,
      "Ncd2": 1951,
      "Ng8": 1952,
      "Rah1": 1953,
      " Nfxe4": 1954,
      "Rff2": 1955,
      " 102.": 1956,
      "Nef3": 1957,
      "Nexd4": 1958,
      "N1e2": 1959,
      " gxh2": 1960,
      " Bxg1": 1961,
      " Ndb4": 1962,
      " Rah8": 1963,
      "Nxb1": 1964,
      " Nfe8": 1965,
      " Nxh1": 1966,
      " Nac5": 1967,
      " Ree2": 1968,
      "Nxa2": 1969,
      "Rgd1": 1970,
      " Ncd4": 1971,
      " Nxa7": 1972,
      "Ree3": 1973,
      " Kxa7": 1974,
      " Rgd8": 1975,
      " 103.": 1976,
      " dxc2": 1977,
      "Rec2": 1978,
      " Nhf4": 1979,
      "R1f2": 1980,
      "Kxd6": 1981,
      " bxc2": 1982,
      "R3d2": 1983,
      "Bxb1": 1984,
      " Nxa8": 1985,
      "cxd7": 1986,
      " Bxa7": 1987,
      " Rce7": 1988,
      "Kxh7": 1989,
      "Nhf5": 1990,
      " Ndc6": 1991,
      "Ref2": 1992,
      " Nfe7": 1993,
      " Rec7": 1994,
      " Rhh8": 1995,
      " dxe2": 1996,
      " Kxe3": 1997,
      " Ndf8": 1998,
      " R8f7": 1999,
      "Ngxe4": 2000,
      "Rhh1": 2001,
      "Rdd3": 2002,
      " Nac7": 2003,
      "Rda1": 2004,
      " 104.": 2005,
      " Ref7": 2006,
      "N5c3": 2007,
      " cxd2": 2008,
      " Ncxe4": 2009,
      " Ba1": 2010,
      " Rca8": 2011,
      "Nxg8": 2012,
      "Rce2": 2013,
      "Bxa2": 2014,
      "Nfd5": 2015,
      " Rcg8": 2016,
      " Rfd7": 2017,
      "xf8": 2018,
      " Kxa2": 2019,
      "Kxf7": 2020,
      "Rdf2": 2021,
      " Kxh2": 2022,
      " Nac4": 2023,
      "Qxh2": 2024,
      " bxa2": 2025,
      " Rfg8": 2026,
      " 105.": 2027,
      "Rfe3": 2028,
      " Nexd5": 2029,
      " 13": 2030,
      " Rgg8": 2031,
      " Kh1": 2032,
      " Qxh8": 2033,
      " Ng1": 2034,
      " Nac6": 2035,
      " Nbc4": 2036,
      "Kxa7": 2037,
      "Rbb7": 2038,
      "Rde3": 2039,
      " Nef5": 2040,
      " Bxb8": 2041,
      " Kxg2": 2042,
      " Kxb2": 2043,
      "bxc7": 2044,
      "Kh8": 2045,
      "Nxh2": 2046,
      "Bxh1": 2047,
      " Kxf2": 2048,
      "Ba8": 2049,
      " 106.": 2050,
      "Ka8": 2051,
      "Nfe2": 2052,
      " Rba8": 2053,
      "Ndxb5": 2054,
      "N2b3": 2055,
      "Kxb7": 2056,
      " Ka1": 2057,
      "xf1": 2058,
      "Rfg1": 2059,
      " Bh1": 2060,
      "Rcg1": 2061,
      " Rda8": 2062,
      "Nac3": 2063,
      " Rbc7": 2064,
      "Rca1": 2065,
      "Rfd3": 2066,
      "R3e2": 2067,
      "Qxh1": 2068,
      " Rab7": 2069,
      " Rbb7": 2070,
      " Ncb4": 2071,
      "R1d3": 2072,
      " Nce8": 2073,
      " Nce6": 2074,
      " 107.": 2075,
      "Kxg7": 2076,
      " Rgc8": 2077,
      "Raa7": 2078,
      "Rcd3": 2079,
      "N3d2": 2080,
      "N1f3": 2081,
      " Rbb2": 2082,
      " Ncd5": 2083,
      " N5b6": 2084,
      " N8e7": 2085,
      " Qxg8": 2086,
      "Nef4": 2087,
      " Rac7": 2088,
      "Rgg1": 2089,
      "Ndf1": 2090,
      "Rff3": 2091,
      "Nfxe5": 2092,
      " Ncxd4": 2093,
      "Rba1": 2094,
      " Reg8": 2095,
      "Ndc3": 2096,
      " Raa7": 2097,
      "N2c3": 2098,
      " Rdf7": 2099,
      " fxe2": 2100,
      " 108.": 2101,
      "Reg1": 2102,
      "bxa7": 2103,
      " exd2": 2104,
      "Bh8": 2105,
      " Raa2": 2106,
      "Rfc2": 2107,
      " Kxd3": 2108,
      " Kxb8": 2109,
      " Nxg1": 2110,
      "R4d2": 2111,
      " Nec5": 2112,
      "Nxa1": 2113,
      " Rbg8": 2114,
      " Nfd4": 2115,
      "N4f3": 2116,
      " 109.": 2117,
      " Nfe6": 2118,
      " Ned4": 2119,
      " Rbd7": 2120,
      " Rfc7": 2121,
      "Kxb1": 2122,
      "R1e3": 2123,
      "Ncxd5": 2124,
      " Rfxc8": 2125,
      "Rbc2": 2126,
      "Ncxe5": 2127,
      " Rcb7": 2128,
      " Rae7": 2129,
      "N2g3": 2130,
      " R6e7": 2131,
      "Ngf5": 2132,
      " N8h7": 2133,
      "Nac4": 2134,
      " R6d7": 2135,
      "Nac5": 2136,
      " Ndb6": 2137,
      "Qxg1": 2138,
      "Rbb2": 2139,
      " N7c6": 2140,
      " 110.": 2141,
      " Ndb8": 2142,
      "Ncd4": 2143,
      "Nde3": 2144,
      "Nde5": 2145,
      "Rgf3": 2146,
      "Nfe3": 2147,
      "Rbg1": 2148,
      "Rff7": 2149,
      "Rbd2": 2150,
      " Ncb6": 2151,
      " Ree6": 2152,
      " Rfe6": 2153,
      " R8b7": 2154,
      "Nec4": 2155,
      "R3f2": 2156,
      " Red6": 2157,
      " Nhf8": 2158,
      " 111.": 2159,
      " Rff2": 2160,
      " Nfxd4": 2161,
      "Rgc1": 2162,
      "Ndf5": 2163,
      "Ref3": 2164,
      "Nbc5": 2165,
      " Nxg8": 2166,
      " Rad7": 2167,
      " Rha8": 2168,
      "Rab2": 2169,
      " Nba6": 2170,
      " Kxc2": 2171,
      "Rcc3": 2172,
      "N3h2": 2173,
      " Raf7": 2174,
      "Rha1": 2175,
      "Rac2": 2176,
      "R1b2": 2177,
      "Rdc3": 2178,
      " Rdd6": 2179,
      "Kxc7": 2180,
      "N5f3": 2181,
      " 112.": 2182,
      " Rcf7": 2183,
      " Bxh7": 2184,
      "Rcb2": 2185,
      " Neg6": 2186,
      " Ndxc5": 2187,
      " Ngf4": 2188,
      "Ned3": 2189,
      "Rae2": 2190,
      " Neg8": 2191,
      "Ncd1": 2192,
      "Rce3": 2193,
      "R3c2": 2194,
      "Nef5": 2195,
      " Ncxd5": 2196,
      " R6f7": 2197,
      "Rdf3": 2198,
      "R6d2": 2199,
      " Rcd6": 2200,
      "R1a2": 2201,
      "Rfxf7": 2202,
      " R6c7": 2203,
      "Rad2": 2204,
      "Nfd3": 2205,
      "Rec3": 2206,
      " Nec7": 2207,
      "Raa2": 2208,
      "Na8": 2209,
      "N7": 2210,
      "Ngxe2": 2211,
      "Rhf3": 2212,
      "Ncd3": 2213,
      " 113.": 2214,
      "Rbc3": 2215,
      "Nac2": 2216,
      " Rff6": 2217,
      " Ncd3": 2218,
      " Rgh8": 2219,
      " Ned6": 2220,
      " Nfg6": 2221,
      " Rgf7": 2222,
      " 14": 2223,
      " Ned3": 2224,
      " Ncxe7": 2225,
      "Rgh1": 2226,
      "Ncb4": 2227,
      "Rcf2": 2228,
      "R4d3": 2229,
      "Rge3": 2230,
      " Rch8": 2231,
      "Nhf1": 2232,
      " Nde4": 2233,
      "Ndb1": 2234,
      "N4b3": 2235,
      "Rdd6": 2236,
      "R1c3": 2237,
      "Rch1": 2238,
      " Rde6": 2239,
      " Rbxc8": 2240,
      " Nec4": 2241,
      " R8e6": 2242,
      " R5d7": 2243,
      "Nxg1": 2244,
      " 114.": 2245,
      " Rdb7": 2246,
      "R4e2": 2247,
      "Nbd5": 2248,
      "dxe3": 2249,
      " R8d6": 2250,
      "Bxh2": 2251,
      " R8c6": 2252,
      " N4d5": 2253,
      " Nge6": 2254,
      " Rbc6": 2255,
      " Rbe7": 2256,
      " Rcc6": 2257,
      " Ngxe7": 2258,
      " Rfg7": 2259,
      "Ndxc4": 2260,
      "Nge3": 2261,
      " N7g6": 2262,
      "exf8": 2263,
      "Neg3": 2264,
      "Nfe1": 2265,
      "R5d2": 2266,
      " Ncb8": 2267,
      " Na1": 2268,
      "Rdb2": 2269,
      " Rgg7": 2270,
      " R8g7": 2271,
      "Nfxd5": 2272,
      "Nh8": 2273,
      "Rgf2": 2274,
      "Reh1": 2275,
      " Ndf4": 2276,
      "R1g2": 2277,
      "Rhg3": 2278,
      "R4f2": 2279,
      "Ngf1": 2280,
      "Ncxb5": 2281,
      "Rdd8": 2282,
      " Rab6": 2283,
      " N8c6": 2284,
      " 115.": 2285,
      " Nef4": 2286,
      "Nce1": 2287,
      "Nfe4": 2288,
      "R1d4": 2289,
      " Ngf8": 2290,
      "Ndb3": 2291,
      " Nde6": 2292,
      "R1d6": 2293,
      "R5e2": 2294,
      " Ncd6": 2295,
      " R8a7": 2296,
      " Kxa8": 2297,
      " R4c7": 2298,
      "Rbd3": 2299,
      "Rfg2": 2300,
      "R5e3": 2301,
      " Rgf6": 2302,
      "Rab3": 2303,
      "Ndf4": 2304,
      " N5c6": 2305,
      " Rfxe8": 2306,
      "R1f3": 2307,
      " Nbd3": 2308,
      "Nab5": 2309,
      " N2": 2310,
      "Bxg1": 2311,
      " Rbf7": 2312,
      "Raf2": 2313,
      "Rbe2": 2314,
      " R5e7": 2315,
      "Ned6": 2316,
      " 116.": 2317,
      " Rfxf2": 2318,
      " Rfd6": 2319,
      " Nfxd7": 2320,
      " N6h7": 2321,
      " Rhg7": 2322,
      " Rba7": 2323,
      " Rgb8": 2324,
      "N3h4": 2325,
      " Reh8": 2326,
      "Ncb1": 2327,
      "Rfh1": 2328,
      "Kxa1": 2329,
      " Nxh8": 2330,
      "Rhd3": 2331,
      "Rhg2": 2332,
      " R5f7": 2333,
      "R4e3": 2334,
      " Rca7": 2335,
      " Rexd8": 2336,
      "Red4": 2337,
      "Rfxc1": 2338,
      "R5d3": 2339,
      "Ncd6": 2340,
      "Nec5": 2341,
      " Reb7": 2342,
      "Rgd3": 2343,
      "Rfg3": 2344,
      "Rgg2": 2345,
      " 117.": 2346,
      " N6h5": 2347,
      "Rbh1": 2348,
      "Rdd4": 2349,
      "Ndc5": 2350,
      " N6d5": 2351,
      "Reb2": 2352,
      "Rhx": 2353,
      " R8f6": 2354,
      " R5c7": 2355,
      " Raxb8": 2356,
      " N3": 2357,
      "Ncxd4": 2358,
      " Rdc6": 2359,
      "Rgx": 2360,
      " Rbh8": 2361,
      " Rfb7": 2362,
      "Nhg4": 2363,
      "Rfxe1": 2364,
      " Bxg8": 2365,
      "Rcc6": 2366,
      "N6": 2367,
      " Rac6": 2368,
      "N3d4": 2369,
      "Rcc8": 2370,
      "Nbd6": 2371,
      "Rac3": 2372,
      " Rfh8": 2373,
      " 118.": 2374,
      " Nab4": 2375,
      " Rdd1": 2376,
      " Rgx": 2377,
      " Nh1": 2378,
      " R4c6": 2379,
      "Nxh1": 2380,
      "Rbb3": 2381,
      "Rdh2": 2382,
      "Nge5": 2383,
      "Nhf4": 2384,
      "Rhd2": 2385,
      " Ndf5": 2386,
      " Kxe2": 2387,
      "Rgb1": 2388,
      "R4f3": 2389,
      " Nbc5": 2390,
      "Rhe3": 2391,
      "R5c2": 2392,
      "xg8": 2393,
      " Nab6": 2394,
      "Rexd1": 2395,
      " Ref6": 2396,
      " Ndxf6": 2397,
      " Nfg8": 2398,
      "Nfg3": 2399,
      "Ree8": 2400,
      "Rgg7": 2401,
      "Nfxd2": 2402,
      "Rba2": 2403,
      "Rfb2": 2404,
      " Nfe5": 2405,
      " 119.": 2406,
      " Rhg6": 2407,
      " Rcc1": 2408,
      " Nhf5": 2409,
      "N5d4": 2410,
      " Nfd6": 2411,
      "Ncb3": 2412,
      "Ree4": 2413,
      " Nec8": 2414,
      "dxe8": 2415,
      " Ree1": 2416,
      " Rcc4": 2417,
      " Rec6": 2418,
      " Rce6": 2419,
      "Kxe7": 2420,
      "Rhg7": 2421,
      "N3e4": 2422,
      "N5e4": 2423,
      "Ree6": 2424,
      " Nge4": 2425,
      "Rdg2": 2426,
      " R5d6": 2427,
      " Nbc8": 2428,
      "Nbd3": 2429,
      " Rcc3": 2430,
      " Rbb6": 2431,
      "Raa8": 2432,
      "R8d7": 2433,
      "Nec1": 2434,
      " Rge7": 2435,
      " Rbd6": 2436,
      "Rhxf1": 2437,
      "Rbf2": 2438,
      "Neg1": 2439,
      "Nab1": 2440,
      " Rdd3": 2441,
      "R6d3": 2442,
      " Rhx": 2443,
      "Rde4": 2444,
      " 120.": 2445,
      "Rca2": 2446,
      " Ndc4": 2447,
      " R4e7": 2448,
      " Rfg6": 2449,
      " Raxe8": 2450,
      " Rdd5": 2451,
      "Nbc4": 2452,
      " Nab8": 2453,
      "R6d4": 2454,
      "Rcb3": 2455,
      "Rbb8": 2456,
      "R5c3": 2457,
      "R1d5": 2458,
      " Rcc5": 2459,
      " R8c3": 2460,
      " Rhg2": 2461,
      "R1c6": 2462,
      " R8d3": 2463,
      " Rcb6": 2464,
      "R4c2": 2465,
      " Rhf6": 2466,
      " R6b7": 2467,
      "Nab6": 2468,
      "gxf8": 2469,
      "Kxd7": 2470,
      "Reg2": 2471,
      "Ndf2": 2472,
      "Nbc1": 2473,
      " R8d5": 2474,
      "Nbc7": 2475,
      "Rge2": 2476,
      "Nec2": 2477,
      " Rge6": 2478,
      "Rbxc1": 2479,
      "Rfe4": 2480,
      "N4c3": 2481,
      " Kxd2": 2482,
      "Rcd4": 2483,
      " Rgg2": 2484,
      "Nba3": 2485,
      "Nexg5": 2486,
      " R5f6": 2487,
      " 15": 2488,
      "Nfxg5": 2489,
      "R7d6": 2490,
      "Nhg5": 2491,
      "dxc8": 2492,
      " 121.": 2493,
      " Nfxg4": 2494,
      " Reg7": 2495,
      " R8c5": 2496,
      "Rhh7": 2497,
      " R4e6": 2498,
      " R8d4": 2499,
      " R4c5": 2500,
      "Rad3": 2501,
      " Nbd4": 2502,
      " Ree3": 2503,
      "N3e2": 2504,
      "Nbxd6": 2505,
      " Rdf6": 2506,
      "Raa3": 2507,
      " R5e6": 2508,
      "Rgd2": 2509,
      "R1e6": 2510,
      "Rhh2": 2511,
      "Rab7": 2512,
      "Nfd1": 2513,
      "Reg3": 2514,
      "Rgg3": 2515,
      "Nhf2": 2516,
      " Rba6": 2517,
      "Rgh3": 2518,
      "exd8": 2519,
      " Nhf7": 2520,
      " Raa1": 2521,
      "Rae3": 2522,
      " Rhh7": 2523,
      "R1h2": 2524,
      " Nbd6": 2525,
      " N4c6": 2526,
      "R1e4": 2527,
      "Rdd5": 2528,
      " R4d7": 2529,
      " Rda7": 2530,
      "Rea2": 2531,
      " Rea7": 2532,
      " R1d2": 2533,
      "Rfd4": 2534,
      "R6d5": 2535,
      "R1d7": 2536,
      "Kxc8": 2537,
      " 122.": 2538,
      " Ree5": 2539,
      "Rda2": 2540,
      "Rdxd3": 2541,
      "Ncxe2": 2542,
      " R8c4": 2543,
      " Rgh7": 2544,
      "R3b2": 2545,
      "Rdb3": 2546,
      "Rhf2": 2547,
      " Ncd8": 2548,
      " Rdxd6": 2549,
      " Rab2": 2550,
      "Rcc5": 2551,
      "Rba3": 2552,
      " Rdxd7": 2553,
      " Rcd5": 2554,
      "Ngxf7": 2555,
      " Rbb1": 2556,
      "R5d4": 2557,
      " Nexg4": 2558,
      "Rcc4": 2559,
      " R8b6": 2560,
      " R4f7": 2561,
      "Rfc3": 2562,
      "R1c4": 2563,
      "Rdxd4": 2564,
      "R1b3": 2565,
      "R5f3": 2566,
      "R1a3": 2567,
      " exf1": 2568,
      "Rbe3": 2569,
      "R5f2": 2570,
      "R1a6": 2571,
      "Nde6": 2572,
      " 123.": 2573,
      "Rbb6": 2574,
      " N6e7": 2575,
      "Raxe1": 2576,
      " R5c6": 2577,
      "xh5": 2578,
      "Kxb8": 2579,
      "fxe8": 2580,
      " R8e5": 2581,
      "Rdc4": 2582,
      " Rfe5": 2583,
      " R4f6": 2584,
      " N8c7": 2585,
      " N5g6": 2586,
      "Rexe6": 2587,
      "R5e4": 2588,
      " Red5": 2589,
      "Nac6": 2590,
      "Rgh2": 2591,
      "Rdxd5": 2592,
      " R8a3": 2593,
      "Rbxb7": 2594,
      "Raa6": 2595,
      "Rff4": 2596,
      "Ngxe6": 2597,
      " Naxc5": 2598,
      " Raa3": 2599,
      " R1e2": 2600,
      " Kxf1": 2601,
      "Ree5": 2602,
      " Nfh5": 2603,
      "Neg4": 2604,
      "Rgxg7": 2605,
      "Ncxd6": 2606,
      "Nexd5": 2607,
      " Rbxb2": 2608,
      "Ncb6": 2609,
      " Raa6": 2610,
      " Nfd3": 2611,
      "Raxb1": 2612,
      " Rhh2": 2613,
      " Nge8": 2614,
      " Rcxd8": 2615,
      "R8e7": 2616,
      " 124.": 2617,
      "Kxd8": 2618,
      "Ndc6": 2619,
      "Rff6": 2620,
      " R8h7": 2621,
      " Kxc1": 2622,
      " Kxe1": 2623,
      "cxd8": 2624,
      " Rfa7": 2625,
      "N1a2": 2626,
      " Rdg7": 2627,
      "Naxc5": 2628,
      " Rac5": 2629,
      " Rbb3": 2630,
      " R8e3": 2631,
      "Rgf7": 2632,
      "R1h7": 2633,
      "Rdxd7": 2634,
      "Rexe4": 2635,
      " Nce3": 2636,
      " Nhg7": 2637,
      "Nge6": 2638,
      "Rbd4": 2639,
      "Rexe7": 2640,
      " Rgxg2": 2641,
      "Rfh3": 2642,
      " N6e5": 2643,
      " Rdd4": 2644,
      " Rcxc2": 2645,
      "R2d3": 2646,
      "Rhh3": 2647,
      " R3d7": 2648,
      "Nfe6": 2649,
      " Nhg4": 2650,
      "R1e7": 2651,
      "N4g3": 2652,
      " N4e5": 2653,
      "Rhf4": 2654,
      " Kxd1": 2655,
      "Rexe3": 2656,
      " Rhf7": 2657,
      "Naxc4": 2658,
      "Rfa2": 2659,
      "Rac4": 2660,
      "R1e5": 2661,
      " R4b7": 2662,
      "Nef6": 2663,
      " R2d3": 2664,
      " 125.": 2665,
      "R7c6": 2666,
      "Rbc7": 2667,
      "Kxa8": 2668,
      " Nba4": 2669,
      " Nde3": 2670,
      " Rexe7": 2671,
      "Rcf3": 2672,
      " Ngxf6": 2673,
      " Rbb4": 2674,
      "Ndxe6": 2675,
      "xg1": 2676,
      "R1c5": 2677,
      " cxd1": 2678,
      "N2c4": 2679,
      "R4c3": 2680,
      " Rgf2": 2681,
      "Kxf8": 2682,
      " Rdxd5": 2683,
      "Rgf4": 2684,
      "Raxa7": 2685,
      "R8c7": 2686,
      " dxe1": 2687,
      " Ndf7": 2688,
      " R8a6": 2689,
      " R6g7": 2690,
      "Rca3": 2691,
      " Rga8": 2692,
      " Rde5": 2693,
      "Nfg1": 2694,
      " Rbc5": 2695,
      " R8e4": 2696,
      " Rgd7": 2697,
      " Ree4": 2698,
      " Nexf6": 2699,
      "Rhe2": 2700,
      " R6a7": 2701,
      " 126.": 2702,
      " Rff5": 2703,
      " Rfd5": 2704,
      " Naxc4": 2705,
      " Rff3": 2706,
      " Nexc5": 2707,
      " Rhxf8": 2708,
      "Rbc4": 2709,
      " Kxb1": 2710,
      "Red7": 2711,
      " R8d2": 2712,
      "Rdg3": 2713,
      "Nac1": 2714,
      "Rdxd2": 2715,
      " R4d6": 2716,
      "Ref4": 2717,
      "Nfd6": 2718,
      "Nab3": 2719,
      " R1c2": 2720,
      " Rgh6": 2721,
      " Nac3": 2722,
      "R3g2": 2723,
      " R2c3": 2724,
      "xh4": 2725,
      " Rca6": 2726,
      " Raxa2": 2727,
      "Rdf4": 2728,
      "Rfe7": 2729,
      "Nfxe6": 2730,
      " R8c2": 2731,
      "Rga1": 2732,
      " Nfe3": 2733,
      " R8e2": 2734,
      " Rac4": 2735,
      " Rgg6": 2736,
      " N6a5": 2737,
      " Ndxe7": 2738,
      " Nfxe5": 2739,
      " Rff4": 2740,
      "Red5": 2741,
      " Rexe6": 2742,
      "R1f4": 2743,
      "Ndxe2": 2744,
      "Ngh2": 2745,
      " Rcg7": 2746,
      "R1c7": 2747,
      " R4e5": 2748,
      "Ngh5": 2749,
      " Ngf5": 2750,
      "R6e2": 2751,
      "Rexe5": 2752,
      "Nexf4": 2753,
      " Rad6": 2754,
      " 127.": 2755,
      " Rhe6": 2756,
      "R1g3": 2757,
      " gxf1": 2758,
      " Rexc8": 2759,
      " Nhg5": 2760,
      "Kxe8": 2761,
      "Rfh2": 2762,
      "Rdxd6": 2763,
      " Rdxd4": 2764,
      " Nef8": 2765,
      "Rac5": 2766,
      "Rcxc3": 2767,
      " Nhxf4": 2768,
      "N5a3": 2769,
      "Nef1": 2770,
      " Rdc5": 2771,
      "xh6": 2772,
      " Kxa1": 2773,
      " Rdb6": 2774,
      "R4b2": 2775,
      "Rcxd1": 2776,
      " Rbd5": 2777,
      "R1a5": 2778,
      " Nge3": 2779,
      " Rbb5": 2780,
      "R7e6": 2781,
      " Rcxc3": 2782,
      " Rbxd8": 2783,
      "Nce6": 2784,
      " Rag2": 2785,
      " Nca6": 2786,
      " N7xf6": 2787,
      "R5f4": 2788,
      "xh7": 2789,
      " Rgf5": 2790,
      " Rexe5": 2791,
      "Rag7": 2792,
      "R5c4": 2793,
      " Kxg1": 2794,
      " R4f5": 2795,
      " Rcxc7": 2796,
      "Rec4": 2797,
      "Rff8": 2798,
      "Nbxc5": 2799,
      "Kxg8": 2800,
      " R4d5": 2801,
      " R8g6": 2802,
      "Nfxe4": 2803,
      " Rfh7": 2804,
      "bxa8": 2805,
      " Nexd4": 2806,
      "Rcg2": 2807,
      "Ndxe5": 2808,
      " Rab5": 2809,
      " bxc1": 2810,
      "Raf3": 2811,
      "Rdc7": 2812,
      " R5b7": 2813,
      " 128.": 2814,
      "bxc8": 2815,
      "Rexe2": 2816,
      " Ref5": 2817,
      "Nhxf5": 2818,
      " Kxh1": 2819,
      " Rae6": 2820,
      "Rhd4": 2821,
      "Rcxc6": 2822,
      " Rce5": 2823,
      " Nbxc4": 2824,
      " R3c7": 2825,
      "Rhg4": 2826,
      "Rcxc7": 2827,
      " Rbe6": 2828,
      "Nhg3": 2829,
      "N3a4": 2830,
      "Rac7": 2831,
      " Ndc7": 2832,
      " R4b6": 2833,
      "R6e5": 2834,
      "Rbg7": 2835,
      " Neg7": 2836,
      " exd1": 2837,
      " Nef3": 2838,
      "Rfxf6": 2839,
      "Nec6": 2840,
      "Rcg7": 2841,
      " bxa1": 2842,
      " Rfe2": 2843,
      "R1b6": 2844,
      "R6f2": 2845,
      "Ngf6": 2846,
      "Ndc2": 2847,
      "R6f4": 2848,
      "R3a2": 2849,
      "Ndxf3": 2850,
      " Rcxc4": 2851,
      " Rbxb7": 2852,
      " Nca4": 2853,
      " Nhxf6": 2854,
      " R8b3": 2855,
      "Rge4": 2856,
      " Rgc7": 2857,
      " 129.": 2858,
      " Ndc3": 2859,
      "Naxb5": 2860,
      " Rdxc8": 2861,
      "Reb3": 2862,
      " Nfd8": 2863,
      "Nfh5": 2864,
      " Nexc4": 2865,
      "R2e3": 2866,
      "Nab2": 2867,
      " R8a4": 2868,
      " N7e6": 2869,
      " N7c5": 2870,
      "Rff5": 2871,
      " Rbc2": 2872,
      " Nexf5": 2873,
      " Raa4": 2874,
      " Rhf5": 2875,
      "Rad4": 2876,
      "Rhe4": 2877,
      "Ned1": 2878,
      "Rce4": 2879,
      " Nhg6": 2880,
      " Rac2": 2881,
      "Rbxb2": 2882,
      " Rff1": 2883,
      "Ngxf3": 2884,
      " Rcxc6": 2885,
      "Rbb4": 2886,
      "R1a7": 2887,
      "Rexd4": 2888,
      "R7d5": 2889,
      "Rab4": 2890,
      "hxg8": 2891,
      " R3d4": 2892,
      "Rcd7": 2893,
      " Ncb5": 2894,
      "Nexc4": 2895,
      "R6e4": 2896,
      "Kxh8": 2897,
      " Red2": 2898,
      " R8f5": 2899,
      "xh3": 2900,
      " Nhg8": 2901,
      "cxb8": 2902,
      "R1h6": 2903,
      " 130.": 2904,
      "Reh2": 2905,
      " Ngh7": 2906,
      " R8h2": 2907,
      " Raa5": 2908,
      " Ngh6": 2909,
      " Rbg2": 2910,
      " Rcg2": 2911,
      "Rbd7": 2912,
      "Ngf4": 2913,
      "Rhh8": 2914,
      "R1xd4": 2915,
      " Reg6": 2916,
      "Rbf3": 2917,
      " Rgd6": 2918,
      "Nhf6": 2919,
      "R6c2": 2920,
      " Rfxf7": 2921,
      " dxc1": 2922,
      "R7d2": 2923,
      " N8f6": 2924,
      "axb8": 2925,
      "Rdh3": 2926,
      " Nde8": 2927,
      "R7e5": 2928,
      " N8a7": 2929,
      " R3c4": 2930,
      "Rfd7": 2931,
      " Rcb5": 2932,
      "Nhg2": 2933,
      "R6e3": 2934,
      "R8d6": 2935,
      " fxe1": 2936,
      " R3e4": 2937,
      " Rexe4": 2938,
      "Rcxc2": 2939,
      " Nec3": 2940,
      " Ngh5": 2941,
      "N1c2": 2942,
      "Rec7": 2943,
      "Rcxc4": 2944,
      " Rhh1": 2945,
      "Nde1": 2946,
      "Rexd5": 2947,
      " 16": 2948,
      "Ngh3": 2949,
      " R3d5": 2950,
      " Rhd7": 2951,
      "Nexf7": 2952,
      " R2e3": 2953,
      "Rbxd1": 2954,
      "Rhxh7": 2955,
      "R1a4": 2956,
      " R8a2": 2957,
      " R2d4": 2958,
      "Rbb5": 2959,
      "Ncxe6": 2960,
      " Rhe7": 2961,
      "Raa4": 2962,
      " Rexe2": 2963,
      "Ndf6": 2964,
      "Rcxc5": 2965,
      " N8e6": 2966,
      " Rfh6": 2967,
      "N1e3": 2968,
      " 131.": 2969,
      "Rde5": 2970,
      " Rcxc5": 2971,
      "R5b2": 2972,
      "R4a2": 2973,
      " R8a5": 2974,
      " Rcxd6": 2975,
      "Nfg4": 2976,
      "Rfe5": 2977,
      "R4a3": 2978,
      "Rexd3": 2979,
      "R1b7": 2980,
      " Rab4": 2981,
      "Rcb4": 2982,
      "R7d3": 2983,
      "Raxa6": 2984,
      " Ncxb4": 2985,
      "Rbd5": 2986,
      "R7c2": 2987,
      " Ncxd3": 2988,
      "Nexd2": 2989,
      " Rge5": 2990,
      " N7a6": 2991,
      "Ngxf5": 2992,
      " R2e4": 2993,
      " Nbxd3": 2994,
      " Rhg5": 2995,
      " Rbc4": 2996,
      " Rbd2": 2997,
      "Qc": 2998,
      "Rcd5": 2999,
      "Rge7": 3000,
      "R6c5": 3001,
      "Nexd6": 3002,
      " Rfxf3": 3003,
      " Rec5": 3004,
      "R4b3": 3005,
      "Nca4": 3006,
      "N1d3": 3007,
      "R8f7": 3008,
      "Nexf5": 3009,
      "Ngxe5": 3010,
      " Rdc2": 3011,
      "R6f3": 3012,
      " Rca5": 3013,
      "R5b3": 3014,
      " R7d6": 3015,
      "Reh3": 3016,
      " Rdc4": 3017,
      "Ndxf7": 3018,
      "R1h3": 3019,
      "N7d5": 3020,
      " R5b6": 3021,
      "Rfxf2": 3022,
      " R2c4": 3023,
      " Ndxe4": 3024,
      "Nba5": 3025,
      " Nac8": 3026,
      " 132.": 3027,
      "Rdxe4": 3028,
      "Rgc2": 3029,
      " Rcd2": 3030,
      "Rgc3": 3031,
      "Rfxf5": 3032,
      " Rdh7": 3033,
      " Rexd6": 3034,
      "Rgh4": 3035,
      " N4a5": 3036,
      "Rhg5": 3037,
      "Nde7": 3038,
      " R8h3": 3039,
      "Rfh4": 3040,
      " N6xd5": 3041,
      " R3f7": 3042,
      "Rad7": 3043,
      "Rdg7": 3044,
      "Ndc7": 3045,
      "R7c5": 3046,
      " N4xd5": 3047,
      " Rcxd5": 3048,
      " Rfc6": 3049,
      " Ngxf2": 3050,
      "Rexc1": 3051,
      " R5a6": 3052,
      "R1f7": 3053,
      " Rhh6": 3054,
      "Rca4": 3055,
      " N8g6": 3056,
      " R2a3": 3057,
      "R8h7": 3058,
      " R8b4": 3059,
      "R8a7": 3060,
      "Rfg4": 3061,
      " Rca4": 3062,
      "R5g3": 3063,
      "fxg8": 3064,
      " Rcd4": 3065,
      " R5a7": 3066,
      "Rgg8": 3067,
      " R3e7": 3068,
      " Qc": 3069,
      "Rgxg6": 3070,
      "R1f6": 3071,
      " Rad5": 3072,
      " Rexe3": 3073,
      " Ndxb4": 3074,
      "R8b7": 3075,
      "Qa": 3076,
      "Red6": 3077,
      "Rba4": 3078,
      " Nab7": 3079,
      " Rad2": 3080,
      " Ngxe4": 3081,
      " Rba5": 3082,
      "R1b4": 3083,
      " R3c5": 3084,
      "Ndb4": 3085,
      " Nexd7": 3086,
      "Qb": 3087,
      "Rdb4": 3088,
      "N1f2": 3089,
      " axb1": 3090,
      "Nbc6": 3091,
      " R8b2": 3092,
      " Rbxb3": 3093,
      "R2c3": 3094,
      "Raa5": 3095,
      "Rhf5": 3096,
      " Rdb5": 3097,
      "R1xd5": 3098,
      " Qd": 3099,
      " Reh7": 3100,
      "Rgg6": 3101,
      " 133.": 3102,
      "Rdxe5": 3103,
      "Rea3": 3104,
      "Rda3": 3105,
      " R8b5": 3106,
      "Rac6": 3107,
      "Rfxf3": 3108,
      " Rfd2": 3109,
      "Rab5": 3110,
      "Rhe7": 3111,
      " Ndf3": 3112,
      " Rge2": 3113,
      "Rab6": 3114,
      " Rhg4": 3115,
      "Raxa5": 3116,
      " Nab3": 3117,
      "Rdc5": 3118,
      "R6c4": 3119,
      "Ndxc5": 3120,
      "N2e4": 3121,
      "R7e3": 3122,
      " R1a2": 3123,
      " Raxa4": 3124,
      "Rfb3": 3125,
      " Nbxc6": 3126,
      "Rhd7": 3127,
      "Ndxf5": 3128,
      " Rfxe6": 3129,
      " Nfg5": 3130,
      " R7e6": 3131,
      " Red4": 3132,
      "Rca5": 3133,
      " R2c7": 3134,
      "Rhh6": 3135,
      "R7e2": 3136,
      "R7a6": 3137,
      "Qd": 3138,
      " Qe": 3139,
      "gxh8": 3140,
      " R4g6": 3141,
      " Rfxf4": 3142,
      "Ngf7": 3143,
      " Rce4": 3144,
      " Rbd4": 3145,
      " R3f4": 3146,
      " 134.": 3147,
      "Rcd6": 3148,
      " Rgg4": 3149,
      "R6f5": 3150,
      " Rag7": 3151,
      " Rdf5": 3152,
      " Rhf4": 3153,
      " Rgg3": 3154,
      " Neg5": 3155,
      " R3d6": 3156,
      "Qe": 3157,
      "Rhc3": 3158,
      " R8f3": 3159,
      " Rexd5": 3160,
      " Nbc7": 3161,
      "R7b6": 3162,
      "Rfxf4": 3163,
      "Rdc6": 3164,
      " R3f6": 3165,
      "Rdxe3": 3166,
      "Rge5": 3167,
      " N7e5": 3168,
      "R7f6": 3169,
      " R1f2": 3170,
      " Rfxf6": 3171,
      " R2b3": 3172,
      "Rhc2": 3173,
      " cxb1": 3174,
      " Rde4": 3175,
      " Rec2": 3176,
      " R1h2": 3177,
      "R5g2": 3178,
      " R4b5": 3179,
      " R3e5": 3180,
      " Rcxd4": 3181,
      "Neg2": 3182,
      " Rhxh2": 3183,
      "R5a2": 3184,
      " Rac3": 3185,
      "R1xe4": 3186,
      " R3f5": 3187,
      " R1b2": 3188,
      "Rcxd4": 3189,
      " R3b7": 3190,
      " Raxf8": 3191,
      "Rde7": 3192,
      "Rgd4": 3193,
      "Rdxf1": 3194,
      " Reb6": 3195,
      "Rbc5": 3196,
      " R8h6": 3197,
      " Rgf4": 3198,
      "R5a4": 3199,
      "Ndb2": 3200,
      "R4g3": 3201,
      "R6c3": 3202,
      " Rfe4": 3203,
      " Rdxd3": 3204,
      "Nfh2": 3205,
      " R2f3": 3206,
      " 135.": 3207,
      "Rcxd5": 3208,
      " R8f4": 3209,
      "N3g4": 3210,
      " R1d3": 3211,
      " Rfg5": 3212,
      "R7c3": 3213,
      "Rdxc1": 3214,
      "Rbd6": 3215,
      "R5b4": 3216,
      " R4g7": 3217,
      " Qb": 3218,
      "Nca3": 3219,
      "N3c4": 3220,
      "Rfc7": 3221,
      " Rbf2": 3222,
      " Rbxb4": 3223,
      " Rgg1": 3224,
      "R7d4": 3225,
      "Rdxc3": 3226,
      " Rec4": 3227,
      "Nfh4": 3228,
      " Rcf6": 3229,
      "Rcb7": 3230,
      "Nab4": 3231,
      "Rae7": 3232,
      "Rce5": 3233,
      "Qf": 3234,
      "Rfxe3": 3235,
      "Nbxd5": 3236,
      "Rbxb6": 3237,
      " N4h5": 3238,
      "R6b2": 3239,
      " R7c6": 3240,
      "xh2": 3241,
      " R5g7": 3242,
      "N1g3": 3243,
      "R4g2": 3244,
      "N3xd4": 3245,
      " Rhe5": 3246,
      " Rhd6": 3247,
      " R8f2": 3248,
      " Rab3": 3249,
      "Rch2": 3250,
      "Nhg1": 3251,
      "Rhf7": 3252,
      "R6b3": 3253,
      " Rfxb8": 3254,
      " R3a4": 3255,
      "Ned7": 3256,
      " N4a6": 3257,
      " Qa": 3258,
      " Rdxd2": 3259,
      " Rhh5": 3260,
      " Rbxb6": 3261,
      " Ncb3": 3262,
      " Raxa7": 3263,
      " Rhd5": 3264,
      " Rbxb5": 3265,
      "R6xd5": 3266,
      " Rfh5": 3267,
      "Rhg6": 3268,
      "Rec5": 3269,
      " Rcxd7": 3270,
      " R8xd5": 3271,
      "Rexd2": 3272,
      "Rbxb5": 3273,
      "N2e3": 3274,
      " Rae2": 3275,
      " Rhe2": 3276,
      " Rexd7": 3277,
      " Rcb4": 3278,
      " Rgh5": 3279,
      " Rgxg3": 3280,
      " Ngf7": 3281,
      "Rdxc4": 3282,
      " Nhf3": 3283,
      " Nbxd4": 3284,
      "Ncd7": 3285,
      "Rgd7": 3286,
      "Rgg4": 3287,
      " 136.": 3288,
      "R1xd2": 3289,
      "Ndb6": 3290,
      " Rdxe5": 3291,
      "Rad6": 3292,
      "Rfd5": 3293,
      " R5g6": 3294,
      "Raf7": 3295,
      "Rgg5": 3296,
      " Raxa3": 3297,
      " Rdg2": 3298,
      " R2d6": 3299,
      " Qf": 3300,
      "R5a3": 3301,
      " N8xd7": 3302,
      "R3h2": 3303,
      "Rdxe6": 3304,
      " R2c6": 3305,
      "N8": 3306,
      " N8d6": 3307,
      " R2d7": 3308,
      " Nca5": 3309,
      " N6xe5": 3310,
      "Nbc2": 3311,
      "Rgf5": 3312,
      " Rhxc8": 3313,
      "Rhh4": 3314,
      "Nexc5": 3315,
      " Rgg5": 3316,
      "Ngf2": 3317,
      " hxg1": 3318,
      "Rde6": 3319,
      " Rhh4": 3320,
      " Ned8": 3321,
      "R6a5": 3322,
      "R2d4": 3323,
      "R1b5": 3324,
      "R7e4": 3325,
      " N5e6": 3326,
      "Rad5": 3327,
      " Ngxf4": 3328,
      "Rae4": 3329,
      " Nbc3": 3330,
      "Rhg8": 3331,
      "Rce7": 3332,
      " Raf2": 3333,
      " Rhd2": 3334,
      "Rbf7": 3335,
      "R1f5": 3336,
      " R8xd7": 3337,
      " R3c6": 3338,
      " R7f6": 3339,
      " 137.": 3340,
      " Rdxe6": 3341,
      " Rhh3": 3342,
      "Rag2": 3343,
      " Rce2": 3344,
      " Rbe2": 3345,
      " Ndxf4": 3346,
      " R4a7": 3347,
      " R2e7": 3348,
      "Raxa4": 3349,
      " Rfxf5": 3350,
      " Ngf3": 3351,
      "Nca5": 3352,
      "R1xd3": 3353,
      "Nexc3": 3354,
      " Nab5": 3355,
      "Qg": 3356,
      " Ncxe3": 3357,
      " Rbg7": 3358,
      " Nef7": 3359,
      " Nexc6": 3360,
      "Nfxd6": 3361,
      " N8g7": 3362,
      "Qh": 3363,
      "Rfxe4": 3364,
      "R1h4": 3365,
      " Rgd2": 3366,
      " R6h7": 3367,
      " N4xe5": 3368,
      " Rhg3": 3369,
      " R3e6": 3370,
      "Rcxd3": 3371,
      "Rbe7": 3372,
      " Rgc2": 3373,
      " Ndxc4": 3374,
      " N6c5": 3375,
      "Nbxc3": 3376,
      " Rfxe7": 3377,
      " Nexf4": 3378,
      "N3d5": 3379,
      " Rde2": 3380,
      " R2d5": 3381,
      " R3b6": 3382,
      " Rda5": 3383,
      "Rbc6": 3384,
      "N3xe4": 3385,
      "Rfd6": 3386,
      " Rda6": 3387,
      " Ndxe3": 3388,
      "R2f3": 3389,
      " Rcb2": 3390,
      " Rcxc8": 3391,
      " R2e6": 3392,
      "Rdb7": 3393,
      "Ref5": 3394,
      " Rcd3": 3395,
      "Rcf7": 3396,
      " Rbf6": 3397,
      " Ndb7": 3398,
      " N8a6": 3399,
      "Nhg6": 3400,
      " Nbc2": 3401,
      "Nfe7": 3402,
      "R1h5": 3403,
      " R8xd6": 3404,
      " R3b4": 3405,
      " 138.": 3406,
      " Raf6": 3407,
      "Rfxe2": 3408,
      "Reg4": 3409,
      " Rcf2": 3410,
      " R8xc5": 3411,
      " R8h4": 3412,
      "R6b5": 3413,
      " Ngh4": 3414,
      "Nef2": 3415,
      " Raxa5": 3416,
      "Rdxf7": 3417,
      " Nfh4": 3418,
      "Rbxb4": 3419,
      "Ncxb4": 3420,
      " Raxa6": 3421,
      "Rbxb3": 3422,
      "Nfg6": 3423,
      " R8xe7": 3424,
      " Rfc2": 3425,
      " Ndb5": 3426,
      " Rfd4": 3427,
      " Rhg1": 3428,
      " 17": 3429,
      "Rfg7": 3430,
      "Ndc1": 3431,
      " N6g5": 3432,
      "Nac7": 3433,
      "Rdxc5": 3434,
      " Ref4": 3435,
      " Rdxe7": 3436,
      " Nde2": 3437,
      "R5g4": 3438,
      "Raxa2": 3439,
      "Ndxf4": 3440,
      "Nexf6": 3441,
      "Nbxc7": 3442,
      " Reg5": 3443,
      "Rbg2": 3444,
      " R1e3": 3445,
      " Qh": 3446,
      "Rcxd2": 3447,
      " Nhg3": 3448,
      "R7c4": 3449,
      " R2e5": 3450,
      " R4a6": 3451,
      " Rfxe5": 3452,
      "Rcb5": 3453,
      "Rgc7": 3454,
      "N5a4": 3455,
      " Nexd3": 3456,
      " 139.": 3457,
      "Rfe6": 3458,
      "Rdb6": 3459,
      " Rhc7": 3460,
      " R4a5": 3461,
      "R6b4": 3462,
      "R8e6": 3463,
      " Qg": 3464,
      "Rda4": 3465,
      " Rcxe4": 3466,
      " N4c5": 3467,
      " Red3": 3468,
      " R4g5": 3469,
      " R2b4": 3470,
      " R2b7": 3471,
      " R3b5": 3472,
      " N2d4": 3473,
      " N1": 3474,
      " Nexf2": 3475,
      "R1xe6": 3476,
      "Rhh5": 3477,
      "Rcg3": 3478,
      "Rdf7": 3479,
      "Rcb6": 3480,
      "N1g2": 3481,
      "Nge1": 3482,
      "Rhc7": 3483,
      "R1xe2": 3484,
      " Naxc3": 3485,
      "N4f5": 3486,
      "Rdh4": 3487,
      " Rbc3": 3488,
      "R7b3": 3489,
      "Rhxh6": 3490,
      "Nba4": 3491,
      "Rdb5": 3492,
      "Rba5": 3493,
      " Rdf4": 3494,
      "Nce7": 3495,
      " R8xd4": 3496,
      " Rgd5": 3497,
      " Rea6": 3498,
      " Ncxd7": 3499,
      " Nexf3": 3500,
      "R1xe5": 3501,
      " N6f5": 3502,
      " Nexd6": 3503,
      " Rfc5": 3504,
      " Reb2": 3505,
      "Nfh3": 3506,
      " R8h5": 3507,
      " Rge4": 3508,
      "R7f3": 3509,
      " R3a7": 3510,
      "Rfb7": 3511,
      " Rdg6": 3512,
      "Rgf6": 3513,
      "N1a3": 3514,
      "Rdf6": 3515,
      "Rdxe2": 3516,
      "R8d2": 3517,
      " N6c7": 3518,
      " Rae5": 3519,
      " Rgb7": 3520,
      "Rfa3": 3521,
      " Nba5": 3522,
      " Ndxf2": 3523,
      "R5xd4": 3524,
      " R3a6": 3525,
      " Nfh7": 3526,
      " Rexd4": 3527,
      " R2f4": 3528,
      " Ngf2": 3529,
      "Reb7": 3530,
      " Rdb4": 3531,
      " 140.": 3532,
      " fxg1": 3533,
      "Nexf3": 3534,
      "Rgb2": 3535,
      " R7b6": 3536,
      " Rdxc5": 3537,
      " Rad4": 3538,
      " Nbd8": 3539,
      "Rdxc6": 3540,
      " Ncxe6": 3541,
      "R1xc4": 3542,
      " Rfb6": 3543,
      " Rhf2": 3544,
      " Rbxc6": 3545,
      "N2xf3": 3546,
      "R7f2": 3547,
      " Naxb3": 3548,
      " Rfb2": 3549,
      "Rdxc2": 3550,
      "Rhf6": 3551,
      "Reg7": 3552,
      " Rdf2": 3553,
      "R1xc2": 3554,
      " R2g3": 3555,
      "R8d5": 3556,
      " Nfe2": 3557,
      "N1xd2": 3558,
      "R7h6": 3559,
      "Rdxe1": 3560,
      "Rhe5": 3561,
      " Rch7": 3562,
      " Rbxc4": 3563,
      " Ncd2": 3564,
      "R1xf2": 3565,
      "Q8": 3566,
      "Raxf1": 3567,
      " Rdc3": 3568,
      "Rbe4": 3569,
      "N3f4": 3570,
      " Ngxe3": 3571,
      " Rdxf8": 3572,
      "R5h2": 3573,
      "Reh4": 3574,
      "Ndxc6": 3575,
      " R8xe5": 3576,
      "Raxa3": 3577,
      " Rba4": 3578,
      "R8d4": 3579,
      " Rfg2": 3580,
      "Ngh4": 3581,
      "Ref7": 3582,
      " Ndc8": 3583,
      " Ned2": 3584,
      " R8g5": 3585,
      "Nbd1": 3586,
      "Rdf5": 3587,
      " Rdxc6": 3588,
      "R7g6": 3589,
      "N5c4": 3590,
      "R8c6": 3591,
      "Rgf8": 3592,
      "R3d4": 3593,
      " R2f6": 3594,
      " 141.": 3595,
      " Rfxd7": 3596,
      " Ndxf5": 3597,
      "R1g4": 3598,
      " Rgf3": 3599,
      "R8d3": 3600,
      " R1d5": 3601,
      " Nfxe3": 3602,
      " R2c5": 3603,
      "Rfc4": 3604,
      "Rfxd2": 3605,
      " Nbxa4": 3606,
      " Rdxe4": 3607,
      " Rdxe8": 3608,
      "Naxc6": 3609,
      " R1c3": 3610,
      "R2a3": 3611,
      " R7d5": 3612,
      " Raxc3": 3613,
      " Rdxd8": 3614,
      " Nhxf5": 3615,
      "Nhxf3": 3616,
      "R7f4": 3617,
      " Rfxd6": 3618,
      "R4h2": 3619,
      "R6a4": 3620,
      "R6a2": 3621,
      "R7b2": 3622,
      "Rhxh5": 3623,
      "Rfxd3": 3624,
      " Rgc6": 3625,
      " R5h7": 3626,
      " N4f6": 3627,
      "Nhxg6": 3628,
      "Rda5": 3629,
      "Rec6": 3630,
      " Nfg3": 3631,
      " R8xc6": 3632,
      "Nhxf6": 3633,
      " R2f7": 3634,
      " Rfe3": 3635,
      " Rbd3": 3636,
      " Reh6": 3637,
      "R1xc3": 3638,
      "Nbd7": 3639,
      "Ref6": 3640,
      "Rexf5": 3641,
      "Rexf4": 3642,
      " Rdxc7": 3643,
      " Rcf4": 3644,
      "Rcxd6": 3645,
      " R8xe6": 3646,
      " Rexf5": 3647,
      "Ndf7": 3648,
      "R6h4": 3649,
      "Rae5": 3650,
      " Ref2": 3651,
      " N8f7": 3652,
      "R7f5": 3653,
      "Raxc6": 3654,
      " Rhxd8": 3655,
      "R2b3": 3656,
      " 142.": 3657,
      "Rfg5": 3658,
      "Rgh5": 3659,
      "Rgxg5": 3660,
      "R5h4": 3661,
      "R4h3": 3662,
      " R5h6": 3663,
      "N5h4": 3664,
      " R7c5": 3665,
      " Nfxe6": 3666,
      " Reg2": 3667,
      " Rde3": 3668,
      "Ndxc3": 3669,
      "R1g7": 3670,
      "N5xe4": 3671,
      " R1d4": 3672,
      " Nhxg4": 3673,
      " Rdb2": 3674,
      "Rcxf7": 3675,
      "Rbxd5": 3676,
      "R1xe3": 3677,
      " N5f4": 3678,
      "Rfh5": 3679,
      " Rdxf2": 3680,
      "R2d6": 3681,
      "Rgxf1": 3682,
      " Rhxh3": 3683,
      " R8xf7": 3684,
      " R3a5": 3685,
      "R2c4": 3686,
      " Rfd3": 3687,
      "Ngxf6": 3688,
      "Rca6": 3689,
      " Rbe4": 3690,
      " R3g4": 3691,
      " Rdxc4": 3692,
      " Rhe4": 3693,
      "Nec7": 3694,
      "Nef7": 3695,
      "R2e4": 3696,
      "Raxb4": 3697,
      "Reg5": 3698,
      " Red1": 3699,
      " Rhc2": 3700,
      " R8g2": 3701,
      "R8g7": 3702,
      "Raxb5": 3703,
      " Rac1": 3704,
      "Rdxf6": 3705,
      " R4h7": 3706,
      "N5xd4": 3707,
      "Rbxc3": 3708,
      " Raxb2": 3709,
      "Rea4": 3710,
      " R8xc7": 3711,
      " R2b6": 3712,
      " Rgxg7": 3713,
      "Rfxd4": 3714,
      "R6g5": 3715,
      " N5xf6": 3716,
      " R2h3": 3717,
      " 143.": 3718,
      "Rfxe5": 3719,
      "Rexf3": 3720,
      " Ndxc3": 3721,
      "N3a2": 3722,
      " Raxb4": 3723,
      " Rexf6": 3724,
      " Rcxe5": 3725,
      "Rgb7": 3726,
      "R7a5": 3727,
      "Rcxc1": 3728,
      "N2d4": 3729,
      " Rad3": 3730,
      "Rexc3": 3731,
      "Rexd6": 3732,
      " Rcb3": 3733,
      "Nhxg5": 3734,
      "Rad8": 3735,
      " Raxc5": 3736,
      "Rhb2": 3737,
      "Nexc6": 3738,
      " Naxb4": 3739,
      " Rfg4": 3740,
      " Rhf3": 3741,
      " Rbxe8": 3742,
      " 144.": 3743,
      "R6h5": 3744,
      " R1g2": 3745,
      "N7e5": 3746,
      "Rcf4": 3747,
      " Rbe5": 3748,
      " R2a4": 3749,
      " Raxc4": 3750,
      " Raxb6": 3751,
      "Rhxe1": 3752,
      " Rexf7": 3753,
      " Rbxd6": 3754,
      " R8g3": 3755,
      "Rgb3": 3756,
      "R5xe4": 3757,
      "R7b5": 3758,
      " R1d7": 3759,
      "Raxd6": 3760,
      " Raxd7": 3761,
      " R8xe4": 3762,
      " Nfh6": 3763,
      " Rce3": 3764,
      " R8xc3": 3765,
      " N8b6": 3766,
      "Nhxf4": 3767,
      " Rgxf8": 3768,
      "Rfe8": 3769,
      "Red8": 3770,
      " Reg4": 3771,
      "R6g4": 3772,
      " R2a7": 3773,
      " R1e5": 3774,
      "Rah2": 3775,
      "Rdg4": 3776,
      " Rexe8": 3777,
      " Rdxc3": 3778,
      " Rbxf2": 3779,
      "R6xd4": 3780,
      " Nfg7": 3781,
      " Rdf3": 3782,
      "Rbxc4": 3783,
      " Ncxb3": 3784,
      " Nexc3": 3785,
      " 145.": 3786,
      "Rab8": 3787,
      " Rfc4": 3788,
      "Rcxe4": 3789,
      "Nfxg6": 3790,
      " Rgxg4": 3791,
      "N1b2": 3792,
      " R3g5": 3793,
      " R1e4": 3794,
      "Raxb7": 3795,
      " Rad1": 3796,
      "Rdxd1": 3797,
      " Rhb2": 3798,
      "Naxc3": 3799,
      " Nfxd3": 3800,
      " Rhxe8": 3801,
      "Ndxe7": 3802,
      "R1g6": 3803,
      " N7xb6": 3804,
      " Q1": 3805,
      " Raxb5": 3806,
      " Rfxd5": 3807,
      "Ndxf6": 3808,
      " Rcxb4": 3809,
      " Rcxe7": 3810,
      " Rcxe8": 3811,
      " N2c4": 3812,
      " Rfxf8": 3813,
      "Rhb7": 3814,
      " Rca3": 3815,
      " Nce2": 3816,
      "R1xd6": 3817,
      "Naxb6": 3818,
      " Rab1": 3819,
      " Rec3": 3820,
      "Rce6": 3821,
      "Ncxe3": 3822,
      " Rgh4": 3823,
      " Rgc5": 3824,
      "N2f4": 3825,
      " N3c5": 3826,
      " Rbxc3": 3827,
      " Raxd6": 3828,
      " Raxb3": 3829,
      "N2d3": 3830,
      " 146.": 3831,
      " Rbxd4": 3832,
      "Ncxb6": 3833,
      "Nhxf7": 3834,
      " R2f5": 3835,
      " R3g7": 3836,
      " R7d4": 3837,
      " Rfxe4": 3838,
      "Rhb3": 3839,
      " Rexf4": 3840,
      " Rbxa4": 3841,
      "Rbe5": 3842,
      "Rbxc6": 3843,
      "Rbxd6": 3844,
      " Ndxb6": 3845,
      " Ncxd6": 3846,
      "R1xc5": 3847,
      " Rgb2": 3848,
      " Rhxh4": 3849,
      "Reb4": 3850,
      " Ndxf3": 3851,
      "Nexd7": 3852,
      "Rgxg4": 3853,
      " R3h4": 3854,
      " Rdh6": 3855,
      " Rhd4": 3856,
      "Rcxb4": 3857,
      "R1xc6": 3858,
      "R7xe6": 3859,
      "R2d5": 3860,
      " 147.": 3861,
      " Raxb7": 3862,
      "Rhe8": 3863,
      " Rcf5": 3864,
      "Rbc8": 3865,
      "Rbxf7": 3866,
      "R6xe5": 3867,
      "R6g2": 3868,
      "N4e3": 3869,
      " N4g5": 3870,
      " Nhxg3": 3871,
      "Rac8": 3872,
      "Nbxa5": 3873,
      "Rch3": 3874,
      " Rgf1": 3875,
      " R7a6": 3876,
      "Raxf7": 3877,
      "Rfxb1": 3878,
      " Reh5": 3879,
      " Rba3": 3880,
      "Rge6": 3881,
      " Rge3": 3882,
      " Rgxg5": 3883,
      "Rfxe6": 3884,
      " Rfe1": 3885,
      "Reg6": 3886,
      " Rexc7": 3887,
      " Rcxb7": 3888,
      " Ndb3": 3889,
      "R1g5": 3890,
      "Rfd8": 3891,
      " Rfh4": 3892,
      "Rhe6": 3893,
      " Rcxf2": 3894,
      "Rcxe6": 3895,
      "Ncxd7": 3896,
      " R7d3": 3897,
      " Rae4": 3898,
      " Rcxb5": 3899,
      "Rbf4": 3900,
      " Neg3": 3901,
      " R8xf5": 3902,
      " R4h5": 3903,
      " R3g6": 3904,
      " Rah7": 3905,
      " Rdb3": 3906,
      " Rbd1": 3907,
      "Rbxc5": 3908,
      " Ncb7": 3909,
      "R8e4": 3910,
      "N7b5": 3911,
      "Raxd5": 3912,
      "Rfxf1": 3913,
      "R5h3": 3914,
      "Rhc4": 3915,
      " Rcd1": 3916,
      "Rcd8": 3917,
      " Rbxc5": 3918,
      " R8xb5": 3919,
      "Rgd5": 3920,
      "R6a3": 3921,
      " R7g6": 3922,
      " 148.": 3923,
      " Raxc7": 3924,
      " Rdxe3": 3925,
      " Rcxf7": 3926,
      " Rbxe4": 3927,
      " Ncxb6": 3928,
      " N4e6": 3929,
      "Raxb2": 3930,
      "Rdg6": 3931,
      " R8xc4": 3932,
      " R8xe3": 3933,
      "R6g3": 3934,
      "Rexf7": 3935,
      " Ref3": 3936,
      " Reb5": 3937,
      " gxh1": 3938,
      "Neg6": 3939,
      " R8g4": 3940,
      "R7a2": 3941,
      "N4b5": 3942,
      "R2c6": 3943,
      "Rgxg2": 3944,
      "Rfg6": 3945,
      " Nfxe8": 3946,
      " Rhc5": 3947,
      "Rbg3": 3948,
      " Nef2": 3949,
      "R1xf4": 3950,
      " R4xd5": 3951,
      "R6h2": 3952,
      "Raxc4": 3953,
      "Raxb6": 3954,
      "Rexf2": 3955,
      "Ndxc7": 3956,
      " R4xc5": 3957,
      " N2e4": 3958,
      " Rdh5": 3959,
      " N3f4": 3960,
      " Rae1": 3961,
      "Rfxd5": 3962,
      "Nbxc4": 3963,
      "Rda6": 3964,
      "Nhf7": 3965,
      "N3c2": 3966,
      "R7xc6": 3967,
      "R8e5": 3968,
      " R1a3": 3969,
      ". ": 3970,
      "Rgxf3": 3971,
      "Raxb3": 3972,
      " R1c4": 3973,
      " Ncxb5": 3974,
      "Raxd4": 3975,
      "Raxc5": 3976,
      " Raxc6": 3977,
      "Rfxd6": 3978,
      " Ngxf3": 3979,
      " Rdxf7": 3980,
      " Rhe1": 3981,
      " Rbxc2": 3982,
      "R1xf5": 3983,
      "Rgc4": 3984,
      " Nhxf3": 3985,
      "N2xb3": 3986,
      "Raf4": 3987,
      "Rag3": 3988,
      "Rdc8": 3989,
      "Rexe1": 3990,
      "Rcxe5": 3991,
      "Rcxe3": 3992,
      "Nfxe7": 3993,
      " Rgd4": 3994,
      "R7b4": 3995,
      " R2g4": 3996,
      "N5g4": 3997,
      " Raxf2": 3998,
      "Ngxh7": 3999,
      "Rhxd4": 4000,
      "Rhxf5": 4001,
      " Reb4": 4002,
      "Rcxb2": 4003,
      "Rba6": 4004,
      "Rbxa5": 4005,
      "Rbxe1": 4006,
      "Rbxa4": 4007,
      "R7g5": 4008,
      "R2d7": 4009,
      "R2g3": 4010,
      " 149.": 4011,
      "Raf8": 4012,
      "Rhxd3": 4013,
      " Rbxd5": 4014,
      " Ndc2": 4015,
      "R4xd3": 4016,
      " N5e4": 4017,
      " Raxd5": 4018,
      " Ngxe6": 4019,
      "Rexc2": 4020,
      " Rhf1": 4021,
      " Naxc6": 4022,
      " R4h6": 4023,
      " Rhc6": 4024,
      " Rbxd7": 4025,
      "R8b6": 4026,
      "N6f5": 4027,
      " Rdg5": 4028,
      " Rcg6": 4029,
      " R8xf6": 4030,
      " Rga7": 4031,
      " R2xc3": 4032,
      " R1e6": 4033,
      "Rdg8": 4034,
      "Rexc4": 4035,
      "Rexb2": 4036,
      " Rexc4": 4037,
      " Rdc1": 4038,
      " Rhb7": 4039,
      " Rbxa6": 4040,
      "Rbxd4": 4041,
      "Rbh2": 4042,
      " Ndxe6": 4043,
      "N2a3": 4044,
      "R3c4": 4045,
      " R1d6": 4046,
      " R7e5": 4047,
      " 18": 4048,
      "Raxe6": 4049,
      " Nbxc5": 4050,
      "Rhd5": 4051,
      "Rhxf7": 4052,
      "Rcxc8": 4053,
      "Rcxe1": 4054,
      "R3xd2": 4055,
      " N4f5": 4056,
      " R7c3": 4057,
      "Rag8": 4058,
      " Rag1": 4059,
      "Rbd8": 4060,
      " Ncxa4": 4061,
      "R1xf3": 4062,
      " N7d5": 4063,
      "R3f4": 4064,
      "N7c5": 4065,
      " Ngxf5": 4066,
      "Rhf8": 4067,
      "R7a3": 4068,
      "R8e2": 4069,
      " Rhxh5": 4070,
      " 150.": 4071,
      "Rae8": 4072,
      "Rfxf8": 4073,
      " Rfg3": 4074,
      " Rfa6": 4075,
      " Rfxc7": 4076,
      " Rexc6": 4077,
      " R4xe5": 4078,
      "R6h3": 4079,
      "Nhxg4": 4080,
      "Rfxc3": 4081,
      " Rea5": 4082,
      " Rde1": 4083,
      "Ncxd2": 4084,
      "Raxd3": 4085,
      "Rdxf3": 4086,
      " Rbh7": 4087,
      " Rbxc7": 4088,
      " R3xd4": 4089,
      " N3e5": 4090,
      " Rcxe6": 4091,
      " Rcxa4": 4092,
      " Ndf2": 4093,
      " R1b3": 4094,
      "N4e5": 4095
    },
    "merges": [
      [
        " ",
        "1"
      ],
      [
        " ",
        "2"
      ],
      [
        " ",
        "N"
      ],
      [
        " ",
        "3"
      ],
      [
        " ",
        "R"
      ],
      [
        " ",
        "B"
      ],
      [
        " ",
        "Q"
      ],
      [
        "1",
        "."
      ],
      [
        " ",
        "4"
      ],
      [
        "g",
        "_"
      ],
      [
        "5",
        "."
      ],
      [
        "x",
        "d"
      ],
      [
        "6",
        "."
      ],
      [
        "7",
        "."
      ],
      [
        "8",
        "."
      ],
      [
        "9",
        "."
      ],
      [
        " ",
        "K"
      ],
      [
        "0",
        "."
      ],
      [
        "2",
        "."
      ],
      [
        "3",
        "."
      ],
      [
        "4",
        "."
      ],
      [
        "x",
        "e"
      ],
      [
        "f",
        "6"
      ],
      [
        "x",
        "c"
      ],
      [
        "f",
        "3"
      ],
      [
        "]",
        "["
      ],
      [
        "a",
        "r"
      ],
      [
        "e",
        "n"
      ],
      [
        "s",
        "t"
      ],
      [
        "g_",
        "en"
      ],
      [
        "g_",
        "st"
      ],
      [
        "ar",
        "t"
      ],
      [
        "g_en",
        "d"
      ],
      [
        "g_st",
        "art"
      ],
      [
        "-",
        "O"
      ],
      [
        "O",
        "-O"
      ],
      [
        "d",
        "4"
      ],
      [
        "e",
        "4"
      ],
      [
        " ",
        "c"
      ],
      [
        "f",
        "4"
      ],
      [
        "c",
        "3"
      ],
      [
        "f",
        "5"
      ],
      [
        " ",
        "5"
      ],
      [
        " ",
        "d"
      ],
      [
        "e",
        "5"
      ],
      [
        "d",
        "7"
      ],
      [
        "x",
        "b"
      ],
      [
        "g",
        "5"
      ],
      [
        "e",
        "6"
      ],
      [
        "e",
        "7"
      ],
      [
        "e",
        "3"
      ],
      [
        "c",
        "4"
      ],
      [
        "e",
        "2"
      ],
      [
        "g",
        "4"
      ],
      [
        "d",
        "2"
      ],
      [
        "g",
        "6"
      ],
      [
        "xd",
        "4"
      ],
      [
        "c",
        "6"
      ],
      [
        "d",
        "3"
      ],
      [
        "xd",
        "5"
      ],
      [
        "g",
        "3"
      ],
      [
        " ",
        "b"
      ],
      [
        " ",
        "a"
      ],
      [
        " N",
        "f6"
      ],
      [
        "N",
        "f3"
      ],
      [
        "g",
        "7"
      ],
      [
        " 2",
        "."
      ],
      [
        " 3",
        "."
      ],
      [
        " 4",
        "."
      ],
      [
        " ",
        "5."
      ],
      [
        " ",
        "6."
      ],
      [
        " ",
        "7."
      ],
      [
        " ",
        "8."
      ],
      [
        " ",
        "9."
      ],
      [
        " 1",
        "0."
      ],
      [
        " 1",
        "1."
      ],
      [
        " 1",
        "2."
      ],
      [
        " 1",
        "3."
      ],
      [
        "d",
        "5"
      ],
      [
        " 1",
        "4."
      ],
      [
        " 1",
        "5."
      ],
      [
        " 1",
        "6."
      ],
      [
        " ",
        "h"
      ],
      [
        " 1",
        "7."
      ],
      [
        " 1",
        "8."
      ],
      [
        " 1",
        "9."
      ],
      [
        " 2",
        "0."
      ],
      [
        "xe",
        "5"
      ],
      [
        "b",
        "3"
      ],
      [
        " 2",
        "1."
      ],
      [
        " 2",
        "2."
      ],
      [
        "e",
        "8"
      ],
      [
        " ",
        "O-O"
      ],
      [
        " 2",
        "3."
      ],
      [
        "e",
        "1"
      ],
      [
        "a",
        "4"
      ],
      [
        "N",
        "c3"
      ],
      [
        " 2",
        "4."
      ],
      [
        "b",
        "4"
      ],
      [
        "h",
        "4"
      ],
      [
        " 2",
        "5."
      ],
      [
        "d",
        "1"
      ],
      [
        "c",
        "7"
      ],
      [
        "d",
        "6"
      ],
      [
        "c",
        "5"
      ],
      [
        "d",
        "8"
      ],
      [
        " 2",
        "6."
      ],
      [
        "g",
        "2"
      ],
      [
        "h",
        "3"
      ],
      [
        "xe",
        "4"
      ],
      [
        " 2",
        "7."
      ],
      [
        " 2",
        "8."
      ],
      [
        "c",
        "8"
      ],
      [
        "f",
        "8"
      ],
      [
        "R",
        "a"
      ],
      [
        "f",
        "7"
      ],
      [
        " 2",
        "9."
      ],
      [
        "f",
        "2"
      ],
      [
        "c",
        "2"
      ],
      [
        " 3",
        "0."
      ],
      [
        " R",
        "a"
      ],
      [
        " N",
        "c6"
      ],
      [
        " 3",
        "1."
      ],
      [
        "b",
        "6"
      ],
      [
        " c",
        "5"
      ],
      [
        "c",
        "1"
      ],
      [
        "x",
        "a"
      ],
      [
        "b",
        "5"
      ],
      [
        " 3",
        "2."
      ],
      [
        "f",
        "1"
      ],
      [
        " ",
        "6"
      ],
      [
        "h",
        "5"
      ],
      [
        " 3",
        "3."
      ],
      [
        " d",
        "5"
      ],
      [
        " 3",
        "4."
      ],
      [
        " 3",
        "5."
      ],
      [
        " ",
        "e6"
      ],
      [
        "x",
        "f6"
      ],
      [
        "b",
        "7"
      ],
      [
        " 3",
        "6."
      ],
      [
        " ",
        "e5"
      ],
      [
        " ",
        "g6"
      ],
      [
        "xc",
        "4"
      ],
      [
        "a",
        "3"
      ],
      [
        " 3",
        "7."
      ],
      [
        "b",
        "8"
      ],
      [
        "xc",
        "5"
      ],
      [
        "xc",
        "3"
      ],
      [
        "h",
        "6"
      ],
      [
        " d",
        "6"
      ],
      [
        " 3",
        "8."
      ],
      [
        "b",
        "1"
      ],
      [
        " 3",
        "9."
      ],
      [
        " B",
        "e7"
      ],
      [
        "a",
        "5"
      ],
      [
        "xc",
        "6"
      ],
      [
        "x",
        "f5"
      ],
      [
        "B",
        "e3"
      ],
      [
        " 4",
        "0."
      ],
      [
        " a",
        "6"
      ],
      [
        " ",
        "e"
      ],
      [
        " 4",
        "1."
      ],
      [
        "B",
        "d3"
      ],
      [
        "x",
        "f3"
      ],
      [
        " B",
        "g7"
      ],
      [
        "b",
        "2"
      ],
      [
        "x",
        "f4"
      ],
      [
        " b",
        "5"
      ],
      [
        "g",
        "8"
      ],
      [
        "h",
        "7"
      ],
      [
        " h",
        "6"
      ],
      [
        " 4",
        "2."
      ],
      [
        "xb",
        "5"
      ],
      [
        " ",
        "f5"
      ],
      [
        "xe",
        "6"
      ],
      [
        " 4",
        "3."
      ],
      [
        "h",
        "2"
      ],
      [
        "xd",
        "6"
      ],
      [
        "B",
        "e2"
      ],
      [
        " c",
        "6"
      ],
      [
        " Q",
        "c7"
      ],
      [
        "h",
        "8"
      ],
      [
        "g",
        "1"
      ],
      [
        "R",
        "e1"
      ],
      [
        " 4",
        "4."
      ],
      [
        " a",
        "5"
      ],
      [
        " B",
        "d7"
      ],
      [
        "B",
        "g5"
      ],
      [
        "h",
        "1"
      ],
      [
        " R",
        "e8"
      ],
      [
        " c",
        "xd4"
      ],
      [
        "x",
        "g5"
      ],
      [
        "xb",
        "4"
      ],
      [
        "Q",
        "d2"
      ],
      [
        " b",
        "6"
      ],
      [
        " N",
        "d7"
      ],
      [
        " 4",
        "5."
      ],
      [
        "a",
        "6"
      ],
      [
        " 4",
        "6."
      ],
      [
        "Q",
        "e2"
      ],
      [
        "x",
        "g4"
      ],
      [
        "R",
        "f"
      ],
      [
        "B",
        "g2"
      ],
      [
        " h",
        "5"
      ],
      [
        " 4",
        "7."
      ],
      [
        "N",
        "xd4"
      ],
      [
        " R",
        "c8"
      ],
      [
        " B",
        "e6"
      ],
      [
        " R",
        "f"
      ],
      [
        "xd",
        "3"
      ],
      [
        " B",
        "b7"
      ],
      [
        " N",
        "b"
      ],
      [
        " ",
        "f"
      ],
      [
        " K",
        "g7"
      ],
      [
        "xe",
        "3"
      ],
      [
        "Q",
        "c2"
      ],
      [
        "x",
        "g6"
      ],
      [
        " ",
        "g5"
      ],
      [
        " 4",
        "8."
      ],
      [
        " ",
        "7"
      ],
      [
        " ",
        "f6"
      ],
      [
        "N",
        "d2"
      ],
      [
        " 4",
        "9."
      ],
      [
        " Nb",
        "d7"
      ],
      [
        "xe",
        "7"
      ],
      [
        " Q",
        "e7"
      ],
      [
        "R",
        "c1"
      ],
      [
        " R",
        "x"
      ],
      [
        "R",
        "d1"
      ],
      [
        "K",
        "g2"
      ],
      [
        "B",
        "d2"
      ],
      [
        " ",
        "g"
      ],
      [
        " K",
        "f7"
      ],
      [
        "R",
        "x"
      ],
      [
        "B",
        "f4"
      ],
      [
        "B",
        "c4"
      ],
      [
        "K",
        "f2"
      ],
      [
        " 5",
        "0."
      ],
      [
        "xd",
        "7"
      ],
      [
        " R",
        "d8"
      ],
      [
        " R",
        "b8"
      ],
      [
        "xb",
        "3"
      ],
      [
        " B",
        "d6"
      ],
      [
        " 5",
        "1."
      ],
      [
        " Q",
        "b6"
      ],
      [
        " K",
        "e7"
      ],
      [
        " Q",
        "d7"
      ],
      [
        " K",
        "f8"
      ],
      [
        "c",
        "xd5"
      ],
      [
        " B",
        "g4"
      ],
      [
        "xb",
        "6"
      ],
      [
        "xd",
        "2"
      ],
      [
        "N",
        "e5"
      ],
      [
        " 5",
        "2."
      ],
      [
        "N",
        "e2"
      ],
      [
        "K",
        "h1"
      ],
      [
        "xd",
        "8"
      ],
      [
        " K",
        "h8"
      ],
      [
        "e",
        "xd5"
      ],
      [
        " B",
        "f5"
      ],
      [
        "B",
        "x"
      ],
      [
        " B",
        "x"
      ],
      [
        "B",
        "b5"
      ],
      [
        " 5",
        "3."
      ],
      [
        " N",
        "e7"
      ],
      [
        "K",
        "e2"
      ],
      [
        "R",
        "b1"
      ],
      [
        " N",
        "e5"
      ],
      [
        " B",
        "b4"
      ],
      [
        " N",
        "e4"
      ],
      [
        "N",
        "d5"
      ],
      [
        " N",
        "d5"
      ],
      [
        "xe",
        "2"
      ],
      [
        "N",
        "e4"
      ],
      [
        " 5",
        "4."
      ],
      [
        "K",
        "f1"
      ],
      [
        "Q",
        "d3"
      ],
      [
        "N",
        "b"
      ],
      [
        "K",
        "h2"
      ],
      [
        " Q",
        "a5"
      ],
      [
        "xd",
        "1"
      ],
      [
        " N",
        "c5"
      ],
      [
        "Q",
        "b3"
      ],
      [
        "xb",
        "2"
      ],
      [
        "xb",
        "7"
      ],
      [
        " 5",
        "5."
      ],
      [
        " K",
        "x"
      ],
      [
        " K",
        "h7"
      ],
      [
        " K",
        "f6"
      ],
      [
        "B",
        "b2"
      ],
      [
        "Q",
        "f3"
      ],
      [
        " N",
        "b6"
      ],
      [
        " N",
        "xd5"
      ],
      [
        " B",
        "c5"
      ],
      [
        " e",
        "xd5"
      ],
      [
        "K",
        "e3"
      ],
      [
        " K",
        "g8"
      ],
      [
        "x",
        "g3"
      ],
      [
        "K",
        "f3"
      ],
      [
        " b",
        "4"
      ],
      [
        "Ra",
        "d1"
      ],
      [
        " 5",
        "6."
      ],
      [
        "N",
        "d4"
      ],
      [
        " B",
        "f6"
      ],
      [
        "Q",
        "x"
      ],
      [
        "d",
        "xe5"
      ],
      [
        "xa",
        "5"
      ],
      [
        "Nb",
        "d2"
      ],
      [
        "xa",
        "6"
      ],
      [
        "B",
        "b3"
      ],
      [
        " K",
        "e6"
      ],
      [
        "Q",
        "e3"
      ],
      [
        " 5",
        "7."
      ],
      [
        " K",
        "d7"
      ],
      [
        "N",
        "b3"
      ],
      [
        " N",
        "d4"
      ],
      [
        "K",
        "g1"
      ],
      [
        " R",
        "f8"
      ],
      [
        " Q",
        "x"
      ],
      [
        "a",
        "7"
      ],
      [
        " Q",
        "f6"
      ],
      [
        "B",
        "f3"
      ],
      [
        "N",
        "xe4"
      ],
      [
        "xc",
        "8"
      ],
      [
        "R",
        "d2"
      ],
      [
        "B",
        "xf6"
      ],
      [
        "N",
        "g5"
      ],
      [
        "N",
        "e3"
      ],
      [
        " 5",
        "8."
      ],
      [
        "N",
        "c4"
      ],
      [
        " N",
        "xe5"
      ],
      [
        " B",
        "c6"
      ],
      [
        " B",
        "f8"
      ],
      [
        "R",
        "f1"
      ],
      [
        "N",
        "g3"
      ],
      [
        "K",
        "d2"
      ],
      [
        "O-O",
        "-O"
      ],
      [
        "b",
        "xc3"
      ],
      [
        " d",
        "xe4"
      ],
      [
        " d",
        "xe5"
      ],
      [
        " Q",
        "d8"
      ],
      [
        " e",
        "xd4"
      ],
      [
        " ",
        "e4"
      ],
      [
        " Q",
        "d6"
      ],
      [
        "K",
        "d3"
      ],
      [
        " N",
        "xe4"
      ],
      [
        "K",
        "x"
      ],
      [
        "K",
        "g3"
      ],
      [
        "xc",
        "2"
      ],
      [
        " a",
        "4"
      ],
      [
        " 5",
        "9."
      ],
      [
        "xc",
        "7"
      ],
      [
        "xe",
        "8"
      ],
      [
        " K",
        "g6"
      ],
      [
        " R",
        "d7"
      ],
      [
        " N",
        "g4"
      ],
      [
        " c",
        "4"
      ],
      [
        " N",
        "e6"
      ],
      [
        "N",
        "xe5"
      ],
      [
        " K",
        "d6"
      ],
      [
        " d",
        "xc4"
      ],
      [
        "xc",
        "1"
      ],
      [
        " ",
        "f4"
      ],
      [
        "Rf",
        "d1"
      ],
      [
        "R",
        "e2"
      ],
      [
        "c",
        "xd4"
      ],
      [
        " Ra",
        "d8"
      ],
      [
        " N",
        "g6"
      ],
      [
        " 6",
        "0."
      ],
      [
        " B",
        "xc3"
      ],
      [
        "N",
        "x"
      ],
      [
        "d",
        "xc5"
      ],
      [
        " R",
        "g8"
      ],
      [
        " Ra",
        "c8"
      ],
      [
        "B",
        "c2"
      ],
      [
        "N",
        "d3"
      ],
      [
        " N",
        "h5"
      ],
      [
        "a",
        "2"
      ],
      [
        " B",
        "xf3"
      ],
      [
        " ",
        "d4"
      ],
      [
        " N",
        "f5"
      ],
      [
        "Ra",
        "c1"
      ],
      [
        "xa",
        "3"
      ],
      [
        "Rf",
        "e1"
      ],
      [
        "N",
        "b5"
      ],
      [
        "xe",
        "1"
      ],
      [
        " R",
        "c7"
      ],
      [
        " N",
        "xd4"
      ],
      [
        " R",
        "e7"
      ],
      [
        "N",
        "f4"
      ],
      [
        "N",
        "g"
      ],
      [
        " Ra",
        "8"
      ],
      [
        " N",
        "c4"
      ],
      [
        " c",
        "xd5"
      ],
      [
        " N",
        "g"
      ],
      [
        " h",
        "4"
      ],
      [
        "B",
        "f1"
      ],
      [
        "xa",
        "2"
      ],
      [
        " b",
        "xc6"
      ],
      [
        "Q",
        "g3"
      ],
      [
        "xa",
        "7"
      ],
      [
        " N",
        "x"
      ],
      [
        " N",
        "a5"
      ],
      [
        "a",
        "8"
      ],
      [
        " R",
        "f7"
      ],
      [
        " B",
        "a6"
      ],
      [
        "B",
        "xc4"
      ],
      [
        " Rf",
        "d8"
      ],
      [
        " N",
        "e8"
      ],
      [
        " 6",
        "1."
      ],
      [
        "B",
        "g3"
      ],
      [
        "N",
        "xd5"
      ],
      [
        " ",
        "8"
      ],
      [
        "Q",
        "f2"
      ],
      [
        "Q",
        "g4"
      ],
      [
        " N",
        "b4"
      ],
      [
        "R",
        "e3"
      ],
      [
        "R",
        "c2"
      ],
      [
        "R",
        "g1"
      ],
      [
        "B",
        "d4"
      ],
      [
        " Rf",
        "e8"
      ],
      [
        "B",
        "c3"
      ],
      [
        "R",
        "d3"
      ],
      [
        " Q",
        "c6"
      ],
      [
        "f",
        "xe5"
      ],
      [
        "N",
        "f5"
      ],
      [
        "R",
        "d"
      ],
      [
        "Ra",
        "1"
      ],
      [
        " ",
        "g4"
      ],
      [
        "R",
        "h"
      ],
      [
        " Q",
        "e6"
      ],
      [
        "B",
        "h4"
      ],
      [
        "Q",
        "c3"
      ],
      [
        "R",
        "f2"
      ],
      [
        " 6",
        "2."
      ],
      [
        " N",
        "a6"
      ],
      [
        " N",
        "f4"
      ],
      [
        " N",
        "d6"
      ],
      [
        "B",
        "xc6"
      ],
      [
        " K",
        "e8"
      ],
      [
        " K",
        "c7"
      ],
      [
        " Q",
        "e8"
      ],
      [
        "Q",
        "a4"
      ],
      [
        " B",
        "g6"
      ],
      [
        " Q",
        "c8"
      ],
      [
        "N",
        "xc6"
      ],
      [
        "N",
        "c5"
      ],
      [
        "K",
        "b1"
      ],
      [
        " B",
        "xd5"
      ],
      [
        "B",
        "xe4"
      ],
      [
        " N",
        "c7"
      ],
      [
        "N",
        "a4"
      ],
      [
        " N",
        "f8"
      ],
      [
        " B",
        "c8"
      ],
      [
        "R",
        "f3"
      ],
      [
        "a",
        "1"
      ],
      [
        "B",
        "e4"
      ],
      [
        " a",
        "xb5"
      ],
      [
        "R",
        "e"
      ],
      [
        "Q",
        "xd4"
      ],
      [
        "Q",
        "d4"
      ],
      [
        " B",
        "xe5"
      ],
      [
        " 6",
        "3."
      ],
      [
        "Q",
        "d1"
      ],
      [
        " Q",
        "xd5"
      ],
      [
        "K",
        "c2"
      ],
      [
        "Q",
        "f4"
      ],
      [
        "R",
        "c7"
      ],
      [
        " B",
        "xf6"
      ],
      [
        "Q",
        "e1"
      ],
      [
        " Q",
        "c5"
      ],
      [
        "e",
        "xf5"
      ],
      [
        " N",
        "f"
      ],
      [
        "Q",
        "h5"
      ],
      [
        "B",
        "xd4"
      ],
      [
        " O-O",
        "-O"
      ],
      [
        " N",
        "xc3"
      ],
      [
        " B",
        "d4"
      ],
      [
        " K",
        "e5"
      ],
      [
        "K",
        "e4"
      ],
      [
        " B",
        "e5"
      ],
      [
        "Q",
        "e4"
      ],
      [
        "B",
        "f2"
      ],
      [
        " B",
        "d5"
      ],
      [
        " Q",
        "g5"
      ],
      [
        " Q",
        "f7"
      ],
      [
        "R",
        "d7"
      ],
      [
        "N",
        "h4"
      ],
      [
        " 6",
        "4."
      ],
      [
        "B",
        "xd5"
      ],
      [
        " e",
        "xf4"
      ],
      [
        " f",
        "xe4"
      ],
      [
        " Q",
        "b7"
      ],
      [
        " R",
        "e"
      ],
      [
        " R",
        "d"
      ],
      [
        "N",
        "f1"
      ],
      [
        "xa",
        "8"
      ],
      [
        " K",
        "f5"
      ],
      [
        "K",
        "f4"
      ],
      [
        " K",
        "c6"
      ],
      [
        " R",
        "c2"
      ],
      [
        " R",
        "e6"
      ],
      [
        " Q",
        "g6"
      ],
      [
        "g",
        "x"
      ],
      [
        " B",
        "b6"
      ],
      [
        "N",
        "d6"
      ],
      [
        "K",
        "c3"
      ],
      [
        "a",
        "xb5"
      ],
      [
        " R",
        "h"
      ],
      [
        " g",
        "x"
      ],
      [
        "Q",
        "h4"
      ],
      [
        " Q",
        "e5"
      ],
      [
        " Q",
        "d5"
      ],
      [
        "a",
        "xb4"
      ],
      [
        " g",
        "xf5"
      ],
      [
        "B",
        "h6"
      ],
      [
        "Ra",
        "e1"
      ],
      [
        "B",
        "d5"
      ],
      [
        "Ra",
        "7"
      ],
      [
        " f",
        "xe6"
      ],
      [
        " R",
        "d2"
      ],
      [
        " Q",
        "h4"
      ],
      [
        " 6",
        "5."
      ],
      [
        "K",
        "e1"
      ],
      [
        "Ng",
        "e2"
      ],
      [
        " B",
        "xd4"
      ],
      [
        "K",
        "d4"
      ],
      [
        " g",
        "xf6"
      ],
      [
        "N",
        "c2"
      ],
      [
        "B",
        "c1"
      ],
      [
        " R",
        "f6"
      ],
      [
        " Q",
        "f5"
      ],
      [
        " B",
        "h6"
      ],
      [
        "e",
        "xf6"
      ],
      [
        "N",
        "e1"
      ],
      [
        " K",
        "d8"
      ],
      [
        " B",
        "xe4"
      ],
      [
        "B",
        "xe5"
      ],
      [
        "B",
        "a4"
      ],
      [
        "R",
        "c3"
      ],
      [
        " R",
        "h8"
      ],
      [
        " Ra",
        "7"
      ],
      [
        "N",
        "d"
      ],
      [
        " a",
        "xb4"
      ],
      [
        " R",
        "c"
      ],
      [
        " R",
        "d6"
      ],
      [
        " B",
        "xc5"
      ],
      [
        "R",
        "c"
      ],
      [
        "Q",
        "c1"
      ],
      [
        " Kx",
        "g7"
      ],
      [
        "N",
        "a3"
      ],
      [
        "B",
        "a3"
      ],
      [
        " K",
        "d5"
      ],
      [
        " Ra",
        "2"
      ],
      [
        "Q",
        "c4"
      ],
      [
        "R",
        "b7"
      ],
      [
        " B",
        "g5"
      ],
      [
        " 6",
        "6."
      ],
      [
        "N",
        "xf6"
      ],
      [
        "Bx",
        "g7"
      ],
      [
        " h",
        "xg5"
      ],
      [
        " K",
        "h6"
      ],
      [
        "R",
        "g3"
      ],
      [
        " R",
        "c6"
      ],
      [
        "B",
        "xe7"
      ],
      [
        " B",
        "e8"
      ],
      [
        "xa",
        "1"
      ],
      [
        " N",
        "d3"
      ],
      [
        " R",
        "b2"
      ],
      [
        "R",
        "d6"
      ],
      [
        " Q",
        "b8"
      ],
      [
        "R",
        "d4"
      ],
      [
        " Ra",
        "e8"
      ],
      [
        "R",
        "xd8"
      ],
      [
        " B",
        "e4"
      ],
      [
        "R",
        "h1"
      ],
      [
        " Rf",
        "c8"
      ],
      [
        " B",
        "b5"
      ],
      [
        " B",
        "d8"
      ],
      [
        "B",
        "e5"
      ],
      [
        " R",
        "c4"
      ],
      [
        " R",
        "b7"
      ],
      [
        " Ng",
        "e7"
      ],
      [
        "Q",
        "xd3"
      ],
      [
        "e",
        "xd4"
      ],
      [
        "K",
        "h3"
      ],
      [
        " R",
        "b"
      ],
      [
        " 6",
        "7."
      ],
      [
        "R",
        "e7"
      ],
      [
        " B",
        "h5"
      ],
      [
        " Q",
        "h5"
      ],
      [
        "B",
        "h3"
      ],
      [
        "Q",
        "g5"
      ],
      [
        "h",
        "xg4"
      ],
      [
        "Q",
        "xe4"
      ],
      [
        "N",
        "g4"
      ],
      [
        "R",
        "b3"
      ],
      [
        " K",
        "b8"
      ],
      [
        " B",
        "c7"
      ],
      [
        " Q",
        "b4"
      ],
      [
        "R",
        "b"
      ],
      [
        " h",
        "xg6"
      ],
      [
        "R",
        "d8"
      ],
      [
        " R",
        "xd1"
      ],
      [
        "B",
        "xf4"
      ],
      [
        " K",
        "g5"
      ],
      [
        " R",
        "c5"
      ],
      [
        " Q",
        "xe7"
      ],
      [
        " Q",
        "d4"
      ],
      [
        " B",
        "xf5"
      ],
      [
        " R",
        "d5"
      ],
      [
        "Ra",
        "b1"
      ],
      [
        " Q",
        "xe5"
      ],
      [
        "K",
        "g4"
      ],
      [
        "B",
        "xc5"
      ],
      [
        " Q",
        "xd6"
      ],
      [
        "B",
        "c5"
      ],
      [
        "R",
        "xd5"
      ],
      [
        "Q",
        "xd5"
      ],
      [
        " Ra",
        "3"
      ],
      [
        " Ra",
        "1"
      ],
      [
        " Nf",
        "d7"
      ],
      [
        " R",
        "e2"
      ],
      [
        " 6",
        "8."
      ],
      [
        "Ra",
        "8"
      ],
      [
        " b",
        "xc4"
      ],
      [
        " Q",
        "xf6"
      ],
      [
        "Ra",
        "2"
      ],
      [
        "Q",
        "xf3"
      ],
      [
        " Q",
        "xd4"
      ],
      [
        "g",
        "xf3"
      ],
      [
        "h",
        "xg5"
      ],
      [
        "Ra",
        "3"
      ],
      [
        " R",
        "b6"
      ],
      [
        " h",
        "xg4"
      ],
      [
        "R",
        "c6"
      ],
      [
        " Ra",
        "b8"
      ],
      [
        "K",
        "d1"
      ],
      [
        "N",
        "xe6"
      ],
      [
        "c",
        "xb5"
      ],
      [
        "xb",
        "8"
      ],
      [
        "Q",
        "d5"
      ],
      [
        " R",
        "d4"
      ],
      [
        "R",
        "h3"
      ],
      [
        "N",
        "d1"
      ],
      [
        "Q",
        "b2"
      ],
      [
        " b",
        "xc5"
      ],
      [
        "R",
        "e4"
      ],
      [
        "Ra",
        "6"
      ],
      [
        "Q",
        "e5"
      ],
      [
        " B",
        "xd3"
      ],
      [
        " R",
        "b4"
      ],
      [
        "g",
        "xf4"
      ],
      [
        " R",
        "d3"
      ],
      [
        "N",
        "c6"
      ],
      [
        " B",
        "c4"
      ],
      [
        " R",
        "d1"
      ],
      [
        " R",
        "c3"
      ],
      [
        " Q",
        "e4"
      ],
      [
        "B",
        "xf3"
      ],
      [
        "R",
        "xd4"
      ],
      [
        "a",
        "xb3"
      ],
      [
        "R",
        "c8"
      ],
      [
        "Q",
        "h3"
      ],
      [
        "R",
        "c5"
      ],
      [
        " N",
        "h6"
      ],
      [
        "R",
        "b6"
      ],
      [
        " R",
        "xd8"
      ],
      [
        " N",
        "xf6"
      ],
      [
        "Rf",
        "c1"
      ],
      [
        "R",
        "d5"
      ],
      [
        " R",
        "c1"
      ],
      [
        "B",
        "d1"
      ],
      [
        "B",
        "xe6"
      ],
      [
        " R",
        "g6"
      ],
      [
        "N",
        "c"
      ],
      [
        " 6",
        "9."
      ],
      [
        "B",
        "g4"
      ],
      [
        "N",
        "f2"
      ],
      [
        "R",
        "b2"
      ],
      [
        " R",
        "e5"
      ],
      [
        " N",
        "f7"
      ],
      [
        "R",
        "xe5"
      ],
      [
        "K",
        "c4"
      ],
      [
        "R",
        "c4"
      ],
      [
        " B",
        "f7"
      ],
      [
        " f",
        "xe5"
      ],
      [
        " K",
        "c5"
      ],
      [
        "R",
        "xd6"
      ],
      [
        "g",
        "xf5"
      ],
      [
        " Ra",
        "6"
      ],
      [
        " Q",
        "f4"
      ],
      [
        " N",
        "b8"
      ],
      [
        " e",
        "xf5"
      ],
      [
        " d",
        "3"
      ],
      [
        "R",
        "b8"
      ],
      [
        " R",
        "g7"
      ],
      [
        "x",
        "a4"
      ],
      [
        " N",
        "xc5"
      ],
      [
        "N",
        "e6"
      ],
      [
        "R",
        "e5"
      ],
      [
        " Bx",
        "g2"
      ],
      [
        " R",
        "e4"
      ],
      [
        "xb",
        "1"
      ],
      [
        "f",
        "xe4"
      ],
      [
        " ",
        "e3"
      ],
      [
        " a",
        "3"
      ],
      [
        "N",
        "f6"
      ],
      [
        " R",
        "b3"
      ],
      [
        "B",
        "xf5"
      ],
      [
        "Q",
        "xc4"
      ],
      [
        "b",
        "xc4"
      ],
      [
        " N",
        "g5"
      ],
      [
        " R",
        "a4"
      ],
      [
        "B",
        "d6"
      ],
      [
        " R",
        "f5"
      ],
      [
        " N",
        "xf3"
      ],
      [
        "K",
        "b2"
      ],
      [
        " N",
        "xe3"
      ],
      [
        " R",
        "b1"
      ],
      [
        "R",
        "xd1"
      ],
      [
        "R",
        "f4"
      ],
      [
        "B",
        "xd6"
      ],
      [
        "R",
        "xe4"
      ],
      [
        " Q",
        "b5"
      ],
      [
        " 7",
        "0."
      ],
      [
        "B",
        "b4"
      ],
      [
        " Q",
        "g4"
      ],
      [
        "B",
        "e1"
      ],
      [
        "Kx",
        "g2"
      ],
      [
        "b",
        "xc5"
      ],
      [
        "R",
        "e8"
      ],
      [
        " Q",
        "c4"
      ],
      [
        " R",
        "xb2"
      ],
      [
        "R",
        "xe8"
      ],
      [
        " B",
        "xe3"
      ],
      [
        " R",
        "xd5"
      ],
      [
        " R",
        "e1"
      ],
      [
        "Ra",
        "5"
      ],
      [
        "e",
        "xd6"
      ],
      [
        "R",
        "b5"
      ],
      [
        "Q",
        "b4"
      ],
      [
        " K",
        "b7"
      ],
      [
        " R",
        "xd4"
      ],
      [
        "R",
        "xb7"
      ],
      [
        "f",
        "xe3"
      ],
      [
        "h",
        "xg3"
      ],
      [
        "N",
        "h3"
      ],
      [
        " Q",
        "a6"
      ],
      [
        " Q",
        "xc5"
      ],
      [
        " d",
        "xc5"
      ],
      [
        " N",
        "d"
      ],
      [
        "Q",
        "f5"
      ],
      [
        "R",
        "xc8"
      ],
      [
        " R",
        "xe5"
      ],
      [
        " B",
        "xc6"
      ],
      [
        " B",
        "xc4"
      ],
      [
        "N",
        "xc5"
      ],
      [
        " N",
        "c"
      ],
      [
        "B",
        "b1"
      ],
      [
        " Q",
        "f8"
      ],
      [
        " N",
        "xd3"
      ],
      [
        "R",
        "a4"
      ],
      [
        " Q",
        "g7"
      ],
      [
        " N",
        "e3"
      ],
      [
        "R",
        "xe6"
      ],
      [
        " N",
        "xc4"
      ],
      [
        " Ra",
        "5"
      ],
      [
        " N",
        "d8"
      ],
      [
        "N",
        "xc4"
      ],
      [
        " R",
        "xc3"
      ],
      [
        " R",
        "xc4"
      ],
      [
        "B",
        "xd7"
      ],
      [
        " K",
        "b6"
      ],
      [
        " K",
        "c8"
      ],
      [
        " b",
        "3"
      ],
      [
        " R",
        "xe4"
      ],
      [
        "Q",
        "xe5"
      ],
      [
        " 7",
        "1."
      ],
      [
        "Q",
        "b5"
      ],
      [
        " R",
        "xe1"
      ],
      [
        "h",
        "xg6"
      ],
      [
        "K",
        "b3"
      ],
      [
        "Q",
        "h6"
      ],
      [
        " ",
        "9"
      ],
      [
        "N",
        "xd6"
      ],
      [
        " c",
        "3"
      ],
      [
        "Rx",
        "f7"
      ],
      [
        " g",
        "xf4"
      ],
      [
        "K",
        "c1"
      ],
      [
        "R",
        "g2"
      ],
      [
        "B",
        "f5"
      ],
      [
        " R",
        "xc1"
      ],
      [
        "R",
        "b4"
      ],
      [
        " R",
        "xa2"
      ],
      [
        " K",
        "e4"
      ],
      [
        " B",
        "d3"
      ],
      [
        " N",
        "c3"
      ],
      [
        "Q",
        "xc3"
      ],
      [
        "d",
        "xe6"
      ],
      [
        " B",
        "f4"
      ],
      [
        " ",
        "f3"
      ],
      [
        "Q",
        "c5"
      ],
      [
        "K",
        "e5"
      ],
      [
        "N",
        "xf5"
      ],
      [
        "R",
        "e6"
      ],
      [
        "Q",
        "a3"
      ],
      [
        " R",
        "b5"
      ],
      [
        " N",
        "h7"
      ],
      [
        " a",
        "xb6"
      ],
      [
        " B",
        "xe2"
      ],
      [
        " Q",
        "xb2"
      ],
      [
        " R",
        "f4"
      ],
      [
        " K",
        "f4"
      ],
      [
        "Q",
        "g2"
      ],
      [
        " Q",
        "xd7"
      ],
      [
        "Q",
        "b1"
      ],
      [
        " N",
        "c8"
      ],
      [
        "N",
        "f"
      ],
      [
        " K",
        "d4"
      ],
      [
        "d",
        "xe4"
      ],
      [
        "d",
        "xc6"
      ],
      [
        "R",
        "xa7"
      ],
      [
        "Q",
        "d6"
      ],
      [
        " 7",
        "2."
      ],
      [
        "R",
        "xd7"
      ],
      [
        "N",
        "c1"
      ],
      [
        " B",
        "h3"
      ],
      [
        "N",
        "xd7"
      ],
      [
        "B",
        "xb7"
      ],
      [
        " Q",
        "xe4"
      ],
      [
        "R",
        "xc6"
      ],
      [
        "N",
        "h2"
      ],
      [
        " N",
        "xf4"
      ],
      [
        " B",
        "xf4"
      ],
      [
        "R",
        "f7"
      ],
      [
        " R",
        "e3"
      ],
      [
        " Q",
        "a7"
      ],
      [
        " N",
        "g7"
      ],
      [
        " B",
        "xb2"
      ],
      [
        "B",
        "c6"
      ],
      [
        " Q",
        "h6"
      ],
      [
        " B",
        "xg5"
      ],
      [
        "R",
        "xc5"
      ],
      [
        "R",
        "h8"
      ],
      [
        "K",
        "d5"
      ],
      [
        "Q",
        "xe3"
      ],
      [
        " R",
        "h6"
      ],
      [
        "R",
        "h7"
      ],
      [
        " h",
        "3"
      ],
      [
        "K",
        "f5"
      ],
      [
        " R",
        "xc2"
      ],
      [
        " N",
        "e"
      ],
      [
        " R",
        "f2"
      ],
      [
        " Q",
        "e3"
      ],
      [
        " Ng",
        "f6"
      ],
      [
        " Kx",
        "f7"
      ],
      [
        "Q",
        "e6"
      ],
      [
        "B",
        "xb5"
      ],
      [
        " B",
        "c3"
      ],
      [
        "Q",
        "f6"
      ],
      [
        "R",
        "h4"
      ],
      [
        " f",
        "xg6"
      ],
      [
        "B",
        "b6"
      ],
      [
        "Q",
        "c7"
      ],
      [
        "N",
        "xb5"
      ],
      [
        "Q",
        "xd6"
      ],
      [
        "Q",
        "xd8"
      ],
      [
        " B",
        "xd6"
      ],
      [
        " B",
        "xd2"
      ],
      [
        " c",
        "xb4"
      ],
      [
        " 7",
        "3."
      ],
      [
        "R",
        "xe7"
      ],
      [
        "N",
        "b6"
      ],
      [
        "B",
        "xg5"
      ],
      [
        " Q",
        "a4"
      ],
      [
        " N",
        "b5"
      ],
      [
        " Q",
        "xc3"
      ],
      [
        "Q",
        "xe2"
      ],
      [
        " R",
        "h1"
      ],
      [
        "N",
        "b4"
      ],
      [
        " R",
        "xc8"
      ],
      [
        " N",
        "f3"
      ],
      [
        "Q",
        "xb7"
      ],
      [
        "B",
        "xa6"
      ],
      [
        " N",
        "g8"
      ],
      [
        "Rh",
        "e1"
      ],
      [
        "K",
        "g5"
      ],
      [
        "R",
        "g4"
      ],
      [
        " R",
        "h2"
      ],
      [
        "Q",
        "f1"
      ],
      [
        " R",
        "xd6"
      ],
      [
        "f",
        "xg5"
      ],
      [
        " Rx",
        "f2"
      ],
      [
        " Q",
        "d3"
      ],
      [
        "R",
        "f6"
      ],
      [
        "R",
        "xf6"
      ],
      [
        "K",
        "c5"
      ],
      [
        "R",
        "xf5"
      ],
      [
        "Q",
        "xd2"
      ],
      [
        " Q",
        "c2"
      ],
      [
        "Q",
        "e7"
      ],
      [
        "R",
        "xa6"
      ],
      [
        "B",
        "xc3"
      ],
      [
        "R",
        "f5"
      ],
      [
        " R",
        "xf4"
      ],
      [
        "N",
        "b1"
      ],
      [
        "R",
        "g7"
      ],
      [
        " R",
        "xe3"
      ],
      [
        " B",
        "xb5"
      ],
      [
        " b",
        "xc3"
      ],
      [
        "R",
        "xc7"
      ],
      [
        " Q",
        "d2"
      ],
      [
        " R",
        "xc5"
      ],
      [
        "Q",
        "xe6"
      ],
      [
        " K",
        "g4"
      ],
      [
        " B",
        "xe6"
      ],
      [
        "Q",
        "xf6"
      ],
      [
        "R",
        "xc4"
      ],
      [
        "R",
        "xd3"
      ],
      [
        " f",
        "xg4"
      ],
      [
        "N",
        "h5"
      ],
      [
        "R",
        "xc1"
      ],
      [
        " R",
        "g4"
      ],
      [
        "Q",
        "c6"
      ],
      [
        " N",
        "xb3"
      ],
      [
        "Q",
        "d7"
      ],
      [
        " Q",
        "xc6"
      ],
      [
        "B",
        "e6"
      ],
      [
        " B",
        "e3"
      ],
      [
        " 7",
        "4."
      ],
      [
        "Rx",
        "f8"
      ],
      [
        " R",
        "h5"
      ],
      [
        "Q",
        "xf5"
      ],
      [
        " Q",
        "xc4"
      ],
      [
        " Q",
        "c3"
      ],
      [
        " R",
        "h7"
      ],
      [
        " R",
        "xd2"
      ],
      [
        "B",
        "xg6"
      ],
      [
        "R",
        "xf4"
      ],
      [
        " R",
        "g5"
      ],
      [
        " R",
        "xf3"
      ],
      [
        " B",
        "xg4"
      ],
      [
        "R",
        "h2"
      ],
      [
        "R",
        "1"
      ],
      [
        "Bx",
        "f7"
      ],
      [
        "Q",
        "xc5"
      ],
      [
        "N",
        "e"
      ],
      [
        " B",
        "a5"
      ],
      [
        " R",
        "xd3"
      ],
      [
        " N",
        "a4"
      ],
      [
        " K",
        "c4"
      ],
      [
        "R",
        "g5"
      ],
      [
        "N",
        "xe7"
      ],
      [
        " R",
        "xf6"
      ],
      [
        "N",
        "c7"
      ],
      [
        "R",
        "g8"
      ],
      [
        " R",
        "f1"
      ],
      [
        "R",
        "f8"
      ],
      [
        "N",
        "xg6"
      ],
      [
        "R",
        "xc3"
      ],
      [
        "f",
        "xg6"
      ],
      [
        "N",
        "a5"
      ],
      [
        " Q",
        "xe6"
      ],
      [
        " R",
        "xe8"
      ],
      [
        " Q",
        "e2"
      ],
      [
        " R",
        "xf5"
      ],
      [
        "N",
        "xg5"
      ],
      [
        " R",
        "g2"
      ],
      [
        " Q",
        "xf4"
      ],
      [
        " gx",
        "h5"
      ],
      [
        "R",
        "xd2"
      ],
      [
        " R",
        "f3"
      ],
      [
        " b",
        "xa4"
      ],
      [
        "Q",
        "xf4"
      ],
      [
        " B",
        "h4"
      ],
      [
        " N",
        "xd2"
      ],
      [
        "R",
        "h6"
      ],
      [
        " R",
        "xe6"
      ],
      [
        " d",
        "xc3"
      ],
      [
        " R",
        "g1"
      ],
      [
        " Q",
        "xa2"
      ],
      [
        "Q",
        "xc6"
      ],
      [
        "K",
        "b4"
      ],
      [
        "R",
        "xe1"
      ],
      [
        " e",
        "xf3"
      ],
      [
        " R",
        "xe2"
      ],
      [
        " 7",
        "5."
      ],
      [
        " R",
        "xd7"
      ],
      [
        " ",
        "g3"
      ],
      [
        " R",
        "h4"
      ],
      [
        "B",
        "a2"
      ],
      [
        "R",
        "xe3"
      ],
      [
        "K",
        "h4"
      ],
      [
        "Bx",
        "h6"
      ],
      [
        " Rx",
        "f1"
      ],
      [
        "N",
        "xf4"
      ],
      [
        "Q",
        "a5"
      ],
      [
        "Q",
        "d8"
      ],
      [
        " N",
        "xg3"
      ],
      [
        " c",
        "xd6"
      ],
      [
        "R",
        "xa5"
      ],
      [
        "Re",
        "d1"
      ],
      [
        " B",
        "a4"
      ],
      [
        " R",
        "h3"
      ],
      [
        " K",
        "h5"
      ],
      [
        " Q",
        "xf3"
      ],
      [
        "Ng",
        "f3"
      ],
      [
        " Q",
        "xd2"
      ],
      [
        "Nx",
        "f7"
      ],
      [
        "N",
        "e7"
      ],
      [
        "R",
        "h5"
      ],
      [
        " R",
        "xe7"
      ],
      [
        " R",
        "xb3"
      ],
      [
        " N",
        "xg4"
      ],
      [
        " c",
        "xb5"
      ],
      [
        " R",
        "xc6"
      ],
      [
        "B",
        "f6"
      ],
      [
        "c",
        "xb4"
      ],
      [
        " Q",
        "a3"
      ],
      [
        " K",
        "b5"
      ],
      [
        " Q",
        "h3"
      ],
      [
        " Q",
        "xg5"
      ],
      [
        " Q",
        "e1"
      ],
      [
        "Rx",
        "g7"
      ],
      [
        " Q",
        "a8"
      ],
      [
        "Q",
        "g6"
      ],
      [
        "N",
        "xc3"
      ],
      [
        " Rx",
        "a4"
      ],
      [
        "Qx",
        "h6"
      ],
      [
        " N",
        "h4"
      ],
      [
        " Q",
        "xd1"
      ],
      [
        " Q",
        "d1"
      ],
      [
        "gx",
        "h5"
      ],
      [
        " Q",
        "f3"
      ],
      [
        " Q",
        "b2"
      ],
      [
        " Q",
        "c1"
      ],
      [
        "R",
        "xf3"
      ],
      [
        " R",
        "8"
      ],
      [
        "Q",
        "b7"
      ],
      [
        "Rx",
        "h7"
      ],
      [
        " Rx",
        "g2"
      ],
      [
        " B",
        "xb4"
      ],
      [
        "Q",
        "e8"
      ],
      [
        "Q",
        "xg4"
      ],
      [
        " 7",
        "6."
      ],
      [
        "R",
        "xb6"
      ],
      [
        "Qx",
        "f7"
      ],
      [
        "Kx",
        "f2"
      ],
      [
        " N",
        "b7"
      ],
      [
        "Q",
        "b6"
      ],
      [
        " N",
        "xf5"
      ],
      [
        "B",
        "h5"
      ],
      [
        " N",
        "b3"
      ],
      [
        "Q",
        "xg6"
      ],
      [
        " a",
        "xb3"
      ],
      [
        "Q",
        "xb6"
      ],
      [
        " R",
        "g3"
      ],
      [
        "N",
        "xf3"
      ],
      [
        " N",
        "xd7"
      ],
      [
        " Q",
        "xe3"
      ],
      [
        "Q",
        "c8"
      ],
      [
        "R",
        "g6"
      ],
      [
        "f",
        "xg4"
      ],
      [
        "B",
        "c7"
      ],
      [
        " R",
        "xa3"
      ],
      [
        "Q",
        "xa7"
      ],
      [
        "Q",
        "xg5"
      ],
      [
        " R",
        "xb4"
      ],
      [
        "B",
        "xb6"
      ],
      [
        "B",
        "xg4"
      ],
      [
        "b",
        "xa5"
      ],
      [
        "a",
        "xb6"
      ],
      [
        " N",
        "e2"
      ],
      [
        "B",
        "a5"
      ],
      [
        "R",
        "xb5"
      ],
      [
        "R",
        "xg6"
      ],
      [
        "Q",
        "a2"
      ],
      [
        "N",
        "d7"
      ],
      [
        " Q",
        "xf5"
      ],
      [
        "N",
        "g2"
      ],
      [
        " N",
        "xb4"
      ],
      [
        "c",
        "xd3"
      ],
      [
        " Re",
        "d8"
      ],
      [
        " h",
        "xg3"
      ],
      [
        " Rx",
        "f7"
      ],
      [
        "K",
        "b5"
      ],
      [
        " 7",
        "7."
      ],
      [
        "f",
        "xe6"
      ],
      [
        "B",
        "xb4"
      ],
      [
        " Q",
        "xb3"
      ],
      [
        " Kx",
        "f8"
      ],
      [
        " Bx",
        "f2"
      ],
      [
        " B",
        "b3"
      ],
      [
        "Q",
        "f7"
      ],
      [
        " f",
        "xg3"
      ],
      [
        " f",
        "xg5"
      ],
      [
        "Bx",
        "f8"
      ],
      [
        "Rd",
        "e1"
      ],
      [
        " N",
        "xc6"
      ],
      [
        "R",
        "xe2"
      ],
      [
        " B",
        "f3"
      ],
      [
        "Q",
        "xb5"
      ],
      [
        " Q",
        "xb4"
      ],
      [
        "Q",
        "xe7"
      ],
      [
        " Q",
        "f2"
      ],
      [
        " N",
        "c2"
      ],
      [
        " Bx",
        "h3"
      ],
      [
        " Qx",
        "f2"
      ],
      [
        " Q",
        "b1"
      ],
      [
        "R",
        "xb4"
      ],
      [
        "c",
        "xd6"
      ],
      [
        " gx",
        "h4"
      ],
      [
        " Q",
        "a1"
      ],
      [
        "B",
        "a6"
      ],
      [
        " B",
        "c2"
      ],
      [
        "Rx",
        "a4"
      ],
      [
        "Rc",
        "d1"
      ],
      [
        " Q",
        "g3"
      ],
      [
        "Q",
        "xb4"
      ],
      [
        "R",
        "g"
      ],
      [
        "K",
        "f6"
      ],
      [
        "N",
        "g1"
      ],
      [
        "Q",
        "b8"
      ],
      [
        "N",
        "xb6"
      ],
      [
        " N",
        "d2"
      ],
      [
        " Bx",
        "g3"
      ],
      [
        "B",
        "e7"
      ],
      [
        " B",
        "xb3"
      ],
      [
        " Rx",
        "h2"
      ],
      [
        " Q",
        "b3"
      ],
      [
        " N",
        "xe2"
      ],
      [
        "K",
        "d6"
      ],
      [
        "g",
        "xf6"
      ],
      [
        "Q",
        "xa6"
      ],
      [
        "Q",
        "xd7"
      ],
      [
        "b",
        "xc6"
      ],
      [
        " K",
        "e3"
      ],
      [
        " 7",
        "8."
      ],
      [
        " K",
        "f3"
      ],
      [
        " R",
        "xb5"
      ],
      [
        "Kx",
        "f1"
      ],
      [
        "Qx",
        "h5"
      ],
      [
        "R",
        "xa8"
      ],
      [
        " Q",
        "xb5"
      ],
      [
        "Q",
        "a6"
      ],
      [
        " R",
        "g"
      ],
      [
        "Rx",
        "h5"
      ],
      [
        " K",
        "b4"
      ],
      [
        " K",
        "d3"
      ],
      [
        " d",
        "xc6"
      ],
      [
        " Bx",
        "f1"
      ],
      [
        "f",
        "xg3"
      ],
      [
        "B",
        "xd3"
      ],
      [
        " R",
        "xc7"
      ],
      [
        "N",
        "b2"
      ],
      [
        "Rx",
        "h6"
      ],
      [
        " Q",
        "xc2"
      ],
      [
        " Q",
        "xd3"
      ],
      [
        " Rx",
        "g3"
      ],
      [
        " B",
        "a7"
      ],
      [
        " B",
        "a3"
      ],
      [
        "K",
        "e6"
      ],
      [
        " R",
        "xa5"
      ],
      [
        "K",
        "a2"
      ],
      [
        " Rf",
        "b8"
      ],
      [
        "B",
        "h2"
      ],
      [
        "Q",
        "h8"
      ],
      [
        " K",
        "xe7"
      ],
      [
        "K",
        "c6"
      ],
      [
        " Q",
        "xe2"
      ],
      [
        "gx",
        "h4"
      ],
      [
        " Rc",
        "d8"
      ],
      [
        "Qx",
        "g7"
      ],
      [
        "e",
        "xf4"
      ],
      [
        " K",
        "xf6"
      ],
      [
        " Rx",
        "f8"
      ],
      [
        "N",
        "g6"
      ],
      [
        " K",
        "xd8"
      ],
      [
        "Nd",
        "b5"
      ],
      [
        " N",
        "g3"
      ],
      [
        " Q",
        "xg3"
      ],
      [
        " a",
        "2"
      ],
      [
        " Rh",
        "e8"
      ],
      [
        "b",
        "xa4"
      ],
      [
        " B",
        "b8"
      ],
      [
        " B",
        "e2"
      ],
      [
        " d",
        "2"
      ],
      [
        "Q",
        "h7"
      ],
      [
        "Q",
        "a8"
      ],
      [
        "B",
        "g6"
      ],
      [
        " B",
        "h7"
      ],
      [
        " 7",
        "9."
      ],
      [
        "N",
        "f7"
      ],
      [
        " Q",
        "xg4"
      ],
      [
        " B",
        "d2"
      ],
      [
        " K",
        "g3"
      ],
      [
        " Rx",
        "h4"
      ],
      [
        " R",
        "xb7"
      ],
      [
        " K",
        "c3"
      ],
      [
        "Rx",
        "f2"
      ],
      [
        "R",
        "xc2"
      ],
      [
        "Rx",
        "f1"
      ],
      [
        "Q",
        "a7"
      ],
      [
        "Bx",
        "h7"
      ],
      [
        " B",
        "xd7"
      ],
      [
        "B",
        "d7"
      ],
      [
        " Qx",
        "h4"
      ],
      [
        " c",
        "2"
      ],
      [
        "Nc",
        "e2"
      ],
      [
        " c",
        "xb3"
      ],
      [
        "K",
        "g6"
      ],
      [
        " Nx",
        "f2"
      ],
      [
        "Q",
        "xc7"
      ],
      [
        " b",
        "xa5"
      ],
      [
        " Rx",
        "h3"
      ],
      [
        "K",
        "a1"
      ],
      [
        " B",
        "xa3"
      ],
      [
        "Ra",
        "f1"
      ],
      [
        " Nd",
        "f6"
      ],
      [
        " Ra",
        "f8"
      ],
      [
        "Rh",
        "d1"
      ],
      [
        " N",
        "xe6"
      ],
      [
        " B",
        "a8"
      ],
      [
        " Q",
        "xb6"
      ],
      [
        "d",
        "xc4"
      ],
      [
        " R",
        "xa1"
      ],
      [
        " e",
        "xf6"
      ],
      [
        " 1",
        "0"
      ],
      [
        "N",
        "a2"
      ],
      [
        " K",
        "a7"
      ],
      [
        " Qx",
        "a4"
      ],
      [
        " N",
        "xg5"
      ],
      [
        " N",
        "xd6"
      ],
      [
        " Bx",
        "a4"
      ],
      [
        "Q",
        "xa5"
      ],
      [
        "R",
        "xg5"
      ],
      [
        "Q",
        "a1"
      ],
      [
        " R",
        "xa8"
      ],
      [
        "Qx",
        "h7"
      ],
      [
        " N",
        "xe7"
      ],
      [
        " b",
        "2"
      ],
      [
        "N",
        "xb7"
      ],
      [
        " 8",
        "0."
      ],
      [
        "K",
        "xd2"
      ],
      [
        " K",
        "xd7"
      ],
      [
        " Rd",
        "e8"
      ],
      [
        "c",
        "xb6"
      ],
      [
        "K",
        "b6"
      ],
      [
        " R",
        "xg4"
      ],
      [
        "Rf",
        "b1"
      ],
      [
        "N",
        "xd2"
      ],
      [
        "R",
        "xa1"
      ],
      [
        " Q",
        "h1"
      ],
      [
        " B",
        "b2"
      ],
      [
        "B",
        "xd2"
      ],
      [
        " N",
        "xb2"
      ],
      [
        " Q",
        "xb7"
      ],
      [
        "R",
        "xb2"
      ],
      [
        "B",
        "xe3"
      ],
      [
        "B",
        "b7"
      ],
      [
        " N",
        "a7"
      ],
      [
        " Qx",
        "h3"
      ],
      [
        " ",
        "e2"
      ],
      [
        " Bx",
        "h4"
      ],
      [
        " N",
        "f2"
      ],
      [
        "K",
        "xf3"
      ],
      [
        "B",
        "xa7"
      ],
      [
        " Q",
        "xa3"
      ],
      [
        " Nb",
        "c6"
      ],
      [
        "Q",
        "f8"
      ],
      [
        " Q",
        "a2"
      ],
      [
        " R",
        "xa6"
      ],
      [
        " Q",
        "f1"
      ],
      [
        " R",
        "xb6"
      ],
      [
        " Kx",
        "h7"
      ],
      [
        " Bx",
        "h6"
      ],
      [
        " B",
        "g3"
      ],
      [
        " B",
        "f2"
      ],
      [
        " Q",
        "xd8"
      ],
      [
        " Nx",
        "a4"
      ],
      [
        "N",
        "xb4"
      ],
      [
        " N",
        "xb5"
      ],
      [
        " B",
        "xc2"
      ],
      [
        "Q",
        "h2"
      ],
      [
        " R",
        "xg5"
      ],
      [
        "N",
        "xg4"
      ],
      [
        " 8",
        "1."
      ],
      [
        " K",
        "a8"
      ],
      [
        "N",
        "xc7"
      ],
      [
        "K",
        "xe2"
      ],
      [
        "N",
        "1"
      ],
      [
        " N",
        "xb6"
      ],
      [
        " K",
        "b3"
      ],
      [
        "Nd",
        "f3"
      ],
      [
        "B",
        "f7"
      ],
      [
        "B",
        "g1"
      ],
      [
        " g",
        "xf3"
      ],
      [
        "Bx",
        "h5"
      ],
      [
        " Qx",
        "g2"
      ],
      [
        "Q",
        "g7"
      ],
      [
        " K",
        "h4"
      ],
      [
        "K",
        "h5"
      ],
      [
        "Rh",
        "g1"
      ],
      [
        " Rb",
        "c8"
      ],
      [
        " Q",
        "xc7"
      ],
      [
        "N",
        "xa5"
      ],
      [
        " Rh",
        "d8"
      ],
      [
        " R",
        "xb8"
      ],
      [
        "N",
        "xc8"
      ],
      [
        "N",
        "h6"
      ],
      [
        "b",
        "xa6"
      ],
      [
        "Q",
        "xc2"
      ],
      [
        " B",
        "xa2"
      ],
      [
        " gx",
        "h6"
      ],
      [
        "R",
        "xb8"
      ],
      [
        "Nx",
        "g7"
      ],
      [
        "R",
        "xg4"
      ],
      [
        "Rh",
        "f1"
      ],
      [
        " Re",
        "c8"
      ],
      [
        " Q",
        "xc8"
      ],
      [
        "B",
        "xc7"
      ],
      [
        "N",
        "xe2"
      ],
      [
        " N",
        "xc2"
      ],
      [
        " K",
        "xe6"
      ],
      [
        "K",
        "a3"
      ],
      [
        "N",
        "xe3"
      ],
      [
        " 8",
        "2."
      ],
      [
        "Q",
        "g8"
      ],
      [
        " R",
        "xb1"
      ],
      [
        "Q",
        "xb3"
      ],
      [
        " Q",
        "xa5"
      ],
      [
        " Q",
        "h2"
      ],
      [
        " Nx",
        "h5"
      ],
      [
        "R",
        "xb1"
      ],
      [
        "B",
        "xa5"
      ],
      [
        "R",
        "xb3"
      ],
      [
        "Q",
        "xb2"
      ],
      [
        "Nx",
        "a4"
      ],
      [
        " h",
        "2"
      ],
      [
        " Q",
        "g1"
      ],
      [
        "R",
        "xa3"
      ],
      [
        "Rb",
        "c1"
      ],
      [
        " Q",
        "xe8"
      ],
      [
        "Rb",
        "d1"
      ],
      [
        "Q",
        "xd1"
      ],
      [
        " Rb",
        "d8"
      ],
      [
        " K",
        "a6"
      ],
      [
        "B",
        "xd8"
      ],
      [
        "K",
        "xe3"
      ],
      [
        " b",
        "xa3"
      ],
      [
        "B",
        "xc8"
      ],
      [
        "Nf",
        "d2"
      ],
      [
        " N",
        "h"
      ],
      [
        " d",
        "xe3"
      ],
      [
        "c",
        "xb3"
      ],
      [
        " R",
        "xa7"
      ],
      [
        "Nd",
        "e2"
      ],
      [
        " ",
        "f2"
      ],
      [
        "b",
        "xa3"
      ],
      [
        "Re",
        "c1"
      ],
      [
        "K",
        "xd1"
      ],
      [
        " e",
        "xd6"
      ],
      [
        " 8",
        "3."
      ],
      [
        " c",
        "xd3"
      ],
      [
        " Rh",
        "g8"
      ],
      [
        "gx",
        "h6"
      ],
      [
        " Rx",
        "h5"
      ],
      [
        "x",
        "f7"
      ],
      [
        "x",
        "g7"
      ],
      [
        " K",
        "xg6"
      ],
      [
        " Q",
        "h7"
      ],
      [
        "Qx",
        "a4"
      ],
      [
        "Rd",
        "c1"
      ],
      [
        "gx",
        "h3"
      ],
      [
        " Q",
        "g8"
      ],
      [
        " Bx",
        "h2"
      ],
      [
        "B",
        "e8"
      ],
      [
        "K",
        "xg3"
      ],
      [
        "N",
        "xd3"
      ],
      [
        " e",
        "xd3"
      ],
      [
        "Q",
        "g1"
      ],
      [
        " Rd",
        "c8"
      ],
      [
        " B",
        "e1"
      ],
      [
        "Rx",
        "h4"
      ],
      [
        " Q",
        "g2"
      ],
      [
        " Qx",
        "f7"
      ],
      [
        " Nc",
        "e7"
      ],
      [
        " B",
        "c1"
      ],
      [
        "Nx",
        "h5"
      ],
      [
        " B",
        "xc1"
      ],
      [
        "B",
        "xe2"
      ],
      [
        " 8",
        "4."
      ],
      [
        " Qx",
        "h2"
      ],
      [
        "Q",
        "xe1"
      ],
      [
        "K",
        "xf4"
      ],
      [
        "Q",
        "xc1"
      ],
      [
        " K",
        "xe5"
      ],
      [
        " B",
        "xd8"
      ],
      [
        "B",
        "d8"
      ],
      [
        " N",
        "h3"
      ],
      [
        " N",
        "8"
      ],
      [
        "Nx",
        "f8"
      ],
      [
        "N",
        "xa7"
      ],
      [
        " K",
        "xg5"
      ],
      [
        " B",
        "xe7"
      ],
      [
        " K",
        "xd6"
      ],
      [
        "N",
        "xb3"
      ],
      [
        "K",
        "a4"
      ],
      [
        "B",
        "a1"
      ],
      [
        "B",
        "c8"
      ],
      [
        " Rh",
        "f8"
      ],
      [
        " b",
        "xa6"
      ],
      [
        " N",
        "a"
      ],
      [
        " B",
        "h8"
      ],
      [
        " N",
        "7"
      ],
      [
        " B",
        "xc8"
      ],
      [
        "Kx",
        "h2"
      ],
      [
        " K",
        "xf5"
      ],
      [
        "K",
        "xe4"
      ],
      [
        "Rd",
        "g1"
      ],
      [
        " Nb",
        "d5"
      ],
      [
        " B",
        "xa6"
      ],
      [
        " ",
        "g2"
      ],
      [
        " Nx",
        "g2"
      ],
      [
        " B",
        "d1"
      ],
      [
        "B",
        "xa8"
      ],
      [
        " 8",
        "5."
      ],
      [
        " B",
        "xd1"
      ],
      [
        " N",
        "xa6"
      ],
      [
        "Rd",
        "f1"
      ],
      [
        "N",
        "b7"
      ],
      [
        "Nx",
        "h4"
      ],
      [
        "Nx",
        "h6"
      ],
      [
        "R",
        "xa2"
      ],
      [
        "K",
        "xg4"
      ],
      [
        " N",
        "b2"
      ],
      [
        "Qx",
        "f2"
      ],
      [
        " B",
        "f1"
      ],
      [
        " K",
        "a5"
      ],
      [
        "K",
        "xd3"
      ],
      [
        " Rc",
        "e8"
      ],
      [
        " B",
        "g8"
      ],
      [
        "K",
        "c7"
      ],
      [
        " f",
        "xe3"
      ],
      [
        " Rx",
        "g7"
      ],
      [
        "Rc",
        "e1"
      ],
      [
        " N",
        "xa2"
      ],
      [
        "Q",
        "xe8"
      ],
      [
        " Nx",
        "h4"
      ],
      [
        "Nb",
        "c3"
      ],
      [
        "e",
        "xf7"
      ],
      [
        " N",
        "xa5"
      ],
      [
        "B",
        "xd1"
      ],
      [
        " Kx",
        "h6"
      ],
      [
        "B",
        "g7"
      ],
      [
        " 8",
        "6."
      ],
      [
        "K",
        "e7"
      ],
      [
        "N",
        "xa6"
      ],
      [
        " Qx",
        "f8"
      ],
      [
        " B",
        "g2"
      ],
      [
        "K",
        "h6"
      ],
      [
        " K",
        "f2"
      ],
      [
        "K",
        "f7"
      ],
      [
        "B",
        "f8"
      ],
      [
        "Qx",
        "h4"
      ],
      [
        "Nx",
        "h7"
      ],
      [
        " B",
        "xa1"
      ],
      [
        "N",
        "h"
      ],
      [
        "Q",
        "xc8"
      ],
      [
        "Rx",
        "h8"
      ],
      [
        "B",
        "h7"
      ],
      [
        " K",
        "e2"
      ],
      [
        "N",
        "xa8"
      ],
      [
        "Bx",
        "a4"
      ],
      [
        "K",
        "d7"
      ],
      [
        " K",
        "c2"
      ],
      [
        " R",
        "xg6"
      ],
      [
        " N",
        "xg6"
      ],
      [
        " Nx",
        "h3"
      ],
      [
        " Q",
        "xe1"
      ],
      [
        "K",
        "g7"
      ],
      [
        "K",
        "b7"
      ],
      [
        " K",
        "xe8"
      ],
      [
        " K",
        "h3"
      ],
      [
        " K",
        "d2"
      ],
      [
        " 8",
        "7."
      ],
      [
        " Q",
        "xa8"
      ],
      [
        " Qx",
        "g7"
      ],
      [
        "K",
        "a5"
      ],
      [
        " N",
        "6"
      ],
      [
        " K",
        "g2"
      ],
      [
        " gx",
        "h3"
      ],
      [
        " K",
        "xd5"
      ],
      [
        " Qx",
        "h5"
      ],
      [
        " Rb",
        "e8"
      ],
      [
        "N",
        "a"
      ],
      [
        "N",
        "2"
      ],
      [
        " N",
        "xc1"
      ],
      [
        " Nx",
        "f1"
      ],
      [
        "Rb",
        "e1"
      ],
      [
        "R",
        "5"
      ],
      [
        "N",
        "xd8"
      ],
      [
        " Rd",
        "f8"
      ],
      [
        "B",
        "xc1"
      ],
      [
        " B",
        "b1"
      ],
      [
        "Rx",
        "g3"
      ],
      [
        " Rx",
        "h6"
      ],
      [
        " Q",
        "xg6"
      ],
      [
        "N",
        "e8"
      ],
      [
        "N",
        "xe8"
      ],
      [
        " c",
        "xb6"
      ],
      [
        " N",
        "a3"
      ],
      [
        " Rd",
        "g8"
      ],
      [
        "Q",
        "xa8"
      ],
      [
        " Rh",
        "c8"
      ],
      [
        "f",
        "xg7"
      ],
      [
        "Rx",
        "g8"
      ],
      [
        " K",
        "b2"
      ],
      [
        " N",
        "xa3"
      ],
      [
        "B",
        "a7"
      ],
      [
        " Bx",
        "f8"
      ],
      [
        "B",
        "xe8"
      ],
      [
        "x",
        "g2"
      ],
      [
        "Q",
        "xg3"
      ],
      [
        "K",
        "xd4"
      ],
      [
        "Rd",
        "d1"
      ],
      [
        "R",
        "3"
      ],
      [
        " N",
        "xd1"
      ],
      [
        " Q",
        "xc1"
      ],
      [
        " 8",
        "8."
      ],
      [
        "R",
        "4"
      ],
      [
        " N",
        "xd8"
      ],
      [
        " Rx",
        "h1"
      ],
      [
        "Nb",
        "d4"
      ],
      [
        " 1",
        "1"
      ],
      [
        "B",
        "b8"
      ],
      [
        " B",
        "g1"
      ],
      [
        "Kx",
        "h3"
      ],
      [
        "Qx",
        "f8"
      ],
      [
        "K",
        "xf5"
      ],
      [
        " R",
        "4"
      ],
      [
        "K",
        "xe1"
      ],
      [
        " K",
        "a4"
      ],
      [
        "B",
        "xb8"
      ],
      [
        "N",
        "xd1"
      ],
      [
        "R",
        "6"
      ],
      [
        "Rx",
        "g2"
      ],
      [
        " K",
        "xf4"
      ],
      [
        "Qx",
        "f1"
      ],
      [
        "N",
        "xg3"
      ],
      [
        "N",
        "d8"
      ],
      [
        " K",
        "xc7"
      ],
      [
        " Q",
        "h8"
      ],
      [
        "B",
        "g8"
      ],
      [
        "Qx",
        "g2"
      ],
      [
        " 8",
        "9."
      ],
      [
        "Rx",
        "h3"
      ],
      [
        "B",
        "xb3"
      ],
      [
        "K",
        "xc2"
      ],
      [
        "Re",
        "e1"
      ],
      [
        "K",
        "xc3"
      ],
      [
        "Bx",
        "h3"
      ],
      [
        " Rx",
        "g1"
      ],
      [
        "N",
        "a6"
      ],
      [
        " B",
        "xa5"
      ],
      [
        "Q",
        "xa1"
      ],
      [
        " Ne",
        "c6"
      ],
      [
        "Bx",
        "h4"
      ],
      [
        " B",
        "xe1"
      ],
      [
        " K",
        "xc6"
      ],
      [
        "K",
        "xc4"
      ],
      [
        " Kx",
        "h5"
      ],
      [
        " Rc",
        "c8"
      ],
      [
        "N",
        "c8"
      ],
      [
        " Ne",
        "d7"
      ],
      [
        " B",
        "h2"
      ],
      [
        "Kx",
        "h5"
      ],
      [
        " Nf",
        "d5"
      ],
      [
        "Kx",
        "h4"
      ],
      [
        " R",
        "5"
      ],
      [
        " Kx",
        "h4"
      ],
      [
        " Nd",
        "e5"
      ],
      [
        " N",
        "a8"
      ],
      [
        " Nh",
        "f6"
      ],
      [
        "Nc",
        "e4"
      ],
      [
        " Kx",
        "g8"
      ],
      [
        "Rh",
        "c1"
      ],
      [
        " N",
        "e1"
      ],
      [
        "x",
        "f2"
      ],
      [
        " 9",
        "0."
      ],
      [
        "K",
        "a6"
      ],
      [
        " Q",
        "xa1"
      ],
      [
        " Q",
        "xa6"
      ],
      [
        " R",
        "6"
      ],
      [
        " Nx",
        "g7"
      ],
      [
        " K",
        "xc5"
      ],
      [
        "K",
        "xg5"
      ],
      [
        "Ng",
        "e4"
      ],
      [
        " Ng",
        "e5"
      ],
      [
        "e",
        "xf3"
      ],
      [
        " K",
        "xg4"
      ],
      [
        " Re",
        "e8"
      ],
      [
        "N",
        "3"
      ],
      [
        "Q",
        "h1"
      ],
      [
        " B",
        "xb6"
      ],
      [
        " B",
        "xb1"
      ],
      [
        " a",
        "1"
      ],
      [
        " Rd",
        "d8"
      ],
      [
        "B",
        "xc2"
      ],
      [
        " N",
        "xe1"
      ],
      [
        "B",
        "h1"
      ],
      [
        "Rf",
        "a1"
      ],
      [
        "K",
        "xb2"
      ],
      [
        " Nx",
        "h2"
      ],
      [
        " B",
        "xa8"
      ],
      [
        " N",
        "xe8"
      ],
      [
        "R",
        "7"
      ],
      [
        " B",
        "xe8"
      ],
      [
        "Bx",
        "f1"
      ],
      [
        "d",
        "xc3"
      ],
      [
        " N",
        "d1"
      ],
      [
        " Qx",
        "f1"
      ],
      [
        " K",
        "a3"
      ],
      [
        " N",
        "xc7"
      ],
      [
        " Bx",
        "h5"
      ],
      [
        "N",
        "a7"
      ],
      [
        " K",
        "xb7"
      ],
      [
        " 9",
        "1."
      ],
      [
        " N8",
        "d7"
      ],
      [
        " Rx",
        "h7"
      ],
      [
        " Re",
        "b8"
      ],
      [
        "K",
        "xe5"
      ],
      [
        " Ra",
        "g8"
      ],
      [
        " N",
        "c1"
      ],
      [
        " B",
        "xb7"
      ],
      [
        " N",
        "5"
      ],
      [
        "Nf",
        "d4"
      ],
      [
        "Re",
        "b1"
      ],
      [
        " b",
        "1"
      ],
      [
        "Nd",
        "e4"
      ],
      [
        " B",
        "a2"
      ],
      [
        " Rf",
        "a8"
      ],
      [
        "N",
        "g7"
      ],
      [
        "Q",
        "xb8"
      ],
      [
        " Qx",
        "h6"
      ],
      [
        "Nx",
        "g2"
      ],
      [
        " N",
        "xa1"
      ],
      [
        " R",
        "2"
      ],
      [
        " B",
        "xc7"
      ],
      [
        "K",
        "xb4"
      ],
      [
        " 9",
        "2."
      ],
      [
        "Bx",
        "g3"
      ],
      [
        " R",
        "3"
      ],
      [
        " Ra",
        "a8"
      ],
      [
        " Nc",
        "d7"
      ],
      [
        " K",
        "xe4"
      ],
      [
        "Rx",
        "h1"
      ],
      [
        "Kx",
        "g1"
      ],
      [
        "B",
        "xe1"
      ],
      [
        " Rx",
        "h8"
      ],
      [
        " Rx",
        "g8"
      ],
      [
        " Q",
        "xb8"
      ],
      [
        "N",
        "xa3"
      ],
      [
        "Rc",
        "c1"
      ],
      [
        " Nx",
        "h6"
      ],
      [
        " c",
        "1"
      ],
      [
        "K",
        "xd5"
      ],
      [
        "N",
        "5"
      ],
      [
        "B",
        "xb2"
      ],
      [
        "gx",
        "f7"
      ],
      [
        "Ne",
        "c3"
      ],
      [
        " B",
        "xg6"
      ],
      [
        " c",
        "xb2"
      ],
      [
        "Ra",
        "g1"
      ],
      [
        " K",
        "xb5"
      ],
      [
        " Nc",
        "e5"
      ],
      [
        "N",
        "xe1"
      ],
      [
        " N",
        "xb7"
      ],
      [
        " 9",
        "3."
      ],
      [
        " K",
        "xc4"
      ],
      [
        "Re",
        "f1"
      ],
      [
        "R1",
        "d2"
      ],
      [
        " N",
        "dxe5"
      ],
      [
        "Re",
        "d2"
      ],
      [
        " Ng",
        "xe5"
      ],
      [
        " N",
        "g2"
      ],
      [
        " N7",
        "f6"
      ],
      [
        " N",
        "xc8"
      ],
      [
        "K",
        "xc5"
      ],
      [
        "N",
        "h7"
      ],
      [
        "Q",
        "xa3"
      ],
      [
        "Nb",
        "xd4"
      ],
      [
        " Rf",
        "f8"
      ],
      [
        " Bx",
        "g7"
      ],
      [
        "B",
        "xa3"
      ],
      [
        " d",
        "1"
      ],
      [
        " Ne",
        "f6"
      ],
      [
        "Nb",
        "xd2"
      ],
      [
        "N",
        "f8"
      ],
      [
        "Ra",
        "a1"
      ],
      [
        "N",
        "xc2"
      ],
      [
        "d",
        "xe7"
      ],
      [
        "Nf",
        "e5"
      ],
      [
        "N",
        "xc1"
      ],
      [
        "Rf",
        "f1"
      ],
      [
        " 9",
        "4."
      ],
      [
        " f",
        "xg2"
      ],
      [
        " K",
        "xd4"
      ],
      [
        " Re",
        "f8"
      ],
      [
        " N6",
        "d7"
      ],
      [
        "R",
        "8"
      ],
      [
        "Qx",
        "h3"
      ],
      [
        "Qx",
        "h8"
      ],
      [
        " N",
        "f1"
      ],
      [
        " Q",
        "xb1"
      ],
      [
        "N",
        "xb2"
      ],
      [
        "N",
        "h1"
      ],
      [
        "Nc",
        "d5"
      ],
      [
        " N",
        "h8"
      ],
      [
        " e",
        "xf2"
      ],
      [
        " Nc",
        "e4"
      ],
      [
        "Rx",
        "g1"
      ],
      [
        " Rb",
        "b8"
      ],
      [
        " K",
        "xb6"
      ],
      [
        " Nf",
        "e4"
      ],
      [
        " K",
        "xb4"
      ],
      [
        "K",
        "xb5"
      ],
      [
        " N",
        "a2"
      ],
      [
        " K",
        "h2"
      ],
      [
        "N1",
        "c3"
      ],
      [
        " Nx",
        "f7"
      ],
      [
        "Nc",
        "e3"
      ],
      [
        "Rx",
        "h2"
      ],
      [
        " h",
        "1"
      ],
      [
        "K",
        "h7"
      ],
      [
        " 9",
        "5."
      ],
      [
        " Rc",
        "b8"
      ],
      [
        " Bx",
        "f7"
      ],
      [
        " ",
        "e1"
      ],
      [
        "K",
        "xa5"
      ],
      [
        "Q",
        "xb1"
      ],
      [
        " R",
        "1"
      ],
      [
        "K",
        "xb3"
      ],
      [
        "K",
        "xg6"
      ],
      [
        " Nb",
        "xd5"
      ],
      [
        "Ne",
        "d4"
      ],
      [
        " Nx",
        "f8"
      ],
      [
        "Ne",
        "g5"
      ],
      [
        "h",
        "xg7"
      ],
      [
        " ",
        "f1"
      ],
      [
        " Kx",
        "h8"
      ],
      [
        "Rd",
        "h1"
      ],
      [
        " Kx",
        "a4"
      ],
      [
        "c",
        "xb7"
      ],
      [
        " Rc",
        "f8"
      ],
      [
        " Nf",
        "xd5"
      ],
      [
        " 9",
        "6."
      ],
      [
        " Q",
        "xa7"
      ],
      [
        "Bx",
        "f2"
      ],
      [
        " Kx",
        "g3"
      ],
      [
        "Rd",
        "e2"
      ],
      [
        "N",
        "a1"
      ],
      [
        "K",
        "a7"
      ],
      [
        "B",
        "xa1"
      ],
      [
        "Kx",
        "h6"
      ],
      [
        "N",
        "4"
      ],
      [
        " Kx",
        "h3"
      ],
      [
        "Rc",
        "d2"
      ],
      [
        " Rd",
        "b8"
      ],
      [
        "Rd",
        "b1"
      ],
      [
        " ",
        "g1"
      ],
      [
        " Nd",
        "c5"
      ],
      [
        " Ra",
        "xc8"
      ],
      [
        "Nx",
        "h8"
      ],
      [
        " 9",
        "7."
      ],
      [
        " 1",
        "2"
      ],
      [
        "Rb",
        "b1"
      ],
      [
        "gx",
        "h7"
      ],
      [
        "Rc",
        "f1"
      ],
      [
        "N",
        "xb8"
      ],
      [
        " K",
        "xc8"
      ],
      [
        " K",
        "a2"
      ],
      [
        "Nx",
        "h3"
      ],
      [
        " K",
        "xf3"
      ],
      [
        " Nc",
        "xe5"
      ],
      [
        "e",
        "xd3"
      ],
      [
        "Rd",
        "d7"
      ],
      [
        "Nd",
        "xe4"
      ],
      [
        "N2",
        "f3"
      ],
      [
        "e",
        "xd7"
      ],
      [
        "d",
        "xc7"
      ],
      [
        " Rb",
        "f8"
      ],
      [
        "Kx",
        "a4"
      ],
      [
        "Re",
        "a1"
      ],
      [
        "K",
        "xf6"
      ],
      [
        " K",
        "g1"
      ],
      [
        "Nc",
        "e5"
      ],
      [
        " 9",
        "8."
      ],
      [
        "Rc",
        "b1"
      ],
      [
        "Rd",
        "d2"
      ],
      [
        " K",
        "xa5"
      ],
      [
        "K",
        "xc1"
      ],
      [
        "R1",
        "e2"
      ],
      [
        " Re",
        "d7"
      ],
      [
        "Q",
        "xa2"
      ],
      [
        " N",
        "4"
      ],
      [
        "Nx",
        "f2"
      ],
      [
        "N",
        "b8"
      ],
      [
        "K",
        "g8"
      ],
      [
        " a",
        "xb2"
      ],
      [
        " R8",
        "d7"
      ],
      [
        " d",
        "xe6"
      ],
      [
        "Nx",
        "f1"
      ],
      [
        " Rc",
        "d7"
      ],
      [
        "Rb",
        "f1"
      ],
      [
        " Rf",
        "xd8"
      ],
      [
        " h",
        "xg2"
      ],
      [
        "Re",
        "e2"
      ],
      [
        "Rd",
        "c2"
      ],
      [
        "Ra",
        "xd1"
      ],
      [
        " K",
        "f1"
      ],
      [
        " N",
        "h2"
      ],
      [
        "K",
        "b8"
      ],
      [
        " Rh",
        "b8"
      ],
      [
        "K",
        "f8"
      ],
      [
        " 9",
        "9."
      ],
      [
        "Rh",
        "b1"
      ],
      [
        " Ne",
        "g4"
      ],
      [
        "Bx",
        "g8"
      ],
      [
        "R",
        "2"
      ],
      [
        "K",
        "c8"
      ],
      [
        "N1",
        "d2"
      ],
      [
        " Re",
        "e7"
      ],
      [
        "Kx",
        "h1"
      ],
      [
        "K",
        "xa6"
      ],
      [
        "Rc",
        "c7"
      ],
      [
        "N1",
        "h2"
      ],
      [
        " K",
        "e1"
      ],
      [
        "Nf",
        "g5"
      ],
      [
        "Qx",
        "g8"
      ],
      [
        " Qx",
        "h1"
      ],
      [
        "Nh",
        "f3"
      ],
      [
        "K",
        "xe6"
      ],
      [
        " K",
        "b1"
      ],
      [
        "f",
        "xe7"
      ],
      [
        "K",
        "e8"
      ],
      [
        " K",
        "xb3"
      ],
      [
        "Rf",
        "e2"
      ],
      [
        " Nx",
        "h7"
      ],
      [
        " Ra",
        "xd8"
      ],
      [
        " Bx",
        "h8"
      ],
      [
        " 10",
        "0."
      ],
      [
        "Ne",
        "d2"
      ],
      [
        " Rd",
        "e7"
      ],
      [
        " K",
        "c1"
      ],
      [
        "Rf",
        "d2"
      ],
      [
        " N",
        "xb8"
      ],
      [
        "Bx",
        "h8"
      ],
      [
        " Nb",
        "xd7"
      ],
      [
        " Rd",
        "d7"
      ],
      [
        "K",
        "d8"
      ],
      [
        " Rf",
        "e7"
      ],
      [
        "K",
        "xb6"
      ],
      [
        " Rd",
        "d2"
      ],
      [
        "K",
        "xa3"
      ],
      [
        " Ne",
        "d5"
      ],
      [
        " Rc",
        "c7"
      ],
      [
        " K",
        "d1"
      ],
      [
        " Rd",
        "c7"
      ],
      [
        " K",
        "xa3"
      ],
      [
        " N7",
        "b6"
      ],
      [
        " N",
        "xb1"
      ],
      [
        "Bx",
        "g2"
      ],
      [
        "Rg",
        "e1"
      ],
      [
        " Re",
        "a8"
      ],
      [
        " N",
        "b1"
      ],
      [
        " Nd",
        "e7"
      ],
      [
        " K",
        "xc3"
      ],
      [
        " R8",
        "c7"
      ],
      [
        "Ra",
        "xc1"
      ],
      [
        "Nf",
        "xd4"
      ],
      [
        "Nc",
        "b5"
      ],
      [
        " R",
        "7"
      ],
      [
        "Re",
        "e7"
      ],
      [
        "Rf",
        "xd1"
      ],
      [
        " Bx",
        "h1"
      ],
      [
        " 10",
        "1."
      ],
      [
        " Rg",
        "f8"
      ],
      [
        " K",
        "xa6"
      ],
      [
        " Rd",
        "h8"
      ],
      [
        "Nd",
        "c4"
      ],
      [
        " R8",
        "e7"
      ],
      [
        " Rc",
        "c2"
      ],
      [
        " Nf",
        "g4"
      ],
      [
        "Ne",
        "d5"
      ],
      [
        " Rf",
        "f7"
      ],
      [
        " Qx",
        "g1"
      ],
      [
        "a",
        "xb7"
      ],
      [
        " Rg",
        "e8"
      ],
      [
        " gx",
        "f2"
      ],
      [
        "Re",
        "d3"
      ],
      [
        "Nc",
        "xe4"
      ],
      [
        "Rg",
        "f1"
      ],
      [
        " N5",
        "f6"
      ],
      [
        "K",
        "xc6"
      ],
      [
        "R1",
        "c2"
      ],
      [
        "Rc",
        "c2"
      ],
      [
        "K",
        "xa2"
      ],
      [
        " Qx",
        "h7"
      ],
      [
        "Nc",
        "d2"
      ],
      [
        "N",
        "g8"
      ],
      [
        "Ra",
        "h1"
      ],
      [
        " Nf",
        "xe4"
      ],
      [
        "Rf",
        "f2"
      ],
      [
        " 10",
        "2."
      ],
      [
        "Ne",
        "f3"
      ],
      [
        "N",
        "exd4"
      ],
      [
        "N1",
        "e2"
      ],
      [
        " gx",
        "h2"
      ],
      [
        " Bx",
        "g1"
      ],
      [
        " Nd",
        "b4"
      ],
      [
        " Ra",
        "h8"
      ],
      [
        "N",
        "xb1"
      ],
      [
        " Nf",
        "e8"
      ],
      [
        " Nx",
        "h1"
      ],
      [
        " Na",
        "c5"
      ],
      [
        " Re",
        "e2"
      ],
      [
        "N",
        "xa2"
      ],
      [
        "Rg",
        "d1"
      ],
      [
        " Nc",
        "d4"
      ],
      [
        " N",
        "xa7"
      ],
      [
        "Re",
        "e3"
      ],
      [
        " K",
        "xa7"
      ],
      [
        " Rg",
        "d8"
      ],
      [
        " 10",
        "3."
      ],
      [
        " d",
        "xc2"
      ],
      [
        "Re",
        "c2"
      ],
      [
        " Nh",
        "f4"
      ],
      [
        "R1",
        "f2"
      ],
      [
        "K",
        "xd6"
      ],
      [
        " b",
        "xc2"
      ],
      [
        "R3",
        "d2"
      ],
      [
        "B",
        "xb1"
      ],
      [
        " N",
        "xa8"
      ],
      [
        "c",
        "xd7"
      ],
      [
        " B",
        "xa7"
      ],
      [
        " Rc",
        "e7"
      ],
      [
        "Kx",
        "h7"
      ],
      [
        "Nh",
        "f5"
      ],
      [
        " Nd",
        "c6"
      ],
      [
        "Re",
        "f2"
      ],
      [
        " Nf",
        "e7"
      ],
      [
        " Re",
        "c7"
      ],
      [
        " Rh",
        "h8"
      ],
      [
        " d",
        "xe2"
      ],
      [
        " K",
        "xe3"
      ],
      [
        " Nd",
        "f8"
      ],
      [
        " R8",
        "f7"
      ],
      [
        "Ng",
        "xe4"
      ],
      [
        "Rh",
        "h1"
      ],
      [
        "Rd",
        "d3"
      ],
      [
        " Na",
        "c7"
      ],
      [
        "Rd",
        "a1"
      ],
      [
        " 10",
        "4."
      ],
      [
        " Re",
        "f7"
      ],
      [
        "N5",
        "c3"
      ],
      [
        " c",
        "xd2"
      ],
      [
        " Nc",
        "xe4"
      ],
      [
        " B",
        "a1"
      ],
      [
        " Rc",
        "a8"
      ],
      [
        "Nx",
        "g8"
      ],
      [
        "Rc",
        "e2"
      ],
      [
        "B",
        "xa2"
      ],
      [
        "Nf",
        "d5"
      ],
      [
        " Rc",
        "g8"
      ],
      [
        " Rf",
        "d7"
      ],
      [
        "x",
        "f8"
      ],
      [
        " K",
        "xa2"
      ],
      [
        "Kx",
        "f7"
      ],
      [
        "Rd",
        "f2"
      ],
      [
        " Kx",
        "h2"
      ],
      [
        " Na",
        "c4"
      ],
      [
        "Qx",
        "h2"
      ],
      [
        " b",
        "xa2"
      ],
      [
        " Rf",
        "g8"
      ],
      [
        " 10",
        "5."
      ],
      [
        "Rf",
        "e3"
      ],
      [
        " N",
        "exd5"
      ],
      [
        " 1",
        "3"
      ],
      [
        " Rg",
        "g8"
      ],
      [
        " K",
        "h1"
      ],
      [
        " Qx",
        "h8"
      ],
      [
        " N",
        "g1"
      ],
      [
        " Na",
        "c6"
      ],
      [
        " Nb",
        "c4"
      ],
      [
        "K",
        "xa7"
      ],
      [
        "Rb",
        "b7"
      ],
      [
        "Rd",
        "e3"
      ],
      [
        " Ne",
        "f5"
      ],
      [
        " B",
        "xb8"
      ],
      [
        " Kx",
        "g2"
      ],
      [
        " K",
        "xb2"
      ],
      [
        "b",
        "xc7"
      ],
      [
        "K",
        "h8"
      ],
      [
        "Nx",
        "h2"
      ],
      [
        "Bx",
        "h1"
      ],
      [
        " Kx",
        "f2"
      ],
      [
        "B",
        "a8"
      ],
      [
        " 10",
        "6."
      ],
      [
        "K",
        "a8"
      ],
      [
        "Nf",
        "e2"
      ],
      [
        " Rb",
        "a8"
      ],
      [
        "Nd",
        "xb5"
      ],
      [
        "N2",
        "b3"
      ],
      [
        "K",
        "xb7"
      ],
      [
        " K",
        "a1"
      ],
      [
        "x",
        "f1"
      ],
      [
        "Rf",
        "g1"
      ],
      [
        " B",
        "h1"
      ],
      [
        "Rc",
        "g1"
      ],
      [
        " Rd",
        "a8"
      ],
      [
        "Na",
        "c3"
      ],
      [
        " Rb",
        "c7"
      ],
      [
        "Rc",
        "a1"
      ],
      [
        "Rf",
        "d3"
      ],
      [
        "R3",
        "e2"
      ],
      [
        "Qx",
        "h1"
      ],
      [
        " Ra",
        "b7"
      ],
      [
        " Rb",
        "b7"
      ],
      [
        " Nc",
        "b4"
      ],
      [
        "R1",
        "d3"
      ],
      [
        " Nc",
        "e8"
      ],
      [
        " Nc",
        "e6"
      ],
      [
        " 10",
        "7."
      ],
      [
        "Kx",
        "g7"
      ],
      [
        " Rg",
        "c8"
      ],
      [
        "Ra",
        "a7"
      ],
      [
        "Rc",
        "d3"
      ],
      [
        "N3",
        "d2"
      ],
      [
        "N1",
        "f3"
      ],
      [
        " Rb",
        "b2"
      ],
      [
        " Nc",
        "d5"
      ],
      [
        " N5",
        "b6"
      ],
      [
        " N8",
        "e7"
      ],
      [
        " Qx",
        "g8"
      ],
      [
        "Ne",
        "f4"
      ],
      [
        " Ra",
        "c7"
      ],
      [
        "Rg",
        "g1"
      ],
      [
        "Nd",
        "f1"
      ],
      [
        "Rf",
        "f3"
      ],
      [
        "N",
        "fxe5"
      ],
      [
        " N",
        "cxd4"
      ],
      [
        "Rb",
        "a1"
      ],
      [
        " Re",
        "g8"
      ],
      [
        "Nd",
        "c3"
      ],
      [
        " Ra",
        "a7"
      ],
      [
        "N2",
        "c3"
      ],
      [
        " Rd",
        "f7"
      ],
      [
        " f",
        "xe2"
      ],
      [
        " 10",
        "8."
      ],
      [
        "Re",
        "g1"
      ],
      [
        "b",
        "xa7"
      ],
      [
        " e",
        "xd2"
      ],
      [
        "B",
        "h8"
      ],
      [
        " Ra",
        "a2"
      ],
      [
        "Rf",
        "c2"
      ],
      [
        " K",
        "xd3"
      ],
      [
        " K",
        "xb8"
      ],
      [
        " Nx",
        "g1"
      ],
      [
        "R4",
        "d2"
      ],
      [
        " Ne",
        "c5"
      ],
      [
        "N",
        "xa1"
      ],
      [
        " Rb",
        "g8"
      ],
      [
        " Nf",
        "d4"
      ],
      [
        "N4",
        "f3"
      ],
      [
        " 10",
        "9."
      ],
      [
        " Nf",
        "e6"
      ],
      [
        " Ne",
        "d4"
      ],
      [
        " Rb",
        "d7"
      ],
      [
        " Rf",
        "c7"
      ],
      [
        "K",
        "xb1"
      ],
      [
        "R1",
        "e3"
      ],
      [
        "N",
        "cxd5"
      ],
      [
        " Rf",
        "xc8"
      ],
      [
        "Rb",
        "c2"
      ],
      [
        "Nc",
        "xe5"
      ],
      [
        " Rc",
        "b7"
      ],
      [
        " Ra",
        "e7"
      ],
      [
        "N2",
        "g3"
      ],
      [
        " R6",
        "e7"
      ],
      [
        "Ng",
        "f5"
      ],
      [
        " N8",
        "h7"
      ],
      [
        "Na",
        "c4"
      ],
      [
        " R6",
        "d7"
      ],
      [
        "Na",
        "c5"
      ],
      [
        " Nd",
        "b6"
      ],
      [
        "Qx",
        "g1"
      ],
      [
        "Rb",
        "b2"
      ],
      [
        " N7",
        "c6"
      ],
      [
        " 11",
        "0."
      ],
      [
        " Nd",
        "b8"
      ],
      [
        "Nc",
        "d4"
      ],
      [
        "Nd",
        "e3"
      ],
      [
        "Nd",
        "e5"
      ],
      [
        "Rg",
        "f3"
      ],
      [
        "Nf",
        "e3"
      ],
      [
        "Rb",
        "g1"
      ],
      [
        "Rf",
        "f7"
      ],
      [
        "Rb",
        "d2"
      ],
      [
        " Nc",
        "b6"
      ],
      [
        " Re",
        "e6"
      ],
      [
        " Rf",
        "e6"
      ],
      [
        " R8",
        "b7"
      ],
      [
        "Ne",
        "c4"
      ],
      [
        "R3",
        "f2"
      ],
      [
        " Re",
        "d6"
      ],
      [
        " Nh",
        "f8"
      ],
      [
        " 11",
        "1."
      ],
      [
        " Rf",
        "f2"
      ],
      [
        " Nf",
        "xd4"
      ],
      [
        "Rg",
        "c1"
      ],
      [
        "Nd",
        "f5"
      ],
      [
        "Re",
        "f3"
      ],
      [
        "Nb",
        "c5"
      ],
      [
        " Nx",
        "g8"
      ],
      [
        " Ra",
        "d7"
      ],
      [
        " Rh",
        "a8"
      ],
      [
        "Ra",
        "b2"
      ],
      [
        " Nb",
        "a6"
      ],
      [
        " K",
        "xc2"
      ],
      [
        "Rc",
        "c3"
      ],
      [
        "N3",
        "h2"
      ],
      [
        " Ra",
        "f7"
      ],
      [
        "Rh",
        "a1"
      ],
      [
        "Ra",
        "c2"
      ],
      [
        "R1",
        "b2"
      ],
      [
        "Rd",
        "c3"
      ],
      [
        " Rd",
        "d6"
      ],
      [
        "K",
        "xc7"
      ],
      [
        "N5",
        "f3"
      ],
      [
        " 11",
        "2."
      ],
      [
        " Rc",
        "f7"
      ],
      [
        " Bx",
        "h7"
      ],
      [
        "Rc",
        "b2"
      ],
      [
        " Ne",
        "g6"
      ],
      [
        " N",
        "dxc5"
      ],
      [
        " Ng",
        "f4"
      ],
      [
        "Ne",
        "d3"
      ],
      [
        "Ra",
        "e2"
      ],
      [
        " Ne",
        "g8"
      ],
      [
        "Nc",
        "d1"
      ],
      [
        "Rc",
        "e3"
      ],
      [
        "R3",
        "c2"
      ],
      [
        "Ne",
        "f5"
      ],
      [
        " N",
        "cxd5"
      ],
      [
        " R6",
        "f7"
      ],
      [
        "Rd",
        "f3"
      ],
      [
        "R6",
        "d2"
      ],
      [
        " Rc",
        "d6"
      ],
      [
        "R1",
        "a2"
      ],
      [
        "Rf",
        "xf7"
      ],
      [
        " R6",
        "c7"
      ],
      [
        "Ra",
        "d2"
      ],
      [
        "Nf",
        "d3"
      ],
      [
        "Re",
        "c3"
      ],
      [
        " Ne",
        "c7"
      ],
      [
        "Ra",
        "a2"
      ],
      [
        "N",
        "a8"
      ],
      [
        "N",
        "7"
      ],
      [
        "Ng",
        "xe2"
      ],
      [
        "Rh",
        "f3"
      ],
      [
        "Nc",
        "d3"
      ],
      [
        " 11",
        "3."
      ],
      [
        "Rb",
        "c3"
      ],
      [
        "Na",
        "c2"
      ],
      [
        " Rf",
        "f6"
      ],
      [
        " Nc",
        "d3"
      ],
      [
        " Rg",
        "h8"
      ],
      [
        " Ne",
        "d6"
      ],
      [
        " Nf",
        "g6"
      ],
      [
        " Rg",
        "f7"
      ],
      [
        " 1",
        "4"
      ],
      [
        " Ne",
        "d3"
      ],
      [
        " Nc",
        "xe7"
      ],
      [
        "Rg",
        "h1"
      ],
      [
        "Nc",
        "b4"
      ],
      [
        "Rc",
        "f2"
      ],
      [
        "R4",
        "d3"
      ],
      [
        "Rg",
        "e3"
      ],
      [
        " Rc",
        "h8"
      ],
      [
        "Nh",
        "f1"
      ],
      [
        " Nd",
        "e4"
      ],
      [
        "Nd",
        "b1"
      ],
      [
        "N4",
        "b3"
      ],
      [
        "Rd",
        "d6"
      ],
      [
        "R1",
        "c3"
      ],
      [
        "Rc",
        "h1"
      ],
      [
        " Rd",
        "e6"
      ],
      [
        " Rb",
        "xc8"
      ],
      [
        " Ne",
        "c4"
      ],
      [
        " R8",
        "e6"
      ],
      [
        " R5",
        "d7"
      ],
      [
        "Nx",
        "g1"
      ],
      [
        " 11",
        "4."
      ],
      [
        " Rd",
        "b7"
      ],
      [
        "R4",
        "e2"
      ],
      [
        "Nb",
        "d5"
      ],
      [
        "d",
        "xe3"
      ],
      [
        " R8",
        "d6"
      ],
      [
        "Bx",
        "h2"
      ],
      [
        " R8",
        "c6"
      ],
      [
        " N4",
        "d5"
      ],
      [
        " Ng",
        "e6"
      ],
      [
        " Rb",
        "c6"
      ],
      [
        " Rb",
        "e7"
      ],
      [
        " Rc",
        "c6"
      ],
      [
        " Ng",
        "xe7"
      ],
      [
        " Rf",
        "g7"
      ],
      [
        "Nd",
        "xc4"
      ],
      [
        "Ng",
        "e3"
      ],
      [
        " N7",
        "g6"
      ],
      [
        "e",
        "xf8"
      ],
      [
        "Ne",
        "g3"
      ],
      [
        "Nf",
        "e1"
      ],
      [
        "R5",
        "d2"
      ],
      [
        " Nc",
        "b8"
      ],
      [
        " N",
        "a1"
      ],
      [
        "Rd",
        "b2"
      ],
      [
        " Rg",
        "g7"
      ],
      [
        " R8",
        "g7"
      ],
      [
        "Nf",
        "xd5"
      ],
      [
        "N",
        "h8"
      ],
      [
        "Rg",
        "f2"
      ],
      [
        "Re",
        "h1"
      ],
      [
        " Nd",
        "f4"
      ],
      [
        "R1",
        "g2"
      ],
      [
        "Rh",
        "g3"
      ],
      [
        "R4",
        "f2"
      ],
      [
        "Ng",
        "f1"
      ],
      [
        "N",
        "cxb5"
      ],
      [
        "Rd",
        "d8"
      ],
      [
        " Ra",
        "b6"
      ],
      [
        " N8",
        "c6"
      ],
      [
        " 11",
        "5."
      ],
      [
        " Ne",
        "f4"
      ],
      [
        "Nc",
        "e1"
      ],
      [
        "Nf",
        "e4"
      ],
      [
        "R1",
        "d4"
      ],
      [
        " Ng",
        "f8"
      ],
      [
        "Nd",
        "b3"
      ],
      [
        " Nd",
        "e6"
      ],
      [
        "R1",
        "d6"
      ],
      [
        "R5",
        "e2"
      ],
      [
        " Nc",
        "d6"
      ],
      [
        " R8",
        "a7"
      ],
      [
        " K",
        "xa8"
      ],
      [
        " R4",
        "c7"
      ],
      [
        "Rb",
        "d3"
      ],
      [
        "Rf",
        "g2"
      ],
      [
        "R5",
        "e3"
      ],
      [
        " Rg",
        "f6"
      ],
      [
        "Ra",
        "b3"
      ],
      [
        "Nd",
        "f4"
      ],
      [
        " N5",
        "c6"
      ],
      [
        " Rf",
        "xe8"
      ],
      [
        "R1",
        "f3"
      ],
      [
        " Nb",
        "d3"
      ],
      [
        "Na",
        "b5"
      ],
      [
        " N",
        "2"
      ],
      [
        "Bx",
        "g1"
      ],
      [
        " Rb",
        "f7"
      ],
      [
        "Ra",
        "f2"
      ],
      [
        "Rb",
        "e2"
      ],
      [
        " R5",
        "e7"
      ],
      [
        "Ne",
        "d6"
      ],
      [
        " 11",
        "6."
      ],
      [
        " Rf",
        "xf2"
      ],
      [
        " Rf",
        "d6"
      ],
      [
        " Nf",
        "xd7"
      ],
      [
        " N6",
        "h7"
      ],
      [
        " Rh",
        "g7"
      ],
      [
        " Rb",
        "a7"
      ],
      [
        " Rg",
        "b8"
      ],
      [
        "N3",
        "h4"
      ],
      [
        " Re",
        "h8"
      ],
      [
        "Nc",
        "b1"
      ],
      [
        "Rf",
        "h1"
      ],
      [
        "K",
        "xa1"
      ],
      [
        " Nx",
        "h8"
      ],
      [
        "Rh",
        "d3"
      ],
      [
        "Rh",
        "g2"
      ],
      [
        " R5",
        "f7"
      ],
      [
        "R4",
        "e3"
      ],
      [
        " Rc",
        "a7"
      ],
      [
        " Re",
        "xd8"
      ],
      [
        "Re",
        "d4"
      ],
      [
        "Rf",
        "xc1"
      ],
      [
        "R5",
        "d3"
      ],
      [
        "Nc",
        "d6"
      ],
      [
        "Ne",
        "c5"
      ],
      [
        " Re",
        "b7"
      ],
      [
        "Rg",
        "d3"
      ],
      [
        "Rf",
        "g3"
      ],
      [
        "Rg",
        "g2"
      ],
      [
        " 11",
        "7."
      ],
      [
        " N6",
        "h5"
      ],
      [
        "Rb",
        "h1"
      ],
      [
        "Rd",
        "d4"
      ],
      [
        "Nd",
        "c5"
      ],
      [
        " N6",
        "d5"
      ],
      [
        "Re",
        "b2"
      ],
      [
        "Rh",
        "x"
      ],
      [
        " R8",
        "f6"
      ],
      [
        " R5",
        "c7"
      ],
      [
        " Ra",
        "xb8"
      ],
      [
        " N",
        "3"
      ],
      [
        "N",
        "cxd4"
      ],
      [
        " Rd",
        "c6"
      ],
      [
        "R",
        "gx"
      ],
      [
        " Rb",
        "h8"
      ],
      [
        " Rf",
        "b7"
      ],
      [
        "Nh",
        "g4"
      ],
      [
        "Rf",
        "xe1"
      ],
      [
        " Bx",
        "g8"
      ],
      [
        "Rc",
        "c6"
      ],
      [
        "N",
        "6"
      ],
      [
        " Ra",
        "c6"
      ],
      [
        "N3",
        "d4"
      ],
      [
        "Rc",
        "c8"
      ],
      [
        "Nb",
        "d6"
      ],
      [
        "Ra",
        "c3"
      ],
      [
        " Rf",
        "h8"
      ],
      [
        " 11",
        "8."
      ],
      [
        " Na",
        "b4"
      ],
      [
        " Rd",
        "d1"
      ],
      [
        " R",
        "gx"
      ],
      [
        " N",
        "h1"
      ],
      [
        " R4",
        "c6"
      ],
      [
        "Nx",
        "h1"
      ],
      [
        "Rb",
        "b3"
      ],
      [
        "Rd",
        "h2"
      ],
      [
        "Ng",
        "e5"
      ],
      [
        "Nh",
        "f4"
      ],
      [
        "Rh",
        "d2"
      ],
      [
        " Nd",
        "f5"
      ],
      [
        " K",
        "xe2"
      ],
      [
        "Rg",
        "b1"
      ],
      [
        "R4",
        "f3"
      ],
      [
        " Nb",
        "c5"
      ],
      [
        "Rh",
        "e3"
      ],
      [
        "R5",
        "c2"
      ],
      [
        "x",
        "g8"
      ],
      [
        " Na",
        "b6"
      ],
      [
        "Re",
        "xd1"
      ],
      [
        " Re",
        "f6"
      ],
      [
        " Nd",
        "xf6"
      ],
      [
        " Nf",
        "g8"
      ],
      [
        "Nf",
        "g3"
      ],
      [
        "Re",
        "e8"
      ],
      [
        "Rg",
        "g7"
      ],
      [
        "Nf",
        "xd2"
      ],
      [
        "Rb",
        "a2"
      ],
      [
        "Rf",
        "b2"
      ],
      [
        " Nf",
        "e5"
      ],
      [
        " 11",
        "9."
      ],
      [
        " Rh",
        "g6"
      ],
      [
        " Rc",
        "c1"
      ],
      [
        " Nh",
        "f5"
      ],
      [
        "N5",
        "d4"
      ],
      [
        " Nf",
        "d6"
      ],
      [
        "Nc",
        "b3"
      ],
      [
        "Re",
        "e4"
      ],
      [
        " Ne",
        "c8"
      ],
      [
        "d",
        "xe8"
      ],
      [
        " Re",
        "e1"
      ],
      [
        " Rc",
        "c4"
      ],
      [
        " Re",
        "c6"
      ],
      [
        " Rc",
        "e6"
      ],
      [
        "K",
        "xe7"
      ],
      [
        "Rh",
        "g7"
      ],
      [
        "N3",
        "e4"
      ],
      [
        "N5",
        "e4"
      ],
      [
        "Re",
        "e6"
      ],
      [
        " Ng",
        "e4"
      ],
      [
        "Rd",
        "g2"
      ],
      [
        " R5",
        "d6"
      ],
      [
        " Nb",
        "c8"
      ],
      [
        "Nb",
        "d3"
      ],
      [
        " Rc",
        "c3"
      ],
      [
        " Rb",
        "b6"
      ],
      [
        "Ra",
        "a8"
      ],
      [
        "R8",
        "d7"
      ],
      [
        "Ne",
        "c1"
      ],
      [
        " Rg",
        "e7"
      ],
      [
        " Rb",
        "d6"
      ],
      [
        "Rh",
        "xf1"
      ],
      [
        "Rb",
        "f2"
      ],
      [
        "Ne",
        "g1"
      ],
      [
        "Na",
        "b1"
      ],
      [
        " Rd",
        "d3"
      ],
      [
        "R6",
        "d3"
      ],
      [
        " Rh",
        "x"
      ],
      [
        "Rd",
        "e4"
      ],
      [
        " 12",
        "0."
      ],
      [
        "Rc",
        "a2"
      ],
      [
        " Nd",
        "c4"
      ],
      [
        " R4",
        "e7"
      ],
      [
        " Rf",
        "g6"
      ],
      [
        " Ra",
        "xe8"
      ],
      [
        " Rd",
        "d5"
      ],
      [
        "Nb",
        "c4"
      ],
      [
        " Na",
        "b8"
      ],
      [
        "R6",
        "d4"
      ],
      [
        "Rc",
        "b3"
      ],
      [
        "Rb",
        "b8"
      ],
      [
        "R5",
        "c3"
      ],
      [
        "R1",
        "d5"
      ],
      [
        " Rc",
        "c5"
      ],
      [
        " R8",
        "c3"
      ],
      [
        " Rh",
        "g2"
      ],
      [
        "R1",
        "c6"
      ],
      [
        " R8",
        "d3"
      ],
      [
        " Rc",
        "b6"
      ],
      [
        "R4",
        "c2"
      ],
      [
        " Rh",
        "f6"
      ],
      [
        " R6",
        "b7"
      ],
      [
        "Na",
        "b6"
      ],
      [
        "gx",
        "f8"
      ],
      [
        "K",
        "xd7"
      ],
      [
        "Re",
        "g2"
      ],
      [
        "Nd",
        "f2"
      ],
      [
        "Nb",
        "c1"
      ],
      [
        " R8",
        "d5"
      ],
      [
        "Nb",
        "c7"
      ],
      [
        "Rg",
        "e2"
      ],
      [
        "Ne",
        "c2"
      ],
      [
        " Rg",
        "e6"
      ],
      [
        "Rb",
        "xc1"
      ],
      [
        "Rf",
        "e4"
      ],
      [
        "N4",
        "c3"
      ],
      [
        " K",
        "xd2"
      ],
      [
        "Rc",
        "d4"
      ],
      [
        " Rg",
        "g2"
      ],
      [
        "Nb",
        "a3"
      ],
      [
        "Ne",
        "xg5"
      ],
      [
        " R5",
        "f6"
      ],
      [
        " 1",
        "5"
      ],
      [
        "Nf",
        "xg5"
      ],
      [
        "R7",
        "d6"
      ],
      [
        "Nh",
        "g5"
      ],
      [
        "d",
        "xc8"
      ],
      [
        " 12",
        "1."
      ],
      [
        " Nf",
        "xg4"
      ],
      [
        " Re",
        "g7"
      ],
      [
        " R8",
        "c5"
      ],
      [
        "Rh",
        "h7"
      ],
      [
        " R4",
        "e6"
      ],
      [
        " R8",
        "d4"
      ],
      [
        " R4",
        "c5"
      ],
      [
        "Ra",
        "d3"
      ],
      [
        " Nb",
        "d4"
      ],
      [
        " Re",
        "e3"
      ],
      [
        "N3",
        "e2"
      ],
      [
        "Nb",
        "xd6"
      ],
      [
        " Rd",
        "f6"
      ],
      [
        "Ra",
        "a3"
      ],
      [
        " R5",
        "e6"
      ],
      [
        "Rg",
        "d2"
      ],
      [
        "R1",
        "e6"
      ],
      [
        "Rh",
        "h2"
      ],
      [
        "Ra",
        "b7"
      ],
      [
        "Nf",
        "d1"
      ],
      [
        "Re",
        "g3"
      ],
      [
        "Rg",
        "g3"
      ],
      [
        "Nh",
        "f2"
      ],
      [
        " Rb",
        "a6"
      ],
      [
        "Rg",
        "h3"
      ],
      [
        "e",
        "xd8"
      ],
      [
        " Nh",
        "f7"
      ],
      [
        " Ra",
        "a1"
      ],
      [
        "Ra",
        "e3"
      ],
      [
        " Rh",
        "h7"
      ],
      [
        "R1",
        "h2"
      ],
      [
        " Nb",
        "d6"
      ],
      [
        " N4",
        "c6"
      ],
      [
        "R1",
        "e4"
      ],
      [
        "Rd",
        "d5"
      ],
      [
        " R4",
        "d7"
      ],
      [
        " Rd",
        "a7"
      ],
      [
        "Re",
        "a2"
      ],
      [
        " Re",
        "a7"
      ],
      [
        " R1",
        "d2"
      ],
      [
        "Rf",
        "d4"
      ],
      [
        "R6",
        "d5"
      ],
      [
        "R1",
        "d7"
      ],
      [
        "K",
        "xc8"
      ],
      [
        " 12",
        "2."
      ],
      [
        " Re",
        "e5"
      ],
      [
        "Rd",
        "a2"
      ],
      [
        "Rd",
        "xd3"
      ],
      [
        "Nc",
        "xe2"
      ],
      [
        " R8",
        "c4"
      ],
      [
        " Rg",
        "h7"
      ],
      [
        "R3",
        "b2"
      ],
      [
        "Rd",
        "b3"
      ],
      [
        "Rh",
        "f2"
      ],
      [
        " Nc",
        "d8"
      ],
      [
        " Rd",
        "xd6"
      ],
      [
        " Ra",
        "b2"
      ],
      [
        "Rc",
        "c5"
      ],
      [
        "Rb",
        "a3"
      ],
      [
        " Rd",
        "xd7"
      ],
      [
        " Rc",
        "d5"
      ],
      [
        "Ng",
        "xf7"
      ],
      [
        " Rb",
        "b1"
      ],
      [
        "R5",
        "d4"
      ],
      [
        " Ne",
        "xg4"
      ],
      [
        "Rc",
        "c4"
      ],
      [
        " R8",
        "b6"
      ],
      [
        " R4",
        "f7"
      ],
      [
        "Rf",
        "c3"
      ],
      [
        "R1",
        "c4"
      ],
      [
        "Rd",
        "xd4"
      ],
      [
        "R1",
        "b3"
      ],
      [
        "R5",
        "f3"
      ],
      [
        "R1",
        "a3"
      ],
      [
        " e",
        "xf1"
      ],
      [
        "Rb",
        "e3"
      ],
      [
        "R5",
        "f2"
      ],
      [
        "R1",
        "a6"
      ],
      [
        "Nd",
        "e6"
      ],
      [
        " 12",
        "3."
      ],
      [
        "Rb",
        "b6"
      ],
      [
        " N6",
        "e7"
      ],
      [
        "Ra",
        "xe1"
      ],
      [
        " R5",
        "c6"
      ],
      [
        "x",
        "h5"
      ],
      [
        "K",
        "xb8"
      ],
      [
        "f",
        "xe8"
      ],
      [
        " R8",
        "e5"
      ],
      [
        "Rd",
        "c4"
      ],
      [
        " Rf",
        "e5"
      ],
      [
        " R4",
        "f6"
      ],
      [
        " N8",
        "c7"
      ],
      [
        " N5",
        "g6"
      ],
      [
        "Re",
        "xe6"
      ],
      [
        "R5",
        "e4"
      ],
      [
        " Re",
        "d5"
      ],
      [
        "Na",
        "c6"
      ],
      [
        "Rg",
        "h2"
      ],
      [
        "Rd",
        "xd5"
      ],
      [
        " R8",
        "a3"
      ],
      [
        "Rb",
        "xb7"
      ],
      [
        "Ra",
        "a6"
      ],
      [
        "Rf",
        "f4"
      ],
      [
        "Ng",
        "xe6"
      ],
      [
        " Na",
        "xc5"
      ],
      [
        " Ra",
        "a3"
      ],
      [
        " R1",
        "e2"
      ],
      [
        " Kx",
        "f1"
      ],
      [
        "Re",
        "e5"
      ],
      [
        " Nf",
        "h5"
      ],
      [
        "Ne",
        "g4"
      ],
      [
        "Rgx",
        "g7"
      ],
      [
        "Nc",
        "xd6"
      ],
      [
        "N",
        "exd5"
      ],
      [
        " Rb",
        "xb2"
      ],
      [
        "Nc",
        "b6"
      ],
      [
        " Ra",
        "a6"
      ],
      [
        " Nf",
        "d3"
      ],
      [
        "Ra",
        "xb1"
      ],
      [
        " Rh",
        "h2"
      ],
      [
        " Ng",
        "e8"
      ],
      [
        " Rc",
        "xd8"
      ],
      [
        "R8",
        "e7"
      ],
      [
        " 12",
        "4."
      ],
      [
        "K",
        "xd8"
      ],
      [
        "Nd",
        "c6"
      ],
      [
        "Rf",
        "f6"
      ],
      [
        " R8",
        "h7"
      ],
      [
        " K",
        "xc1"
      ],
      [
        " K",
        "xe1"
      ],
      [
        "c",
        "xd8"
      ],
      [
        " Rf",
        "a7"
      ],
      [
        "N1",
        "a2"
      ],
      [
        " Rd",
        "g7"
      ],
      [
        "Na",
        "xc5"
      ],
      [
        " Ra",
        "c5"
      ],
      [
        " Rb",
        "b3"
      ],
      [
        " R8",
        "e3"
      ],
      [
        "Rg",
        "f7"
      ],
      [
        "R1",
        "h7"
      ],
      [
        "Rd",
        "xd7"
      ],
      [
        "Re",
        "xe4"
      ],
      [
        " Nc",
        "e3"
      ],
      [
        " Nh",
        "g7"
      ],
      [
        "Ng",
        "e6"
      ],
      [
        "Rb",
        "d4"
      ],
      [
        "Re",
        "xe7"
      ],
      [
        " Rgx",
        "g2"
      ],
      [
        "Rf",
        "h3"
      ],
      [
        " N6",
        "e5"
      ],
      [
        " Rd",
        "d4"
      ],
      [
        " Rc",
        "xc2"
      ],
      [
        "R2",
        "d3"
      ],
      [
        "Rh",
        "h3"
      ],
      [
        " R3",
        "d7"
      ],
      [
        "Nf",
        "e6"
      ],
      [
        " Nh",
        "g4"
      ],
      [
        "R1",
        "e7"
      ],
      [
        "N4",
        "g3"
      ],
      [
        " N4",
        "e5"
      ],
      [
        "Rh",
        "f4"
      ],
      [
        " K",
        "xd1"
      ],
      [
        "Re",
        "xe3"
      ],
      [
        " Rh",
        "f7"
      ],
      [
        "Na",
        "xc4"
      ],
      [
        "Rf",
        "a2"
      ],
      [
        "Ra",
        "c4"
      ],
      [
        "R1",
        "e5"
      ],
      [
        " R4",
        "b7"
      ],
      [
        "Ne",
        "f6"
      ],
      [
        " R2",
        "d3"
      ],
      [
        " 12",
        "5."
      ],
      [
        "R7",
        "c6"
      ],
      [
        "Rb",
        "c7"
      ],
      [
        "K",
        "xa8"
      ],
      [
        " Nb",
        "a4"
      ],
      [
        " Nd",
        "e3"
      ],
      [
        " Re",
        "xe7"
      ],
      [
        "Rc",
        "f3"
      ],
      [
        " Ng",
        "xf6"
      ],
      [
        " Rb",
        "b4"
      ],
      [
        "Nd",
        "xe6"
      ],
      [
        "x",
        "g1"
      ],
      [
        "R1",
        "c5"
      ],
      [
        " c",
        "xd1"
      ],
      [
        "N2",
        "c4"
      ],
      [
        "R4",
        "c3"
      ],
      [
        " Rg",
        "f2"
      ],
      [
        "Kx",
        "f8"
      ],
      [
        " Rd",
        "xd5"
      ],
      [
        "Rg",
        "f4"
      ],
      [
        "Ra",
        "xa7"
      ],
      [
        "R8",
        "c7"
      ],
      [
        " d",
        "xe1"
      ],
      [
        " Nd",
        "f7"
      ],
      [
        " R8",
        "a6"
      ],
      [
        " R6",
[...]
