{
  "version": "1.0",
  "truncation": null,
  "padding": null,
  "added_tokens": [],
  "normalizer": {
    "type": "NFD"
  },
  "pre_tokenizer": {
    "type": "Sequence",
    "pretokenizers": [
      {
        "type": "Split",
        "pattern": {
          "Regex": " ?\\d+\\.|\\. ?| ?[-\\w]+|[#+]"
        },
        "behavior": "Isolated",
        "invert": false
      }
    ]
  },
  "post_processor": {
    "type": "ByteLevel",
    "add_prefix_space": true,
    "trim_offsets": true,
    "use_regex": true
  },
  "decoder": {
    "type": "ByteLevel",
    "add_prefix_space": true,
    "trim_offsets": true,
    "use_regex": true
  },
  "model": {
    "type": "BPE",
    "dropout": null,
    "unk_token": "[UNK]",
    "continuing_subword_prefix": null,
    "end_of_word_suffix": null,
    "fuse_unk": true,
    "byte_fallback": false,
    "ignore_merges": false,
    "vocab": {
      " ": 0,
      "#": 1,
      "+": 2,
      "-": 3,
      ".": 4,
      "0": 5,
      "1": 6,
      "2": 7,
      "3": 8,
      "4": 9,
      "5": 10,
      "6": 11,
      "7": 12,
      "8": 13,
      "9": 14,
      "<": 15,
      "=": 16,
      ">": 17,
      "B": 18,
      "K": 19,
      "N": 20,
      "O": 21,
      "Q": 22,
      "R": 23,
      "_": 24,
      "a": 25,
      "b": 26,
      "c": 27,
      "d": 28,
      "e": 29,
      "f": 30,
      "g": 31,
      "h": 32,
      "n": 33,
      "r": 34,
      "s": 35,
      "t": 36,
      "x": 37,
      "|": 38,
      " 1": 39,
      " 2": 40,
      " N": 41,
      " 3": 42,
      " B": 43,
      " R": 44,
      "1.": 45,
      " Q": 46,
      "4.": 47,
      "5.": 48,
      "6.": 49,
      "xd": 50,
      "7.": 51,
      "8.": 52,
      "9.": 53,
      "0.": 54,
      " K": 55,
      "2.": 56,
      "3.": 57,
      " 4": 58,
      "xe": 59,
      "f6": 60,
      "xc": 61,
      "f3": 62,
      "<|": 63,
      "g_": 64,
      "|>": 65,
      "-O": 66,
      "O-O": 67,
      " c": 68,
      "d4": 69,
      " e": 70,
      "c3": 71,
      " d": 72,
      "e4": 73,
      "f5": 74,
      "d7": 75,
      "f4": 76,
      "g5": 77,
      "xb": 78,
      " 5": 79,
      "e7": 80,
      "c4": 81,
      "xd4": 82,
      "e3": 83,
      "d2": 84,
      "g4": 85,
      "e2": 86,
      "d3": 87,
      "c6": 88,
      "g6": 89,
      " b": 90,
      "xd5": 91,
      " a": 92,
      "g3": 93,
      " Nf6": 94,
      "Nf3": 95,
      "ar": 96,
      "en": 97,
      "st": 98,
      "g_en": 99,
      "g_st": 100,
      "art": 101,
      "g_end": 102,
      "g_start": 103,
      " 4.": 104,
      " 5.": 105,
      " 2.": 106,
      " 3.": 107,
      " 6.": 108,
      " 7.": 109,
      " 8.": 110,
      " 9.": 111,
      " 10.": 112,
      " 11.": 113,
      " 12.": 114,
      " 13.": 115,
      " h": 116,
      " 14.": 117,
      "g7": 118,
      "d5": 119,
      " 15.": 120,
      "e5": 121,
      " 16.": 122,
      " 17.": 123,
      " 18.": 124,
      "Nc3": 125,
      "b3": 126,
      "c5": 127,
      " 19.": 128,
      " 20.": 129,
      " O-O": 130,
      "e6": 131,
      " 21.": 132,
      "b4": 133,
      "xe5": 134,
      " 22.": 135,
      " 23.": 136,
      "a4": 137,
      "d6": 138,
      " 24.": 139,
      " 25.": 140,
      "g2": 141,
      "c7": 142,
      " 26.": 143,
      "e8": 144,
      "d1": 145,
      "h3": 146,
      " 27.": 147,
      "xe4": 148,
      "a3": 149,
      "e1": 150,
      "c2": 151,
      "h4": 152,
      " 28.": 153,
      "c8": 154,
      "d8": 155,
      " 29.": 156,
      " Nc6": 157,
      " c5": 158,
      "f7": 159,
      "Ra": 160,
      "f8": 161,
      " 30.": 162,
      "c1": 163,
      "b5": 164,
      "f2": 165,
      " 31.": 166,
      "b6": 167,
      "h5": 168,
      "a5": 169,
      " 6": 170,
      " 32.": 171,
      "f1": 172,
      " 33.": 173,
      " d5": 174,
      " e5": 175,
      "xc5": 176,
      "b7": 177,
      "Bx": 178,
      " Ra": 179,
      " 34.": 180,
      " e6": 181,
      " d6": 182,
      " Bx": 183,
      "xc4": 184,
      "b8": 185,
      " 35.": 186,
      " Be7": 187,
      " g6": 188,
      " 36.": 189,
      "xc3": 190,
      "b1": 191,
      " 37.": 192,
      "Rx": 193,
      " Rx": 194,
      "h6": 195,
      "Be3": 196,
      " 38.": 197,
      " a6": 198,
      "a6": 199,
      " 39.": 200,
      "xc6": 201,
      "b2": 202,
      " b5": 203,
      "gx": 204,
      " 40.": 205,
      " Bg7": 206,
      " h6": 207,
      " f5": 208,
      "xb5": 209,
      "Bd3": 210,
      " c6": 211,
      "Kh": 212,
      " 41.": 213,
      "h7": 214,
      "g8": 215,
      "xb4": 216,
      "Qx": 217,
      " a5": 218,
      " cxd4": 219,
      "Bg2": 220,
      "Nx": 221,
      " 42.": 222,
      "Re1": 223,
      " Bd7": 224,
      " b6": 225,
      "h8": 226,
      " Nd7": 227,
      " Qx": 228,
      "Be2": 229,
      "Bg5": 230,
      "Nxd4": 231,
      " Qc7": 232,
      " 43.": 233,
      " Re8": 234,
      "g1": 235,
      " Nb": 236,
      "xd6": 237,
      "Qe2": 238,
      "Qd2": 239,
      " Bb7": 240,
      " Rc8": 241,
      " 44.": 242,
      "xe6": 243,
      " h5": 244,
      " 7": 245,
      " Nx": 246,
      "Rf": 247,
      "Qc2": 248,
      " Be6": 249,
      " 45.": 250,
      " Nbd7": 251,
      " f": 252,
      " 46.": 253,
      " Rf": 254,
      "xe7": 255,
      "xe3": 256,
      " g5": 257,
      "Rc1": 258,
      " Rb8": 259,
      "xd7": 260,
      " Kg7": 261,
      "xb3": 262,
      "Bd2": 263,
      " f6": 264,
      " 47.": 265,
      " gx": 266,
      " Kx": 267,
      "Bf4": 268,
      "xd3": 269,
      "Nd2": 270,
      "Rd1": 271,
      " 48.": 272,
      "Bb5": 273,
      " Qe7": 274,
      " Rd8": 275,
      " Kf7": 276,
      " Nc5": 277,
      " Bd6": 278,
      " Kh8": 279,
      " 49.": 280,
      "a7": 281,
      "xd2": 282,
      "xb6": 283,
      "Nd5": 284,
      "cxd5": 285,
      " Bb4": 286,
      "xd8": 287,
      " 50.": 288,
      "Kf2": 289,
      "Bc4": 290,
      "Kg2": 291,
      "a2": 292,
      "ex": 293,
      " Ne4": 294,
      " Bg4": 295,
      " Qb6": 296,
      "Kh2": 297,
      "Bb2": 298,
      "xe2": 299,
      " 51.": 300,
      " Qd7": 301,
      "Ke2": 302,
      "Nd4": 303,
      "Kx": 304,
      "Ne2": 305,
      " Ne7": 306,
      "Kh1": 307,
      "Qd3": 308,
      " Ke7": 309,
      "Rb1": 310,
      " Nb6": 311,
      " Nd5": 312,
      " Ne5": 313,
      " Bc5": 314,
      " 52.": 315,
      "Kf3": 316,
      " Kf8": 317,
      "xg5": 318,
      "Rad1": 319,
      "Ke3": 320,
      "Ne4": 321,
      " Qa5": 322,
      "exd5": 323,
      " Kg8": 324,
      " 53.": 325,
      "Qb3": 326,
      "xd1": 327,
      " 54.": 328,
      "Kf1": 329,
      "Ne5": 330,
      "xb7": 331,
      "a8": 332,
      "h2": 333,
      " Kd7": 334,
      "a1": 335,
      " Bf5": 336,
      " Rd7": 337,
      " b4": 338,
      "Nb": 339,
      " Ke6": 340,
      "Bxf6": 341,
      "dxe5": 342,
      " 55.": 343,
      "Bb3": 344,
      "Rd2": 345,
      " Kh7": 346,
      " ex": 347,
      "Qf3": 348,
      "Qe3": 349,
      " Nxd5": 350,
      " exd5": 351,
      " Qd6": 352,
      " 56.": 353,
      "Nxe4": 354,
      "xc7": 355,
      "xb2": 356,
      "Nbd2": 357,
      " Rf8": 358,
      "xc2": 359,
      " dxe4": 360,
      "Kd3": 361,
      "Nb3": 362,
      "Rh": 363,
      "Rf1": 364,
      " Kd6": 365,
      " 57.": 366,
      " a4": 367,
      "Nxe5": 368,
      "xg4": 369,
      " Nd4": 370,
      " Ng4": 371,
      " Qf6": 372,
      " Kf6": 373,
      " Bf6": 374,
      "O-O-O": 375,
      " exd4": 376,
      " dxc4": 377,
      "Bc2": 378,
      "Rd3": 379,
      "Ng5": 380,
      " Nxe5": 381,
      " Nh5": 382,
      " Bf8": 383,
      " c4": 384,
      " e4": 385,
      " 58.": 386,
      "Bf3": 387,
      "bxc3": 388,
      " Na6": 389,
      " Bc6": 390,
      " cxd5": 391,
      " 59.": 392,
      "Kd2": 393,
      "Kg1": 394,
      "Ng3": 395,
      "Rd": 396,
      " Nc4": 397,
      " Ne6": 398,
      " Nxe4": 399,
      " dxe5": 400,
      "Bf1": 401,
      "Kd4": 402,
      "dxc5": 403,
      "Be4": 404,
      "Ng": 405,
      "Ne3": 406,
      " Ng": 407,
      "Bd4": 408,
      "Kc3": 409,
      " Nb4": 410,
      "Nc4": 411,
      "Na4": 412,
      " Bxc3": 413,
      "xc8": 414,
      " h4": 415,
      " Rc7": 416,
      " Qd8": 417,
      " Kg6": 418,
      "xe8": 419,
      "Nf5": 420,
      "Nf4": 421,
      "Qh5": 422,
      "fxe5": 423,
      " Rad8": 424,
      " Bxf6": 425,
      "Rfe1": 426,
      "exf5": 427,
      " f4": 428,
      " g4": 429,
      "Bxc4": 430,
      "Nb5": 431,
      "Re2": 432,
      "cxd4": 433,
      " Rg8": 434,
      " Kc7": 435,
      "Rac1": 436,
      " 60.": 437,
      " Rac8": 438,
      "Rfd1": 439,
      " 8": 440,
      "Nd": 441,
      "xg6": 442,
      " Nc7": 443,
      " Ra8": 444,
      "Bxc6": 445,
      "Nd3": 446,
      "Nc5": 447,
      "Qa4": 448,
      "xg3": 449,
      " Nxd4": 450,
      " Rc2": 451,
      " 61.": 452,
      "Qe1": 453,
      " Nf5": 454,
      " Rh": 455,
      " Qc6": 456,
      " d4": 457,
      "Bg3": 458,
      "Nxd5": 459,
      " Nf4": 460,
      " Nd6": 461,
      " Na5": 462,
      " bxc6": 463,
      " 62.": 464,
      " Rfe8": 465,
      "Bf2": 466,
      " Qg5": 467,
      " Bxf3": 468,
      "Kb1": 469,
      " Nf": 470,
      " Nf8": 471,
      " Bxd5": 472,
      " Ba6": 473,
      " Re6": 474,
      " Qe6": 475,
      " Qc8": 476,
      " Ke5": 477,
      "Bc1": 478,
      "Rc2": 479,
      " Bxd4": 480,
      " Bd5": 481,
      " Re7": 482,
      "Ra1": 483,
      " Rfd8": 484,
      "Bh4": 485,
      "Qg4": 486,
      "Qf2": 487,
      "Rg1": 488,
      "axb4": 489,
      " Rf7": 490,
      " Rb2": 491,
      "Nge2": 492,
      "Bc3": 493,
      "Bd5": 494,
      "Ke4": 495,
      "Kg3": 496,
      "Rc7": 497,
      "bx": 498,
      " Ng6": 499,
      " Kc6": 500,
      " Ke8": 501,
      "xe1": 502,
      "xc1": 503,
      "Bxd5": 504,
      "Nd6": 505,
      "Re": 506,
      " Bd4": 507,
      " bx": 508,
      " hxg5": 509,
      " 63.": 510,
      "Qc4": 511,
      "Qd1": 512,
      " Ne8": 513,
      " Nxc3": 514,
      " Be8": 515,
      " Qg6": 516,
      " Kf5": 517,
      " axb5": 518,
      "Ra7": 519,
      " fxe4": 520,
      " gxf5": 521,
      " exf4": 522,
      "Bxd4": 523,
      "Bc5": 524,
      "Bxe4": 525,
      "Nxc6": 526,
      "Qe4": 527,
      "Rc": 528,
      "Re3": 529,
      "Rf2": 530,
      "Rb7": 531,
      " Nd3": 532,
      " Bxc5": 533,
      " Rd": 534,
      " Rd6": 535,
      " Qxd5": 536,
      " Kd5": 537,
      " axb4": 538,
      " O-O-O": 539,
      " 64.": 540,
      "Rd7": 541,
      " Bxe5": 542,
      " Rc": 543,
      " Rc6": 544,
      " Qh4": 545,
      "Ba4": 546,
      "Ba3": 547,
      "Nc2": 548,
      "Nh4": 549,
      "Nf1": 550,
      "Qf4": 551,
      " Bg6": 552,
      " Be5": 553,
      " Bh6": 554,
      " Rf6": 555,
      " Rc5": 556,
      " Qd5": 557,
      " 65.": 558,
      " Nge7": 559,
      "Bxe7": 560,
      "Nc": 561,
      "Qd4": 562,
      "Qxd5": 563,
      "Qg3": 564,
      "Qh4": 565,
      "Rd5": 566,
      "Rb6": 567,
      " Bb6": 568,
      " Qf5": 569,
      " Qc5": 570,
      " Qf7": 571,
      " Kg5": 572,
      " 66.": 573,
      " Ra2": 574,
      "Qc3": 575,
      "Qxd4": 576,
      "Rc5": 577,
      "Rd8": 578,
      " Nb8": 579,
      " Bd8": 580,
      " Qe5": 581,
      " Qe8": 582,
      "Rab1": 583,
      "Bxg7": 584,
      "Bh6": 585,
      "Kg4": 586,
      "Nf6": 587,
      "Rd4": 588,
      "Rxd8": 589,
      "exd4": 590,
      " Bc8": 591,
      " Rc3": 592,
      " Qb7": 593,
      " Qb8": 594,
      " bxc5": 595,
      "Nxf6": 596,
      " Kxg7": 597,
      "Be5": 598,
      "Bxc5": 599,
      "Ne1": 600,
      "Qb1": 601,
      " Ng5": 602,
      " Ra3": 603,
      " bxc4": 604,
      " gxf6": 605,
      "Kc4": 606,
      "Ne6": 607,
      "Re7": 608,
      " Nh7": 609,
      " Bh5": 610,
      " Rb": 611,
      " Qxe5": 612,
      " Qh5": 613,
      " Kd8": 614,
      " dxc5": 615,
      "Ra6": 616,
      " 67.": 617,
      " Bxf5": 618,
      "Rfc1": 619,
      " fxe5": 620,
      "Bg4": 621,
      "Kf4": 622,
      "Ng4": 623,
      "Na3": 624,
      "Qxe4": 625,
      "Qxd3": 626,
      "Rf3": 627,
      "Rc3": 628,
      "Rc4": 629,
      "Rc6": 630,
      "h1": 631,
      " Nc8": 632,
      " Bxe4": 633,
      " Bxe2": 634,
      " Rg6": 635,
      " Re5": 636,
      " Rc1": 637,
      " Qxe7": 638,
      "Ra8": 639,
      "Rae1": 640,
      "Bxf5": 641,
      " Ra6": 642,
      " fxe6": 643,
      " Rfc8": 644,
      "exf6": 645,
      "Bxe6": 646,
      "Kb4": 647,
      "Kc2": 648,
      "Nxc5": 649,
      "Qg2": 650,
      "Rg3": 651,
      "axb5": 652,
      "bxc5": 653,
      "hxg5": 654,
      " Nc3": 655,
      " Rd2": 656,
      " Rb3": 657,
      " Ra5": 658,
      " Rxc3": 659,
      " Rxd1": 660,
      " Qd2": 661,
      "xb1": 662,
      " h3": 663,
      " 68.": 664,
      " Ra7": 665,
      " Rab8": 666,
      " Qxf6": 667,
      " Nfd7": 668,
      "Bxe5": 669,
      "Bd6": 670,
      "Kc5": 671,
      "Ke1": 672,
      "Nc6": 673,
      "Nh3": 674,
      "Qg5": 675,
      "Qh3": 676,
      "Qc1": 677,
      "Rxd5": 678,
      "Rb8": 679,
      "Rxc3": 680,
      " Ne3": 681,
      " Nf7": 682,
      " Bg5": 683,
      " Bc7": 684,
      " Rb7": 685,
      " Rh8": 686,
      " Ke4": 687,
      " a3": 688,
      "Ra5": 689,
      "Bxf3": 690,
      "Qxf3": 691,
      " gxf4": 692,
      "Rh1": 693,
      "Qxc4": 694,
      "Rc8": 695,
      "Rxd1": 696,
      "hxg4": 697,
      " Nf3": 698,
      " Bc4": 699,
      " Bd3": 700,
      " Bb3": 701,
      " Bxe3": 702,
      " Rd3": 703,
      " Rxc4": 704,
      " Qf4": 705,
      " Kb8": 706,
      " hxg6": 707,
      "Bxg5": 708,
      " Rxa2": 709,
      "gxf5": 710,
      "Bh3": 711,
      "Bxd6": 712,
      "Bxb7": 713,
      "Kb3": 714,
      "Nf2": 715,
      "Qb4": 716,
      "Qa3": 717,
      "Qb5": 718,
      "Qxd8": 719,
      "Rd6": 720,
      "axb3": 721,
      "cxb5": 722,
      "dxe4": 723,
      " Bxc4": 724,
      " Rxd5": 725,
      " Rg7": 726,
      " Rf2": 727,
      " Rb1": 728,
      " Qxd4": 729,
      " Qb4": 730,
      " Qxd6": 731,
      " Kc5": 732,
      " Kb7": 733,
      "xb8": 734,
      " 69.": 735,
      " Bxg2": 736,
      " Rxf2": 737,
      "gxf4": 738,
      " 70.": 739,
      "Bd1": 740,
      "Bxb5": 741,
      "Nxe6": 742,
      "Qxc5": 743,
      "Rf4": 744,
      "Rxd4": 745,
      "Rxe4": 746,
      "Ra3": 747,
      "Rxc5": 748,
      "Rh8": 749,
      "Rxd7": 750,
      "Rxe8": 751,
      " Nh6": 752,
      " Bf7": 753,
      " Ra4": 754,
      " Rg2": 755,
      " Rb6": 756,
      " Rxe3": 757,
      " Qg7": 758,
      " hxg4": 759,
      "Rxf7": 760,
      " Rxf5": 761,
      " 71.": 762,
      " 72.": 763,
      "Kxg2": 764,
      " f3": 765,
      "Bb6": 766,
      "Bxd7": 767,
      "Kh3": 768,
      "Rb": 769,
      "Rb3": 770,
      "Rf7": 771,
      "Rb2": 772,
      "Rxd6": 773,
      "Rxb7": 774,
      "bxc4": 775,
      "fxe4": 776,
      "fxe3": 777,
      " Nxd7": 778,
      " Nxd3": 779,
      " Bc3": 780,
      " Be4": 781,
      " Bf4": 782,
      " Bc2": 783,
      " Bb5": 784,
      " Re2": 785,
      " Rb4": 786,
      " Rxd8": 787,
      " Qd4": 788,
      " Qf8": 789,
      " Qb5": 790,
      " Qxc5": 791,
      " Qh6": 792,
      " axb6": 793,
      "Rxf5": 794,
      " Ngf6": 795,
      "Bb4": 796,
      "Ke5": 797,
      "Kc1": 798,
      "Kb2": 799,
      "Nxb5": 800,
      "hxg3": 801,
      " Nd": 802,
      " Nxc5": 803,
      " Nxb3": 804,
      " Bxc6": 805,
      " Bxb5": 806,
      " Re": 807,
      " Rb5": 808,
      " Rxc5": 809,
      " Rxb2": 810,
      " Rxc2": 811,
      " Qc4": 812,
      " Qc2": 813,
      " c3": 814,
      " cxb4": 815,
      " e3": 816,
      " b3": 817,
      "Ra2": 818,
      " Ra1": 819,
      " Bxg5": 820,
      "Nxf5": 821,
      " 73.": 822,
      "Bf6": 823,
      "Be6": 824,
      "Bb1": 825,
      "Bxb4": 826,
      "Nxc4": 827,
      "Qf5": 828,
      "Qxc3": 829,
      "Qb2": 830,
      "Qxd6": 831,
      "Qxe3": 832,
      "Re4": 833,
      "Rxe5": 834,
      "Ra4": 835,
      "Rh3": 836,
      "fxg5": 837,
      " Bxd2": 838,
      " Rc4": 839,
      " Rh6": 840,
      " Rxe7": 841,
      " Qg4": 842,
      " Qxe4": 843,
      " Qxc3": 844,
      " Qa6": 845,
      " d3": 846,
      "Bxa6": 847,
      "Rxg7": 848,
      "Nxg6": 849,
      " Qxf5": 850,
      " Kxf7": 851,
      " exf5": 852,
      "Red1": 853,
      "Nb4": 854,
      "Nd1": 855,
      "Nc1": 856,
      "Nxd6": 857,
      "Nxd7": 858,
      "Nxd2": 859,
      "Qd5": 860,
      "Qe6": 861,
      "Qd6": 862,
      "Qh6": 863,
      "Qxe2": 864,
      "Rxe7": 865,
      "Rxb6": 866,
      " Ne": 867,
      " Nb5": 868,
      " Na7": 869,
      " Bxd6": 870,
      " Rxe5": 871,
      " Rxd2": 872,
      " Qe4": 873,
      " Qxb2": 874,
      " Kd4": 875,
      " Kb6": 876,
      " Kh5": 877,
      " Kh6": 878,
      " Rxf6": 879,
      "gxf3": 880,
      "Qxf6": 881,
      "Qxg5": 882,
      "Qxa7": 883,
      "Nxf4": 884,
      "Nxg5": 885,
      " Qxg5": 886,
      " g3": 887,
      "Bf5": 888,
      "Bc7": 889,
      "Be1": 890,
      "Ne": 891,
      "Ng6": 892,
      "Qe5": 893,
      "Qc5": 894,
      "Qxe5": 895,
      "Qc7": 896,
      "Qa5": 897,
      "Qxd2": 898,
      "R1": 899,
      "Rxc4": 900,
      "Rxc6": 901,
      "Rh7": 902,
      "Rxc8": 903,
      " Nc": 904,
      " Ng7": 905,
      " Bf3": 906,
      " Bh3": 907,
      " Rf3": 908,
      " Rg5": 909,
      " Rxd4": 910,
      " Rd5": 911,
      " Rxe4": 912,
      " Rh7": 913,
      " Rxe1": 914,
      " Qd3": 915,
      " Qxd7": 916,
      " Kg4": 917,
      " Kxd8": 918,
      " dxc3": 919,
      "Bxf4": 920,
      " Rae8": 921,
      " Bxf1": 922,
      "Rxf6": 923,
      " Rxf4": 924,
      " 74.": 925,
      " 75.": 926,
      " Nxf3": 927,
      " fxg4": 928,
      " exf3": 929,
      "Ndb5": 930,
      " bxa4": 931,
      "Be7": 932,
      "Bg6": 933,
      "Bxd3": 934,
      "Kf5": 935,
      "Kd5": 936,
      "Kd1": 937,
      "Ne7": 938,
      "Nh5": 939,
      "Na5": 940,
      "Re5": 941,
      "Re6": 942,
      "Rg2": 943,
      "Re8": 944,
      "Rf8": 945,
      "Rxd2": 946,
      "cxb4": 947,
      "cxd6": 948,
      " Nxd2": 949,
      " Bd2": 950,
      " Bxd3": 951,
      " Rd4": 952,
      " Rf5": 953,
      " Re3": 954,
      " Rd1": 955,
      " Rxb5": 956,
      " Rxb3": 957,
      " Qc3": 958,
      " Qc1": 959,
      " Qxc6": 960,
      " Qb2": 961,
      " Qxb5": 962,
      " Kf4": 963,
      " cxb3": 964,
      " dxc6": 965,
      "Bxh6": 966,
      " Bxf4": 967,
      "Rxa1": 968,
      "Qxa5": 969,
      " Qxa2": 970,
      " 76.": 971,
      " Nxf5": 972,
      " Nxg3": 973,
      "Rfb1": 974,
      " fxg3": 975,
      "exf4": 976,
      "Bc6": 977,
      "Bb7": 978,
      "Ba2": 979,
      "Nf": 980,
      "Nd7": 981,
      "Nxe7": 982,
      "Nh2": 983,
      "Qc6": 984,
      "Qf7": 985,
      "Qf1": 986,
      "Rg6": 987,
      "Rxe6": 988,
      "Rxc7": 989,
      "dxc6": 990,
      "hxg6": 991,
      " Nd2": 992,
      " Na4": 993,
      " Nd8": 994,
      " Nb7": 995,
      " Nxc4": 996,
      " Ng8": 997,
      " Nxb4": 998,
      " Ba4": 999,
      " Ba3": 1000,
      " Ba7": 1001,
      " Bxb2": 1002,
      " Re1": 1003,
      " Rxb4": 1004,
      " Rxe2": 1005,
      " Rh2": 1006,
      " Qxc4": 1007,
      " Qb1": 1008,
      " Qxb4": 1009,
      " Qxe6": 1010,
      " Qxe3": 1011,
      " Qa7": 1012,
      " Qxd2": 1013,
      " Qa8": 1014,
      " cxb5": 1015,
      " a2": 1016,
      " axb3": 1017,
      " h2": 1018,
      "Bxg6": 1019,
      "Bxf7": 1020,
      "Bxh5": 1021,
      " Raf8": 1022,
      "Rxf8": 1023,
      "Rxa5": 1024,
      "Rxf1": 1025,
      " Rxf7": 1026,
      " Rxf1": 1027,
      "Qxf5": 1028,
      " Qxf4": 1029,
      " Rfb8": 1030,
      "Rhe1": 1031,
      "bxa4": 1032,
      "bxa5": 1033,
      "Rcd1": 1034,
      "Bxc3": 1035,
      "Ba6": 1036,
      "Bxb6": 1037,
      "Kg5": 1038,
      "Kb5": 1039,
      "Nc7": 1040,
      "Nxb6": 1041,
      "Nxb7": 1042,
      "Qxe7": 1043,
      "Qxd7": 1044,
      "Rg": 1045,
      "Rf6": 1046,
      "Rh4": 1047,
      "Rb5": 1048,
      "Rxb4": 1049,
      "axb6": 1050,
      "dxe6": 1051,
      " Nxc6": 1052,
      " Nxe3": 1053,
      " Nxe2": 1054,
      " Bxb4": 1055,
      " Rg": 1056,
      " Re4": 1057,
      " Rg3": 1058,
      " Rh3": 1059,
      " Rh5": 1060,
      " Rxc6": 1061,
      " Rxd6": 1062,
      " Rxc1": 1063,
      " Qxb3": 1064,
      " Qxd1": 1065,
      " Kc8": 1066,
      " Kxd7": 1067,
      " Bxg4": 1068,
      "Rxg6": 1069,
      "Rxh5": 1070,
      "Rxa6": 1071,
      " Rxa4": 1072,
      " Rxg2": 1073,
      " Rxa1": 1074,
      "gxh4": 1075,
      "Qxf7": 1076,
      "Nxh5": 1077,
      " 77.": 1078,
      " 78.": 1079,
      " 79.": 1080,
      " Nxf6": 1081,
      " Nxf4": 1082,
      " Nxa5": 1083,
      " Kxf6": 1084,
      " Kxf8": 1085,
      "exf7": 1086,
      "Rde1": 1087,
      " Rhe8": 1088,
      " bxa5": 1089,
      " Rde8": 1090,
      " Rcd8": 1091,
      "Ba5": 1092,
      "Kf6": 1093,
      "Kd6": 1094,
      "Ng2": 1095,
      "Nf7": 1096,
      "Nb7": 1097,
      "Nxc7": 1098,
      "Qe7": 1099,
      "Qg6": 1100,
      "Qc8": 1101,
      "Qxb6": 1102,
      "Rf5": 1103,
      "Rg5": 1104,
      "Rg8": 1105,
      "Rxe3": 1106,
      "Rxb3": 1107,
      "dxc4": 1108,
      "exd6": 1109,
      "fxg3": 1110,
      " Nb3": 1111,
      " Nc2": 1112,
      " Nxe7": 1113,
      " Bh4": 1114,
      " Bxe6": 1115,
      " Rg4": 1116,
      " Rxd7": 1117,
      " Rxd3": 1118,
      " Rxb6": 1119,
      " Rxb7": 1120,
      " Rxc8": 1121,
      " Rxe8": 1122,
      " Qe3": 1123,
      " Qg1": 1124,
      " Qxc7": 1125,
      " Qxc2": 1126,
      " Kc4": 1127,
      " Ke3": 1128,
      " Kg3": 1129,
      " Kh4": 1130,
      " Ka7": 1131,
      " bxc3": 1132,
      " Bxh3": 1133,
      " Bxf2": 1134,
      "Rxf3": 1135,
      "Rxa4": 1136,
      "Rxh6": 1137,
      "Rxh7": 1138,
      "Rxa8": 1139,
      " Rxh3": 1140,
      " Rxa3": 1141,
      " Rxa6": 1142,
      "gxh5": 1143,
      "Qxg4": 1144,
      "Nxg4": 1145,
      " Nxg5": 1146,
      " fxg5": 1147,
      " gxh4": 1148,
      " gxh5": 1149,
      " Kxh7": 1150,
      "Rhg1": 1151,
      "Rdc1": 1152,
      "Ndf3": 1153,
      "bxa6": 1154,
      "Bg7": 1155,
      "Bd8": 1156,
      "Bh5": 1157,
      "Bh7": 1158,
      "Ka4": 1159,
      "Kh4": 1160,
      "Kxc4": 1161,
      "Kxe2": 1162,
      "Nb6": 1163,
      "Nxc3": 1164,
      "Nh6": 1165,
      "Qe8": 1166,
      "Qb7": 1167,
      "Qxc6": 1168,
      "Qxb5": 1169,
      "Qxb4": 1170,
      "Qxb7": 1171,
      "Qxc7": 1172,
      "Qxc2": 1173,
      "Rg7": 1174,
      "Rb4": 1175,
      "Rxb5": 1176,
      "fxe6": 1177,
      "fxg4": 1178,
      " Na3": 1179,
      " Nxc2": 1180,
      " Be3": 1181,
      " Ba2": 1182,
      " Rf1": 1183,
      " Rxe6": 1184,
      " Rxc7": 1185,
      " Rxb8": 1186,
      " Qf3": 1187,
      " Qg3": 1188,
      " Qd1": 1189,
      " Qa3": 1190,
      " Qxe2": 1191,
      " Qxb7": 1192,
      " Kf3": 1193,
      "Bxg4": 1194,
      "Bxa7": 1195,
      " Bxa4": 1196,
      "Rxa7": 1197,
      " Rxg5": 1198,
      "Qxa6": 1199,
      " Qxg4": 1200,
      " Nbc6": 1201,
      " fxg6": 1202,
      " Kxf5": 1203,
      "Kxf2": 1204,
      " 80.": 1205,
      " Rh1": 1206,
      " bxa3": 1207,
      "Nce2": 1208,
      "Rbd1": 1209,
      " Ndf6": 1210,
      " f2": 1211,
      "Bf8": 1212,
      "Bxc7": 1213,
      "Bxc8": 1214,
      "Kc6": 1215,
      "Ke6": 1216,
      "Kb6": 1217,
      "Kh5": 1218,
      "Ng1": 1219,
      "Nxe3": 1220,
      "Na2": 1221,
      "Nxe2": 1222,
      "Qd7": 1223,
      "Qb8": 1224,
      "Qa6": 1225,
      "Qxe6": 1226,
      "Qa7": 1227,
      "Qa1": 1228,
      "Rg4": 1229,
      "Rh6": 1230,
      "Rxd3": 1231,
      "Rxc2": 1232,
      "Rxe1": 1233,
      "Rxc1": 1234,
      "Rxb1": 1235,
      " Ne2": 1236,
      " Nf2": 1237,
      " Nxe6": 1238,
      " Be2": 1239,
      " Bd1": 1240,
      " Bxb3": 1241,
      " Bxc2": 1242,
      " Rf4": 1243,
      " Rg1": 1244,
      " Rxb1": 1245,
      " Qb3": 1246,
      " Qh3": 1247,
      " Qa2": 1248,
      " Qa1": 1249,
      " Kxe5": 1250,
      " Kg2": 1251,
      " Kxe6": 1252,
      " cxd3": 1253,
      " e2": 1254,
      " hxg3": 1255,
      "Bxa5": 1256,
      "Bxh7": 1257,
      " Bxg3": 1258,
      " Bxh4": 1259,
      " Bxh6": 1260,
      " Bxa6": 1261,
      "Rxf4": 1262,
      "Rxg5": 1263,
      "Rxa3": 1264,
      "Rxa2": 1265,
      " Rxf3": 1266,
      " Rxh4": 1267,
      " Rxh5": 1268,
      " Rxh2": 1269,
      "gxh6": 1270,
      "Qxf4": 1271,
      "Qxg6": 1272,
      "Qxh6": 1273,
      "Nxa4": 1274,
      "Nxh6": 1275,
      " Qxg7": 1276,
      " Qxf2": 1277,
      " Nxg4": 1278,
      "Kxf3": 1279,
      "Kxf1": 1280,
      " exf6": 1281,
      "Rhf1": 1282,
      "Rdg1": 1283,
      "Ngf3": 1284,
      "Nde2": 1285,
      "Bf7": 1286,
      "Bxe3": 1287,
      "Bxb3": 1288,
      "Bxe2": 1289,
      "Bxc2": 1290,
      "Ka2": 1291,
      "Nc8": 1292,
      "Nf8": 1293,
      "Nxb4": 1294,
      "Qb6": 1295,
      "Qxb3": 1296,
      "R3": 1297,
      "R4": 1298,
      "R5": 1299,
      "Rxe2": 1300,
      "Rxb2": 1301,
      "bxc6": 1302,
      "cxb6": 1303,
      "dxc3": 1304,
      "fxg6": 1305,
      "xg7": 1306,
      " Nxd6": 1307,
      " Ba5": 1308,
      " Bxe7": 1309,
      " Bxd8": 1310,
      " Ba8": 1311,
      " Bh2": 1312,
      " Ba1": 1313,
      " R8": 1314,
      " Rh4": 1315,
      " Qa4": 1316,
      " Qg2": 1317,
      " Qe1": 1318,
      " Qxd3": 1319,
      " Qxd8": 1320,
      " Qxc8": 1321,
      " Qxe8": 1322,
      " Qxc1": 1323,
      " Kc3": 1324,
      " Kf2": 1325,
      " cxd6": 1326,
      " exd6": 1327,
      " Bxa3": 1328,
      " Bxa5": 1329,
      " Bxa1": 1330,
      " Rxg3": 1331,
      " Rxg1": 1332,
      "Qxf2": 1333,
      "Qxh5": 1334,
      "Qxf1": 1335,
      "Nxf3": 1336,
      "Nxf7": 1337,
      "Nxf8": 1338,
      "Nxa5": 1339,
      " Qxf3": 1340,
      " Qxg2": 1341,
      " Qxh3": 1342,
      " Qxh4": 1343,
      " Qxa5": 1344,
      " Qxh2": 1345,
      " Nxa4": 1346,
      " Nxg2": 1347,
      " gxh6": 1348,
      " Kxg6": 1349,
      "Kxg5": 1350,
      "Kxa5": 1351,
      "Kxh2": 1352,
      "Rhd1": 1353,
      "Rdd1": 1354,
      " 81.": 1355,
      " 84.": 1356,
      " 85.": 1357,
      " 82.": 1358,
      " 83.": 1359,
      " Rhc8": 1360,
      " Rhd8": 1361,
      " Rhg8": 1362,
      "bxa3": 1363,
      " Rdc8": 1364,
      "Ncxe4": 1365,
      "Bg1": 1366,
      "Bxd8": 1367,
      "Bh2": 1368,
      "Ba1": 1369,
      "Bxe8": 1370,
      "Bxc1": 1371,
      "Ke7": 1372,
      "Kxd4": 1373,
      "Kxd3": 1374,
      "Kxd2": 1375,
      "Kxd1": 1376,
      "Ne8": 1377,
      "Nh7": 1378,
      "Nxb3": 1379,
      "Qa2": 1380,
      "Qxd1": 1381,
      "Qxb2": 1382,
      "Rh2": 1383,
      "Rxb8": 1384,
      "cxb3": 1385,
      "cxd3": 1386,
      "xg2": 1387,
      " N6": 1388,
      " N8": 1389,
      " Nh": 1390,
      " Ng3": 1391,
      " Nh3": 1392,
      " Nxb6": 1393,
      " Nxc1": 1394,
      " Bb8": 1395,
      " Bg8": 1396,
      " Bh8": 1397,
      " Bxd7": 1398,
      " Bxc8": 1399,
      " Qf2": 1400,
      " Qxb6": 1401,
      " Qh2": 1402,
      " Kxb5": 1403,
      " Kxe7": 1404,
      " Kxc7": 1405,
      " c2": 1406,
      " h1": 1407,
      "Raf1": 1408,
      "Bxf8": 1409,
      " Raa8": 1410,
      " Bxh5": 1411,
      " Bxh2": 1412,
      "Rxg8": 1413,
      "Rxg1": 1414,
      " Rxf8": 1415,
      " Rxh7": 1416,
      " Rxa7": 1417,
      " Rxa8": 1418,
      "gxf6": 1419,
      "gxh3": 1420,
      "Qxh7": 1421,
      "Qxa8": 1422,
      "Nxg7": 1423,
      "Nxa7": 1424,
      " Qxa4": 1425,
      " Qxa3": 1426,
      " Qxf7": 1427,
      " Nxg6": 1428,
      " Nxa3": 1429,
      " Nxh6": 1430,
      " Rfa8": 1431,
      " gxf3": 1432,
      " Kxg3": 1433,
      "Kxf4": 1434,
      "Kxg4": 1435,
      "Kxh3": 1436,
      " Rhf8": 1437,
      "Rcc1": 1438,
      " Rbd8": 1439,
      " Nde5": 1440,
      " Rec8": 1441,
      "Rgd1": 1442,
      " g2": 1443,
      "Bd7": 1444,
      "Bxd2": 1445,
      "Bxd1": 1446,
      "Bxe1": 1447,
      "Kd7": 1448,
      "Kg7": 1449,
      "Ka5": 1450,
      "Ka6": 1451,
      "Kxb5": 1452,
      "Kxe3": 1453,
      "Kxb6": 1454,
      "Ka1": 1455,
      "Kxb2": 1456,
      "N2": 1457,
      "Nh": 1458,
      "Ng7": 1459,
      "Nd8": 1460,
      "Nb1": 1461,
      "Nb2": 1462,
      "Nxd3": 1463,
      "Nxc8": 1464,
      "Nxe1": 1465,
      "Nexd4": 1466,
      "Qf6": 1467,
      "Qg7": 1468,
      "Qd8": 1469,
      "Qh8": 1470,
      "Qa8": 1471,
      "Qxc8": 1472,
      "Qxe1": 1473,
      "hxg7": 1474,
      "xf5": 1475,
      " Nd1": 1476,
      " Nh4": 1477,
      " Nb1": 1478,
      " Nb2": 1479,
      " Nxd1": 1480,
      " Na8": 1481,
      " Nxb2": 1482,
      " Nxe8": 1483,
      " Bb1": 1484,
      " Bh7": 1485,
      " Bxd1": 1486,
      " Bxb1": 1487,
      " R2": 1488,
      " Qf1": 1489,
      " Qh7": 1490,
      " Qg8": 1491,
      " Qxe1": 1492,
      " Qxb1": 1493,
      " Ke2": 1494,
      " Kd3": 1495,
      " Kxe4": 1496,
      " Kb5": 1497,
      " Kxb6": 1498,
      " Ka8": 1499,
      " d2": 1500,
      " a1": 1501,
      "Rag1": 1502,
      "Bxa3": 1503,
      "Bxf1": 1504,
      " Rax": 1505,
      " Bxg7": 1506,
      " Bxf7": 1507,
      "Rxh3": 1508,
      "Rxh4": 1509,
      " Rxg4": 1510,
      " Rxg7": 1511,
      "Qxg7": 1512,
      "Qxa4": 1513,
      "Qxh3": 1514,
      "Qxh4": 1515,
      "Nxa3": 1516,
      "Nxh4": 1517,
      "Nxa6": 1518,
      "Nxh7": 1519,
      " Qxg6": 1520,
      " Qxf8": 1521,
      " Qxh5": 1522,
      " Qxh6": 1523,
      " Qxa8": 1524,
      " Nbxd7": 1525,
      " Nxh3": 1526,
      " Nxh4": 1527,
      " Nxf2": 1528,
      " Nxh5": 1529,
      " Nxf1": 1530,
      " Nxh2": 1531,
      " Nxa1": 1532,
      "Rfa1": 1533,
      " fxe3": 1534,
      " fxg2": 1535,
      " gxh3": 1536,
      " Kxh4": 1537,
      " Kxh6": 1538,
      " Kxg8": 1539,
      "Kxh4": 1540,
      " 86.": 1541,
      " 87.": 1542,
      "Nde4": 1543,
      " Nfd5": 1544,
      "Ree1": 1545,
      "Reb1": 1546,
      " bxa6": 1547,
      "Rce3": 1548,
      "Rce1": 1549,
      " Rce8": 1550,
      " Rca8": 1551,
      "Nce5": 1552,
      "Ncb5": 1553,
      " Rbe8": 1554,
      " Rbc8": 1555,
      " Rbf8": 1556,
      " Red8": 1557,
      " Ned7": 1558,
      " Nec6": 1559,
      "Nef3": 1560,
      "Nec3": 1561,
      " Ncd7": 1562,
      " Nce7": 1563,
      "Nfd4": 1564,
      "Nfd2": 1565,
      " Rgf8": 1566,
      " g1": 1567,
      "5b6": 1568,
      "Be8": 1569,
      "Bg8": 1570,
      "Bxb2": 1571,
      "Bh1": 1572,
      "Bxb8": 1573,
      "Ke8": 1574,
      "Kxe4": 1575,
      "Ka3": 1576,
      "Kf7": 1577,
      "Kxc5": 1578,
      "Kxc3": 1579,
      "Kh6": 1580,
      "Ka7": 1581,
      "Ka8": 1582,
      "N4": 1583,
      "N5": 1584,
      "Na": 1585,
      "Na6": 1586,
      "Nh8": 1587,
      "Nxd8": 1588,
      "Nxd1": 1589,
      "Nxe8": 1590,
      "Nxb8": 1591,
      "Qg8": 1592,
      "Qg1": 1593,
      "Qh2": 1594,
      "Qxc1": 1595,
      "Qxb1": 1596,
      "R6": 1597,
      "Rh5": 1598,
      "ac5": 1599,
      "bxc7": 1600,
      "dxc7": 1601,
      "exd7": 1602,
      "fxg7": 1603,
      " N7": 1604,
      " Nxd8": 1605,
      " Na2": 1606,
      " Nxb7": 1607,
      " Nxc7": 1608,
      " Nxe1": 1609,
      " Nxb8": 1610,
      " N5b6": 1611,
      " Nac5": 1612,
      " Bg3": 1613,
      " Bf2": 1614,
      " Bb2": 1615,
      " R4": 1616,
      " R6": 1617,
      " Qe2": 1618,
      " Qh8": 1619,
      " Qh1": 1620,
      " Kd2": 1621,
      " Kxd5": 1622,
      " Kb3": 1623,
      " Kb4": 1624,
      " Kh3": 1625,
      " Kxd6": 1626,
      " Kxe3": 1627,
      " Kxd3": 1628,
      " Kh2": 1629,
      " Kxe8": 1630,
      " cxb6": 1631,
      " cxb2": 1632,
      " e1": 1633,
      " exd3": 1634,
      " dxe3": 1635,
      " b2": 1636,
      "Raa8": 1637,
      "Raa1": 1638,
      "Bxg3": 1639,
      "Bxa4": 1640,
      "Bxg2": 1641,
      "Bxh4": 1642,
      "Bxh8": 1643,
      "Bxa2": 1644,
      "Bxa8": 1645,
      " Bxg6": 1646,
      " Bxf8": 1647,
      " Bxh8": 1648,
      " Bxa2": 1649,
      "Rxg4": 1650,
      "Rxg3": 1651,
      "Rxf2": 1652,
      "Rxh8": 1653,
      "Rxh2": 1654,
      "Rxh1": 1655,
      " Rxg6": 1656,
      " Rxh6": 1657,
      " Rxh1": 1658,
      "gxh7": 1659,
      "Qxg2": 1660,
      "Qxa1": 1661,
      "Nxf2": 1662,
      " Qxg3": 1663,
      " Qxa6": 1664,
      " Nbd5": 1665,
      " Nxg7": 1666,
      " Nxg8": 1667,
      " Nxa2": 1668,
      " Nxh1": 1669,
      " Rff8": 1670,
      " Kxf3": 1671,
      " Kxh3": 1672,
      " Kxh5": 1673,
      " Kxa6": 1674,
      "exf3": 1675,
      "Kxg6": 1676,
      "Kxg3": 1677,
      "Kxa3": 1678,
      "Kxf7": 1679,
      "Kxg1": 1680,
      "Kxh1": 1681,
      "Nbxd4": 1682,
      "Rhc1": 1683,
      "Rha1": 1684,
      "Rde2": 1685,
      "Rdf1": 1686,
      "Rdb2": 1687,
      "Rdh1": 1688,
      "Nge4": 1689,
      "Ngxe2": 1690,
      " Ngxe7": 1691,
      " 88.": 1692,
      "Nde3": 1693,
      "Nde5": 1694,
      "Ndxe4": 1695,
      " Rhb8": 1696,
      " Nfd4": 1697,
      " Nfe7": 1698,
      " Nfg4": 1699,
      " Nfxd5": 1700,
      "Ree7": 1701,
      "Red2": 1702,
      "Rec1": 1703,
      "Rea1": 1704,
      "Rcxb5": 1705,
      " Rdxd5": 1706,
      " Rdd8": 1707,
      " Rcd6": 1708,
      " Rcc7": 1709,
      " Rcc8": 1710,
      " Rcf8": 1711,
      "Nce3": 1712,
      "Rbb1": 1713,
      " Ndc5": 1714,
      " Ree2": 1715,
      " Ned4": 1716,
      "Ned4": 1717,
      "Ned2": 1718,
      "R1e2": 1719,
      "R1c2": 1720,
      "R1a2": 1721,
      " Ncxe5": 1722,
      "Nfg5": 1723,
      "R3e2": 1724,
      "R4d2": 1725,
      "R5d2": 1726,
      " N6d7": 1727,
      " N8d7": 1728,
      "Nhf3": 1729,
      " 9": 1730,
      " f1": 1731,
      "1e3": 1732,
      "3d2": 1733,
      "3a4": 1734,
      "7xe6": 1735,
      "8e7": 1736,
      "Bc8": 1737,
      "Bb8": 1738,
      "Bh8": 1739,
      "Kg6": 1740,
      "Kf8": 1741,
      "Kg8": 1742,
      "Kxb4": 1743,
      "Kxe6": 1744,
      "Kxb3": 1745,
      "Kxc7": 1746,
      "Kxc2": 1747,
      "Nb8": 1748,
      "Ng8": 1749,
      "Na7": 1750,
      "Nxc1": 1751,
      "Nxb1": 1752,
      "Nexf7": 1753,
      "N1e3": 1754,
      "N3d2": 1755,
      "Qd": 1756,
      "Qf8": 1757,
      "Qh7": 1758,
      "Qxe8": 1759,
      "Qh1": 1760,
      "Qxb8": 1761,
      "Rgx": 1762,
      "Rcxd5": 1763,
      "R7xe6": 1764,
      "R8e7": 1765,
      "bxc8": 1766,
      "fxe7": 1767,
      "xf6": 1768,
      "xf2": 1769,
      " Ng2": 1770,
      " Ne1": 1771,
      " Nc1": 1772,
      " Nf1": 1773,
      " Nxb5": 1774,
      " Nh8": 1775,
      " Nexd5": 1776,
      " Na1": 1777,
      " Ndxe5": 1778,
      " Nxc8": 1779,
      " Be1": 1780,
      " Bc1": 1781,
      " Bf1": 1782,
      " Bxb6": 1783,
      " Bxb7": 1784,
      " Bxc7": 1785,
      " Bxe8": 1786,
      " Bxc1": 1787,
      " R3a4": 1788,
      " Kxd4": 1789,
      " Ka4": 1790,
      " Ka3": 1791,
      " Ka5": 1792,
      " Kxc5": 1793,
      " Kxc4": 1794,
      " Kxc6": 1795,
      " Kb2": 1796,
      " Kg1": 1797,
      " Kxc8": 1798,
      " Kh1": 1799,
      " cxd2": 1800,
      " dxc2": 1801,
      " b1": 1802,
      " bxc2": 1803,
      " axb2": 1804,
      " hxg2": 1805,
      "Rag7": 1806,
      "Rac2": 1807,
      "Raf2": 1808,
      "Raxd1": 1809,
      "Rah1": 1810,
      "Bxh3": 1811,
      "Bxf2": 1812,
      "Bxa1": 1813,
      " Rab4": 1814,
      " Raa4": 1815,
      " Rab7": 1816,
      " Rag8": 1817,
      " Raxd8": 1818,
      " Raxb7": 1819,
      " Bxh7": 1820,
      " Bxa8": 1821,
      " Bxh1": 1822,
      " Rxa5": 1823,
      " Rxg8": 1824,
      "Kh7": 1825,
      "Qxh2": 1826,
      "Nxg3": 1827,
      "Nxg2": 1828,
      "Nxf1": 1829,
      "Nxg8": 1830,
      "Nxa8": 1831,
      " Qxf1": 1832,
      " Qxa7": 1833,
      " Nbc2": 1834,
      " Nba5": 1835,
      " Nbxd3": 1836,
      " Nxf8": 1837,
      " Nxa6": 1838,
      " Nxg1": 1839,
      "Rff6": 1840,
      "Rfd2": 1841,
      "Rfb3": 1842,
      "Rfe6": 1843,
      "Rfxd1": 1844,
      "Rfxf5": 1845,
      " Rff4": 1846,
      " Rfd6": 1847,
      " Rff1": 1848,
      " Rfxd8": 1849,
      " Rfxc8": 1850,
      " Rfxf5": 1851,
      " Rfxf2": 1852,
      " gxh2": 1853,
      " Kxf4": 1854,
      " Kxg5": 1855,
      " Kxg4": 1856,
      " Kxa4": 1857,
      " Kxa2": 1858,
      " Kxh1": 1859,
      "Kxf5": 1860,
      "Kxh5": 1861,
      "Kxh6": 1862,
      "Kxa6": 1863,
      "Nbd4": 1864,
      "Nbd3": 1865,
      "Nbd5": 1866,
      "Nbc7": 1867,
      "Nbc2": 1868,
      "Nbxd2": 1869,
      "Rhg5": 1870,
      "Rhd2": 1871,
      "Rhd6": 1872,
      "Rdf3": 1873,
      "Rdd4": 1874,
      "Rdc3": 1875,
      "Rdd7": 1876,
      "Rdd3": 1877,
      "Rdd6": 1878,
      "Rda3": 1879,
      "Rdc2": 1880,
      "Rdf2": 1881,
      "Rdb1": 1882,
      "Rdxc6": 1883,
      "Rda1": 1884,
      "Rdxc1": 1885,
      "Nge3": 1886,
      "Nge6": 1887,
      "Ngxe6": 1888,
      " Ngxe5": 1889,
      " 89.": 1890,
      "Ndc3": 1891,
      "Ndc4": 1892,
      "Ndb3": 1893,
      "Ndf2": 1894,
      "Ndf1": 1895,
      "Ndxb5": 1896,
      " Rhf6": 1897,
      " Rhc2": 1898,
      " Nfxd4": 1899,
      " Nfe6": 1900,
      " Nfxe4": 1901,
      " Nfxd3": 1902,
      "Rexe5": 1903,
      "Ref1": 1904,
      "Rexe3": 1905,
      "Rexe1": 1906,
      " bxa2": 1907,
      "Rcf3": 1908,
      "Rcd4": 1909,
      "Rcc7": 1910,
      "Rcc2": 1911,
      "Rcc8": 1912,
      "Rcb1": 1913,
      "Rcxe8": 1914,
      "Rch1": 1915,
      " Rdf6": 1916,
      " Rdd7": 1917,
      " Rde7": 1918,
      " Rdd2": 1919,
      " Rdc6": 1920,
      " Rdg7": 1921,
      " Rdd6": 1922,
      " Rdc7": 1923,
      " Rdb8": 1924,
      " Rdxd6": 1925,
      " Rda8": 1926,
      " Rdxf5": 1927,
      " Rcd7": 1928,
      " Rce7": 1929,
      " Rce6": 1930,
      " Rcb8": 1931,
      " Rcxd6": 1932,
      " Rcxe3": 1933,
      "Ncd4": 1934,
      "Nce4": 1935,
      "Nce6": 1936,
      "Ncxe5": 1937,
      "Ncd1": 1938,
      "Nca3": 1939,
      "Ncxd1": 1940,
      " Rbc3": 1941,
      " Rbd7": 1942,
      " Rbxd5": 1943,
      " Rbc7": 1944,
      " Rbf7": 1945,
      " Rbb2": 1946,
      " Rbg8": 1947,
      " Rbxb3": 1948,
      " Rbxb7": 1949,
      " Rba8": 1950,
      "Rbd2": 1951,
      "Rbc2": 1952,
      "Rbc1": 1953,
      "Rbg1": 1954,
      "Rbxe7": 1955,
      "Rba1": 1956,
      "Rbh1": 1957,
      " Ndc3": 1958,
      " Ndxf6": 1959,
      " Rec3": 1960,
      " Red7": 1961,
      " Ree7": 1962,
      " Rec7": 1963,
      " Ref8": 1964,
      " Reb8": 1965,
      " Nef3": 1966,
      " Nec4": 1967,
      " Ned5": 1968,
      " Ned6": 1969,
      " Nef7": 1970,
      "Neg5": 1971,
      "Ned5": 1972,
      "R1d3": 1973,
      "R1e6": 1974,
      "R1f2": 1975,
      "R1h5": 1976,
      "R1b7": 1977,
      "R1a6": 1978,
      " Ncd4": 1979,
      " Nce5": 1980,
      " Ncb8": 1981,
      " Ncxe7": 1982,
      "Nfe5": 1983,
      "Nfxd2": 1984,
      "Rgf5": 1985,
      "Rgd3": 1986,
      "Rgg6": 1987,
      "Rgc1": 1988,
      "Rgh1": 1989,
      " Rgf6": 1990,
      " Rgf5": 1991,
      " Rgg3": 1992,
      " Rgg2": 1993,
      " Rge8": 1994,
      " Rgd8": 1995,
      "R3c2": 1996,
      "R3f2": 1997,
      "R3b2": 1998,
      "R4h3": 1999,
      "R4a3": 2000,
      "R4c2": 2001,
      "R5e3": 2002,
      "R5a3": 2003,
      "R5xd2": 2004,
      " R8f6": 2005,
      " R8f5": 2006,
      " R8d7": 2007,
      " R8b3": 2008,
      " R8c7": 2009,
      " N6g5": 2010,
      " N6xd5": 2011,
      " N8e7": 2012,
      " N8c7": 2013,
      " Nhf6": 2014,
      " Nhf4": 2015,
      " Nhg5": 2016,
      " Nhg4": 2017,
      "N2f3": 2018,
      "N2c3": 2019,
      "N2b3": 2020,
      "Nhg6": 2021,
      " R2f5": 2022,
      " R2b4": 2023,
      " R2b6": 2024,
      " Raxa3": 2025,
      " Raxa2": 2026,
      " Raxa8": 2027,
      "N4g3": 2028,
      "N4b3": 2029,
      "N5f3": 2030,
      "N5c3": 2031,
      "Nab3": 2032,
      "Nac2": 2033,
      "R6d4": 2034,
      "R6e4": 2035,
      " N7c6": 2036,
      " N7c5": 2037,
      " R4b7": 2038,
      " R4xe7": 2039,
      " R6e7": 2040,
      " R6b7": 2041,
      " 90.": 2042,
      "Qdd5": 2043,
      "Rgxg7": 2044
    },
    "merges": [
      [
        " ",
        "1"
      ],
      [
        " ",
        "2"
      ],
      [
        " ",
        "N"
      ],
      [
        " ",
        "3"
      ],
      [
        " ",
        "B"
      ],
      [
        " ",
        "R"
      ],
      [
        "1",
        "."
      ],
      [
        " ",
        "Q"
      ],
      [
        "4",
        "."
      ],
      [
        "5",
        "."
      ],
      [
        "6",
        "."
      ],
      [
        "x",
        "d"
      ],
      [
        "7",
        "."
      ],
      [
        "8",
        "."
      ],
      [
        "9",
        "."
      ],
      [
        "0",
        "."
      ],
      [
        " ",
        "K"
      ],
      [
        "2",
        "."
      ],
      [
        "3",
        "."
      ],
      [
        " ",
        "4"
      ],
      [
        "x",
        "e"
      ],
      [
        "f",
        "6"
      ],
      [
        "x",
        "c"
      ],
      [
        "f",
        "3"
      ],
      [
        "<",
        "|"
      ],
      [
        "g",
        "_"
      ],
      [
        "|",
        ">"
      ],
      [
        "-",
        "O"
      ],
      [
        "O",
        "-O"
      ],
      [
        " ",
        "c"
      ],
      [
        "d",
        "4"
      ],
      [
        " ",
        "e"
      ],
      [
        "c",
        "3"
      ],
      [
        " ",
        "d"
      ],
      [
        "e",
        "4"
      ],
      [
        "f",
        "5"
      ],
      [
        "d",
        "7"
      ],
      [
        "f",
        "4"
      ],
      [
        "g",
        "5"
      ],
      [
        "x",
        "b"
      ],
      [
        " ",
        "5"
      ],
      [
        "e",
        "7"
      ],
      [
        "c",
        "4"
      ],
      [
        "xd",
        "4"
      ],
      [
        "e",
        "3"
      ],
      [
        "d",
        "2"
      ],
      [
        "g",
        "4"
      ],
      [
        "e",
        "2"
      ],
      [
        "d",
        "3"
      ],
      [
        "c",
        "6"
      ],
      [
        "g",
        "6"
      ],
      [
        " ",
        "b"
      ],
      [
        "xd",
        "5"
      ],
      [
        " ",
        "a"
      ],
      [
        "g",
        "3"
      ],
      [
        " N",
        "f6"
      ],
      [
        "N",
        "f3"
      ],
      [
        "a",
        "r"
      ],
      [
        "e",
        "n"
      ],
      [
        "s",
        "t"
      ],
      [
        "g_",
        "en"
      ],
      [
        "g_",
        "st"
      ],
      [
        "ar",
        "t"
      ],
      [
        "g_en",
        "d"
      ],
      [
        "g_st",
        "art"
      ],
      [
        " ",
        "4."
      ],
      [
        " ",
        "5."
      ],
      [
        " 2",
        "."
      ],
      [
        " 3",
        "."
      ],
      [
        " ",
        "6."
      ],
      [
        " ",
        "7."
      ],
      [
        " ",
        "8."
      ],
      [
        " ",
        "9."
      ],
      [
        " 1",
        "0."
      ],
      [
        " 1",
        "1."
      ],
      [
        " 1",
        "2."
      ],
      [
        " 1",
        "3."
      ],
      [
        " ",
        "h"
      ],
      [
        " 1",
        "4."
      ],
      [
        "g",
        "7"
      ],
      [
        "d",
        "5"
      ],
      [
        " 1",
        "5."
      ],
      [
        "e",
        "5"
      ],
      [
        " 1",
        "6."
      ],
      [
        " 1",
        "7."
      ],
      [
        " 1",
        "8."
      ],
      [
        "N",
        "c3"
      ],
      [
        "b",
        "3"
      ],
      [
        "c",
        "5"
      ],
      [
        " 1",
        "9."
      ],
      [
        " 2",
        "0."
      ],
      [
        " ",
        "O-O"
      ],
      [
        "e",
        "6"
      ],
      [
        " 2",
        "1."
      ],
      [
        "b",
        "4"
      ],
      [
        "xe",
        "5"
      ],
      [
        " 2",
        "2."
      ],
      [
        " 2",
        "3."
      ],
      [
        "a",
        "4"
      ],
      [
        "d",
        "6"
      ],
      [
        " 2",
        "4."
      ],
      [
        " 2",
        "5."
      ],
      [
        "g",
        "2"
      ],
      [
        "c",
        "7"
      ],
      [
        " 2",
        "6."
      ],
      [
        "e",
        "8"
      ],
      [
        "d",
        "1"
      ],
      [
        "h",
        "3"
      ],
      [
        " 2",
        "7."
      ],
      [
        "xe",
        "4"
      ],
      [
        "a",
        "3"
      ],
      [
        "e",
        "1"
      ],
      [
        "c",
        "2"
      ],
      [
        "h",
        "4"
      ],
      [
        " 2",
        "8."
      ],
      [
        "c",
        "8"
      ],
      [
        "d",
        "8"
      ],
      [
        " 2",
        "9."
      ],
      [
        " N",
        "c6"
      ],
      [
        " c",
        "5"
      ],
      [
        "f",
        "7"
      ],
      [
        "R",
        "a"
      ],
      [
        "f",
        "8"
      ],
      [
        " 3",
        "0."
      ],
      [
        "c",
        "1"
      ],
      [
        "b",
        "5"
      ],
      [
        "f",
        "2"
      ],
      [
        " 3",
        "1."
      ],
      [
        "b",
        "6"
      ],
      [
        "h",
        "5"
      ],
      [
        "a",
        "5"
      ],
      [
        " ",
        "6"
      ],
      [
        " 3",
        "2."
      ],
      [
        "f",
        "1"
      ],
      [
        " 3",
        "3."
      ],
      [
        " d",
        "5"
      ],
      [
        " e",
        "5"
      ],
      [
        "xc",
        "5"
      ],
      [
        "b",
        "7"
      ],
      [
        "B",
        "x"
      ],
      [
        " R",
        "a"
      ],
      [
        " 3",
        "4."
      ],
      [
        " e",
        "6"
      ],
      [
        " d",
        "6"
      ],
      [
        " B",
        "x"
      ],
      [
        "xc",
        "4"
      ],
      [
        "b",
        "8"
      ],
      [
        " 3",
        "5."
      ],
      [
        " B",
        "e7"
      ],
      [
        " ",
        "g6"
      ],
      [
        " 3",
        "6."
      ],
      [
        "xc",
        "3"
      ],
      [
        "b",
        "1"
      ],
      [
        " 3",
        "7."
      ],
      [
        "R",
        "x"
      ],
      [
        " R",
        "x"
      ],
      [
        "h",
        "6"
      ],
      [
        "B",
        "e3"
      ],
      [
        " 3",
        "8."
      ],
      [
        " a",
        "6"
      ],
      [
        "a",
        "6"
      ],
      [
        " 3",
        "9."
      ],
      [
        "xc",
        "6"
      ],
      [
        "b",
        "2"
      ],
      [
        " b",
        "5"
      ],
      [
        "g",
        "x"
      ],
      [
        " 4",
        "0."
      ],
      [
        " B",
        "g7"
      ],
      [
        " h",
        "6"
      ],
      [
        " ",
        "f5"
      ],
      [
        "xb",
        "5"
      ],
      [
        "B",
        "d3"
      ],
      [
        " c",
        "6"
      ],
      [
        "K",
        "h"
      ],
      [
        " 4",
        "1."
      ],
      [
        "h",
        "7"
      ],
      [
        "g",
        "8"
      ],
      [
        "xb",
        "4"
      ],
      [
        "Q",
        "x"
      ],
      [
        " a",
        "5"
      ],
      [
        " c",
        "xd4"
      ],
      [
        "B",
        "g2"
      ],
      [
        "N",
        "x"
      ],
      [
        " 4",
        "2."
      ],
      [
        "R",
        "e1"
      ],
      [
        " B",
        "d7"
      ],
      [
        " b",
        "6"
      ],
      [
        "h",
        "8"
      ],
      [
        " N",
        "d7"
      ],
      [
        " Q",
        "x"
      ],
      [
        "B",
        "e2"
      ],
      [
        "B",
        "g5"
      ],
      [
        "N",
        "xd4"
      ],
      [
        " Q",
        "c7"
      ],
      [
        " 4",
        "3."
      ],
      [
        " R",
        "e8"
      ],
      [
        "g",
        "1"
      ],
      [
        " N",
        "b"
      ],
      [
        "xd",
        "6"
      ],
      [
        "Q",
        "e2"
      ],
      [
        "Q",
        "d2"
      ],
      [
        " B",
        "b7"
      ],
      [
        " R",
        "c8"
      ],
      [
        " 4",
        "4."
      ],
      [
        "xe",
        "6"
      ],
      [
        " h",
        "5"
      ],
      [
        " ",
        "7"
      ],
      [
        " N",
        "x"
      ],
      [
        "R",
        "f"
      ],
      [
        "Q",
        "c2"
      ],
      [
        " B",
        "e6"
      ],
      [
        " 4",
        "5."
      ],
      [
        " Nb",
        "d7"
      ],
      [
        " ",
        "f"
      ],
      [
        " 4",
        "6."
      ],
      [
        " R",
        "f"
      ],
      [
        "xe",
        "7"
      ],
      [
        "xe",
        "3"
      ],
      [
        " ",
        "g5"
      ],
      [
        "R",
        "c1"
      ],
      [
        " R",
        "b8"
      ],
      [
        "xd",
        "7"
      ],
      [
        " K",
        "g7"
      ],
      [
        "xb",
        "3"
      ],
      [
        "B",
        "d2"
      ],
      [
        " ",
        "f6"
      ],
      [
        " 4",
        "7."
      ],
      [
        " ",
        "gx"
      ],
      [
        " K",
        "x"
      ],
      [
        "B",
        "f4"
      ],
      [
        "xd",
        "3"
      ],
      [
        "N",
        "d2"
      ],
      [
        "R",
        "d1"
      ],
      [
        " 4",
        "8."
      ],
      [
        "B",
        "b5"
      ],
      [
        " Q",
        "e7"
      ],
      [
        " R",
        "d8"
      ],
      [
        " K",
        "f7"
      ],
      [
        " N",
        "c5"
      ],
      [
        " B",
        "d6"
      ],
      [
        " K",
        "h8"
      ],
      [
        " 4",
        "9."
      ],
      [
        "a",
        "7"
      ],
      [
        "xd",
        "2"
      ],
      [
        "xb",
        "6"
      ],
      [
        "N",
        "d5"
      ],
      [
        "c",
        "xd5"
      ],
      [
        " B",
        "b4"
      ],
      [
        "xd",
        "8"
      ],
      [
        " 5",
        "0."
      ],
      [
        "K",
        "f2"
      ],
      [
        "B",
        "c4"
      ],
      [
        "K",
        "g2"
      ],
      [
        "a",
        "2"
      ],
      [
        "e",
        "x"
      ],
      [
        " N",
        "e4"
      ],
      [
        " B",
        "g4"
      ],
      [
        " Q",
        "b6"
      ],
      [
        "Kh",
        "2"
      ],
      [
        "B",
        "b2"
      ],
      [
        "xe",
        "2"
      ],
      [
        " 5",
        "1."
      ],
      [
        " Q",
        "d7"
      ],
      [
        "K",
        "e2"
      ],
      [
        "N",
        "d4"
      ],
      [
        "K",
        "x"
      ],
      [
        "N",
        "e2"
      ],
      [
        " N",
        "e7"
      ],
      [
        "Kh",
        "1"
      ],
      [
        "Q",
        "d3"
      ],
      [
        " K",
        "e7"
      ],
      [
        "R",
        "b1"
      ],
      [
        " N",
        "b6"
      ],
      [
        " N",
        "d5"
      ],
      [
        " N",
        "e5"
      ],
      [
        " B",
        "c5"
      ],
      [
        " 5",
        "2."
      ],
      [
        "K",
        "f3"
      ],
      [
        " K",
        "f8"
      ],
      [
        "x",
        "g5"
      ],
      [
        "Ra",
        "d1"
      ],
      [
        "K",
        "e3"
      ],
      [
        "N",
        "e4"
      ],
      [
        " Q",
        "a5"
      ],
      [
        "e",
        "xd5"
      ],
      [
        " K",
        "g8"
      ],
      [
        " 5",
        "3."
      ],
      [
        "Q",
        "b3"
      ],
      [
        "xd",
        "1"
      ],
      [
        " 5",
        "4."
      ],
      [
        "K",
        "f1"
      ],
      [
        "N",
        "e5"
      ],
      [
        "xb",
        "7"
      ],
      [
        "a",
        "8"
      ],
      [
        "h",
        "2"
      ],
      [
        " K",
        "d7"
      ],
      [
        "a",
        "1"
      ],
      [
        " B",
        "f5"
      ],
      [
        " R",
        "d7"
      ],
      [
        " b",
        "4"
      ],
      [
        "N",
        "b"
      ],
      [
        " K",
        "e6"
      ],
      [
        "Bx",
        "f6"
      ],
      [
        "d",
        "xe5"
      ],
      [
        " 5",
        "5."
      ],
      [
        "B",
        "b3"
      ],
      [
        "R",
        "d2"
      ],
      [
        " K",
        "h7"
      ],
      [
        " e",
        "x"
      ],
      [
        "Q",
        "f3"
      ],
      [
        "Q",
        "e3"
      ],
      [
        " N",
        "xd5"
      ],
      [
        " e",
        "xd5"
      ],
      [
        " Q",
        "d6"
      ],
      [
        " 5",
        "6."
      ],
      [
        "N",
        "xe4"
      ],
      [
        "xc",
        "7"
      ],
      [
        "xb",
        "2"
      ],
      [
        "Nb",
        "d2"
      ],
      [
        " R",
        "f8"
      ],
      [
        "xc",
        "2"
      ],
      [
        " d",
        "xe4"
      ],
      [
        "K",
        "d3"
      ],
      [
        "N",
        "b3"
      ],
      [
        "R",
        "h"
      ],
      [
        "R",
        "f1"
      ],
      [
        " K",
        "d6"
      ],
      [
        " 5",
        "7."
      ],
      [
        " a",
        "4"
      ],
      [
        "N",
        "xe5"
      ],
      [
        "x",
        "g4"
      ],
      [
        " N",
        "d4"
      ],
      [
        " N",
        "g4"
      ],
      [
        " Q",
        "f6"
      ],
      [
        " K",
        "f6"
      ],
      [
        " B",
        "f6"
      ],
      [
        "O-O",
        "-O"
      ],
      [
        " e",
        "xd4"
      ],
      [
        " d",
        "xc4"
      ],
      [
        "B",
        "c2"
      ],
      [
        "R",
        "d3"
      ],
      [
        "N",
        "g5"
      ],
      [
        " N",
        "xe5"
      ],
      [
        " N",
        "h5"
      ],
      [
        " B",
        "f8"
      ],
      [
        " c",
        "4"
      ],
      [
        " e",
        "4"
      ],
      [
        " 5",
        "8."
      ],
      [
        "B",
        "f3"
      ],
      [
        "b",
        "xc3"
      ],
      [
        " N",
        "a6"
      ],
      [
        " B",
        "c6"
      ],
      [
        " c",
        "xd5"
      ],
      [
        " 5",
        "9."
      ],
      [
        "K",
        "d2"
      ],
      [
        "K",
        "g1"
      ],
      [
        "N",
        "g3"
      ],
      [
        "R",
        "d"
      ],
      [
        " N",
        "c4"
      ],
      [
        " N",
        "e6"
      ],
      [
        " N",
        "xe4"
      ],
      [
        " d",
        "xe5"
      ],
      [
        "B",
        "f1"
      ],
      [
        "K",
        "d4"
      ],
      [
        "d",
        "xc5"
      ],
      [
        "B",
        "e4"
      ],
      [
        "N",
        "g"
      ],
      [
        "N",
        "e3"
      ],
      [
        " N",
        "g"
      ],
      [
        "B",
        "d4"
      ],
      [
        "K",
        "c3"
      ],
      [
        " N",
        "b4"
      ],
      [
        "N",
        "c4"
      ],
      [
        "N",
        "a4"
      ],
      [
        " B",
        "xc3"
      ],
      [
        "xc",
        "8"
      ],
      [
        " h",
        "4"
      ],
      [
        " R",
        "c7"
      ],
      [
        " Q",
        "d8"
      ],
      [
        " K",
        "g6"
      ],
      [
        "xe",
        "8"
      ],
      [
        "N",
        "f5"
      ],
      [
        "N",
        "f4"
      ],
      [
        "Q",
        "h5"
      ],
      [
        "f",
        "xe5"
      ],
      [
        " Ra",
        "d8"
      ],
      [
        " Bx",
        "f6"
      ],
      [
        "Rf",
        "e1"
      ],
      [
        "ex",
        "f5"
      ],
      [
        " ",
        "f4"
      ],
      [
        " ",
        "g4"
      ],
      [
        "B",
        "xc4"
      ],
      [
        "N",
        "b5"
      ],
      [
        "R",
        "e2"
      ],
      [
        "c",
        "xd4"
      ],
      [
        " R",
        "g8"
      ],
      [
        " K",
        "c7"
      ],
      [
        "Ra",
        "c1"
      ],
      [
        " 6",
        "0."
      ],
      [
        " Ra",
        "c8"
      ],
      [
        "Rf",
        "d1"
      ],
      [
        " ",
        "8"
      ],
      [
        "N",
        "d"
      ],
      [
        "x",
        "g6"
      ],
      [
        " N",
        "c7"
      ],
      [
        " Ra",
        "8"
      ],
      [
        "B",
        "xc6"
      ],
      [
        "N",
        "d3"
      ],
      [
        "N",
        "c5"
      ],
      [
        "Q",
        "a4"
      ],
      [
        "x",
        "g3"
      ],
      [
        " N",
        "xd4"
      ],
      [
        " R",
        "c2"
      ],
      [
        " 6",
        "1."
      ],
      [
        "Q",
        "e1"
      ],
      [
        " N",
        "f5"
      ],
      [
        " R",
        "h"
      ],
      [
        " Q",
        "c6"
      ],
      [
        " ",
        "d4"
      ],
      [
        "B",
        "g3"
      ],
      [
        "N",
        "xd5"
      ],
      [
        " N",
        "f4"
      ],
      [
        " N",
        "d6"
      ],
      [
        " N",
        "a5"
      ],
      [
        " b",
        "xc6"
      ],
      [
        " 6",
        "2."
      ],
      [
        " Rf",
        "e8"
      ],
      [
        "B",
        "f2"
      ],
      [
        " Q",
        "g5"
      ],
      [
        " Bx",
        "f3"
      ],
      [
        "K",
        "b1"
      ],
      [
        " N",
        "f"
      ],
      [
        " N",
        "f8"
      ],
      [
        " B",
        "xd5"
      ],
      [
        " B",
        "a6"
      ],
      [
        " R",
        "e6"
      ],
      [
        " Q",
        "e6"
      ],
      [
        " Q",
        "c8"
      ],
      [
        " K",
        "e5"
      ],
      [
        "B",
        "c1"
      ],
      [
        "R",
        "c2"
      ],
      [
        " B",
        "xd4"
      ],
      [
        " B",
        "d5"
      ],
      [
        " R",
        "e7"
      ],
      [
        "Ra",
        "1"
      ],
      [
        " Rf",
        "d8"
      ],
      [
        "B",
        "h4"
      ],
      [
        "Q",
        "g4"
      ],
      [
        "Q",
        "f2"
      ],
      [
        "R",
        "g1"
      ],
      [
        "a",
        "xb4"
      ],
      [
        " R",
        "f7"
      ],
      [
        " R",
        "b2"
      ],
      [
        "Ng",
        "e2"
      ],
      [
        "B",
        "c3"
      ],
      [
        "B",
        "d5"
      ],
      [
        "K",
        "e4"
      ],
      [
        "K",
        "g3"
      ],
      [
        "R",
        "c7"
      ],
      [
        "b",
        "x"
      ],
      [
        " N",
        "g6"
      ],
      [
        " K",
        "c6"
      ],
      [
        " K",
        "e8"
      ],
      [
        "xe",
        "1"
      ],
      [
        "xc",
        "1"
      ],
      [
        "B",
        "xd5"
      ],
      [
        "N",
        "d6"
      ],
      [
        "R",
        "e"
      ],
      [
        " B",
        "d4"
      ],
      [
        " b",
        "x"
      ],
      [
        " h",
        "xg5"
      ],
      [
        " 6",
        "3."
      ],
      [
        "Q",
        "c4"
      ],
      [
        "Q",
        "d1"
      ],
      [
        " N",
        "e8"
      ],
      [
        " N",
        "xc3"
      ],
      [
        " B",
        "e8"
      ],
      [
        " Q",
        "g6"
      ],
      [
        " K",
        "f5"
      ],
      [
        " a",
        "xb5"
      ],
      [
        "Ra",
        "7"
      ],
      [
        " f",
        "xe4"
      ],
      [
        " gx",
        "f5"
      ],
      [
        " ex",
        "f4"
      ],
      [
        "B",
        "xd4"
      ],
      [
        "B",
        "c5"
      ],
      [
        "B",
        "xe4"
      ],
      [
        "N",
        "xc6"
      ],
      [
        "Q",
        "e4"
      ],
      [
        "R",
        "c"
      ],
      [
        "R",
        "e3"
      ],
      [
        "R",
        "f2"
      ],
      [
        "R",
        "b7"
      ],
      [
        " N",
        "d3"
      ],
      [
        " B",
        "xc5"
      ],
      [
        " R",
        "d"
      ],
      [
        " R",
        "d6"
      ],
      [
        " Q",
        "xd5"
      ],
      [
        " K",
        "d5"
      ],
      [
        " a",
        "xb4"
      ],
      [
        " O-O",
        "-O"
      ],
      [
        " 6",
        "4."
      ],
      [
        "R",
        "d7"
      ],
      [
        " B",
        "xe5"
      ],
      [
        " R",
        "c"
      ],
      [
        " R",
        "c6"
      ],
      [
        " Q",
        "h4"
      ],
      [
        "B",
        "a4"
      ],
      [
        "B",
        "a3"
      ],
      [
        "N",
        "c2"
      ],
      [
        "N",
        "h4"
      ],
      [
        "N",
        "f1"
      ],
      [
        "Q",
        "f4"
      ],
      [
        " B",
        "g6"
      ],
      [
        " B",
        "e5"
      ],
      [
        " B",
        "h6"
      ],
      [
        " R",
        "f6"
      ],
      [
        " R",
        "c5"
      ],
      [
        " Q",
        "d5"
      ],
      [
        " 6",
        "5."
      ],
      [
        " Ng",
        "e7"
      ],
      [
        "B",
        "xe7"
      ],
      [
        "N",
        "c"
      ],
      [
        "Q",
        "d4"
      ],
      [
        "Q",
        "xd5"
      ],
      [
        "Q",
        "g3"
      ],
      [
        "Q",
        "h4"
      ],
      [
        "R",
        "d5"
      ],
      [
        "R",
        "b6"
      ],
      [
        " B",
        "b6"
      ],
      [
        " Q",
        "f5"
      ],
      [
        " Q",
        "c5"
      ],
      [
        " Q",
        "f7"
      ],
      [
        " K",
        "g5"
      ],
      [
        " 6",
        "6."
      ],
      [
        " Ra",
        "2"
      ],
      [
        "Q",
        "c3"
      ],
      [
        "Q",
        "xd4"
      ],
      [
        "R",
        "c5"
      ],
      [
        "R",
        "d8"
      ],
      [
        " N",
        "b8"
      ],
      [
        " B",
        "d8"
      ],
      [
        " Q",
        "e5"
      ],
      [
        " Q",
        "e8"
      ],
      [
        "Ra",
        "b1"
      ],
      [
        "Bx",
        "g7"
      ],
      [
        "B",
        "h6"
      ],
      [
        "K",
        "g4"
      ],
      [
        "N",
        "f6"
      ],
      [
        "R",
        "d4"
      ],
      [
        "R",
        "xd8"
      ],
      [
        "e",
        "xd4"
      ],
      [
        " B",
        "c8"
      ],
      [
        " R",
        "c3"
      ],
      [
        " Q",
        "b7"
      ],
      [
        " Q",
        "b8"
      ],
      [
        " b",
        "xc5"
      ],
      [
        "Nx",
        "f6"
      ],
      [
        " Kx",
        "g7"
      ],
      [
        "B",
        "e5"
      ],
      [
        "B",
        "xc5"
      ],
      [
        "N",
        "e1"
      ],
      [
        "Q",
        "b1"
      ],
      [
        " N",
        "g5"
      ],
      [
        " R",
        "a3"
      ],
      [
        " b",
        "xc4"
      ],
      [
        " gx",
        "f6"
      ],
      [
        "K",
        "c4"
      ],
      [
        "N",
        "e6"
      ],
      [
        "R",
        "e7"
      ],
      [
        " N",
        "h7"
      ],
      [
        " B",
        "h5"
      ],
      [
        " R",
        "b"
      ],
      [
        " Q",
        "xe5"
      ],
      [
        " Q",
        "h5"
      ],
      [
        " K",
        "d8"
      ],
      [
        " d",
        "xc5"
      ],
      [
        "Ra",
        "6"
      ],
      [
        " 6",
        "7."
      ],
      [
        " Bx",
        "f5"
      ],
      [
        "Rf",
        "c1"
      ],
      [
        " f",
        "xe5"
      ],
      [
        "B",
        "g4"
      ],
      [
        "K",
        "f4"
      ],
      [
        "N",
        "g4"
      ],
      [
        "N",
        "a3"
      ],
      [
        "Q",
        "xe4"
      ],
      [
        "Q",
        "xd3"
      ],
      [
        "R",
        "f3"
      ],
      [
        "R",
        "c3"
      ],
      [
        "R",
        "c4"
      ],
      [
        "R",
        "c6"
      ],
      [
        "h",
        "1"
      ],
      [
        " N",
        "c8"
      ],
      [
        " B",
        "xe4"
      ],
      [
        " B",
        "xe2"
      ],
      [
        " R",
        "g6"
      ],
      [
        " R",
        "e5"
      ],
      [
        " R",
        "c1"
      ],
      [
        " Q",
        "xe7"
      ],
      [
        "Ra",
        "8"
      ],
      [
        "Ra",
        "e1"
      ],
      [
        "Bx",
        "f5"
      ],
      [
        " Ra",
        "6"
      ],
      [
        " f",
        "xe6"
      ],
      [
        " Rf",
        "c8"
      ],
      [
        "ex",
        "f6"
      ],
      [
        "B",
        "xe6"
      ],
      [
        "K",
        "b4"
      ],
      [
        "K",
        "c2"
      ],
      [
        "N",
        "xc5"
      ],
      [
        "Q",
        "g2"
      ],
      [
        "R",
        "g3"
      ],
      [
        "a",
        "xb5"
      ],
      [
        "b",
        "xc5"
      ],
      [
        "h",
        "xg5"
      ],
      [
        " N",
        "c3"
      ],
      [
        " R",
        "d2"
      ],
      [
        " R",
        "b3"
      ],
      [
        " R",
        "a5"
      ],
      [
        " R",
        "xc3"
      ],
      [
        " R",
        "xd1"
      ],
      [
        " Q",
        "d2"
      ],
      [
        "xb",
        "1"
      ],
      [
        " h",
        "3"
      ],
      [
        " 6",
        "8."
      ],
      [
        " Ra",
        "7"
      ],
      [
        " Ra",
        "b8"
      ],
      [
        " Qx",
        "f6"
      ],
      [
        " Nf",
        "d7"
      ],
      [
        "B",
        "xe5"
      ],
      [
        "B",
        "d6"
      ],
      [
        "K",
        "c5"
      ],
      [
        "K",
        "e1"
      ],
      [
        "N",
        "c6"
      ],
      [
        "N",
        "h3"
      ],
      [
        "Q",
        "g5"
      ],
      [
        "Q",
        "h3"
      ],
      [
        "Q",
        "c1"
      ],
      [
        "R",
        "xd5"
      ],
      [
        "R",
        "b8"
      ],
      [
        "R",
        "xc3"
      ],
      [
        " N",
        "e3"
      ],
      [
        " N",
        "f7"
      ],
      [
        " B",
        "g5"
      ],
      [
        " B",
        "c7"
      ],
      [
        " R",
        "b7"
      ],
      [
        " R",
        "h8"
      ],
      [
        " K",
        "e4"
      ],
      [
        " a",
        "3"
      ],
      [
        "Ra",
        "5"
      ],
      [
        "Bx",
        "f3"
      ],
      [
        "Qx",
        "f3"
      ],
      [
        " gx",
        "f4"
      ],
      [
        "Rh",
        "1"
      ],
      [
        "Q",
        "xc4"
      ],
      [
        "R",
        "c8"
      ],
      [
        "R",
        "xd1"
      ],
      [
        "h",
        "xg4"
      ],
      [
        " N",
        "f3"
      ],
      [
        " B",
        "c4"
      ],
      [
        " B",
        "d3"
      ],
      [
        " B",
        "b3"
      ],
      [
        " B",
        "xe3"
      ],
      [
        " R",
        "d3"
      ],
      [
        " R",
        "xc4"
      ],
      [
        " Q",
        "f4"
      ],
      [
        " K",
        "b8"
      ],
      [
        " h",
        "xg6"
      ],
      [
        "Bx",
        "g5"
      ],
      [
        " Rx",
        "a2"
      ],
      [
        "gx",
        "f5"
      ],
      [
        "B",
        "h3"
      ],
      [
        "B",
        "xd6"
      ],
      [
        "B",
        "xb7"
      ],
      [
        "K",
        "b3"
      ],
      [
        "N",
        "f2"
      ],
      [
        "Q",
        "b4"
      ],
      [
        "Q",
        "a3"
      ],
      [
        "Q",
        "b5"
      ],
      [
        "Q",
        "xd8"
      ],
      [
        "R",
        "d6"
      ],
      [
        "a",
        "xb3"
      ],
      [
        "c",
        "xb5"
      ],
      [
        "d",
        "xe4"
      ],
      [
        " B",
        "xc4"
      ],
      [
        " R",
        "xd5"
      ],
      [
        " R",
        "g7"
      ],
      [
        " R",
        "f2"
      ],
      [
        " R",
        "b1"
      ],
      [
        " Q",
        "xd4"
      ],
      [
        " Q",
        "b4"
      ],
      [
        " Q",
        "xd6"
      ],
      [
        " K",
        "c5"
      ],
      [
        " K",
        "b7"
      ],
      [
        "xb",
        "8"
      ],
      [
        " 6",
        "9."
      ],
      [
        " Bx",
        "g2"
      ],
      [
        " Rx",
        "f2"
      ],
      [
        "gx",
        "f4"
      ],
      [
        " 7",
        "0."
      ],
      [
        "B",
        "d1"
      ],
      [
        "B",
        "xb5"
      ],
      [
        "N",
        "xe6"
      ],
      [
        "Q",
        "xc5"
      ],
      [
        "R",
        "f4"
      ],
      [
        "R",
        "xd4"
      ],
      [
        "R",
        "xe4"
      ],
      [
        "R",
        "a3"
      ],
      [
        "R",
        "xc5"
      ],
      [
        "R",
        "h8"
      ],
      [
        "R",
        "xd7"
      ],
      [
        "R",
        "xe8"
      ],
      [
        " N",
        "h6"
      ],
      [
        " B",
        "f7"
      ],
      [
        " R",
        "a4"
      ],
      [
        " R",
        "g2"
      ],
      [
        " R",
        "b6"
      ],
      [
        " R",
        "xe3"
      ],
      [
        " Q",
        "g7"
      ],
      [
        " h",
        "xg4"
      ],
      [
        "Rx",
        "f7"
      ],
      [
        " Rx",
        "f5"
      ],
      [
        " 7",
        "1."
      ],
      [
        " 7",
        "2."
      ],
      [
        "Kx",
        "g2"
      ],
      [
        " ",
        "f3"
      ],
      [
        "B",
        "b6"
      ],
      [
        "B",
        "xd7"
      ],
      [
        "K",
        "h3"
      ],
      [
        "R",
        "b"
      ],
      [
        "R",
        "b3"
      ],
      [
        "R",
        "f7"
      ],
      [
        "R",
        "b2"
      ],
      [
        "R",
        "xd6"
      ],
      [
        "R",
        "xb7"
      ],
      [
        "b",
        "xc4"
      ],
      [
        "f",
        "xe4"
      ],
      [
        "f",
        "xe3"
      ],
      [
        " N",
        "xd7"
      ],
      [
        " N",
        "xd3"
      ],
      [
        " B",
        "c3"
      ],
      [
        " B",
        "e4"
      ],
      [
        " B",
        "f4"
      ],
      [
        " B",
        "c2"
      ],
      [
        " B",
        "b5"
      ],
      [
        " R",
        "e2"
      ],
      [
        " R",
        "b4"
      ],
      [
        " R",
        "xd8"
      ],
      [
        " Q",
        "d4"
      ],
      [
        " Q",
        "f8"
      ],
      [
        " Q",
        "b5"
      ],
      [
        " Q",
        "xc5"
      ],
      [
        " Q",
        "h6"
      ],
      [
        " a",
        "xb6"
      ],
      [
        "Rx",
        "f5"
      ],
      [
        " Ng",
        "f6"
      ],
      [
        "B",
        "b4"
      ],
      [
        "K",
        "e5"
      ],
      [
        "K",
        "c1"
      ],
      [
        "K",
        "b2"
      ],
      [
        "N",
        "xb5"
      ],
      [
        "h",
        "xg3"
      ],
      [
        " N",
        "d"
      ],
      [
        " N",
        "xc5"
      ],
      [
        " N",
        "xb3"
      ],
      [
        " B",
        "xc6"
      ],
      [
        " B",
        "xb5"
      ],
      [
        " R",
        "e"
      ],
      [
        " R",
        "b5"
      ],
      [
        " R",
        "xc5"
      ],
      [
        " R",
        "xb2"
      ],
      [
        " R",
        "xc2"
      ],
      [
        " Q",
        "c4"
      ],
      [
        " Q",
        "c2"
      ],
      [
        " c",
        "3"
      ],
      [
        " c",
        "xb4"
      ],
      [
        " e",
        "3"
      ],
      [
        " b",
        "3"
      ],
      [
        "Ra",
        "2"
      ],
      [
        " Ra",
        "1"
      ],
      [
        " Bx",
        "g5"
      ],
      [
        "Nx",
        "f5"
      ],
      [
        " 7",
        "3."
      ],
      [
        "B",
        "f6"
      ],
      [
        "B",
        "e6"
      ],
      [
        "B",
        "b1"
      ],
      [
        "B",
        "xb4"
      ],
      [
        "N",
        "xc4"
      ],
      [
        "Q",
        "f5"
      ],
      [
        "Q",
        "xc3"
      ],
      [
        "Q",
        "b2"
      ],
      [
        "Q",
        "xd6"
      ],
      [
        "Q",
        "xe3"
      ],
      [
        "R",
        "e4"
      ],
      [
        "R",
        "xe5"
      ],
      [
        "R",
        "a4"
      ],
      [
        "R",
        "h3"
      ],
      [
        "f",
        "xg5"
      ],
      [
        " B",
        "xd2"
      ],
      [
        " R",
        "c4"
      ],
      [
        " R",
        "h6"
      ],
      [
        " R",
        "xe7"
      ],
      [
        " Q",
        "g4"
      ],
      [
        " Q",
        "xe4"
      ],
      [
        " Q",
        "xc3"
      ],
      [
        " Q",
        "a6"
      ],
      [
        " d",
        "3"
      ],
      [
        "Bx",
        "a6"
      ],
      [
        "Rx",
        "g7"
      ],
      [
        "Nx",
        "g6"
      ],
      [
        " Qx",
        "f5"
      ],
      [
        " Kx",
        "f7"
      ],
      [
        " ex",
        "f5"
      ],
      [
        "Re",
        "d1"
      ],
      [
        "N",
        "b4"
      ],
      [
        "N",
        "d1"
      ],
      [
        "N",
        "c1"
      ],
      [
        "N",
        "xd6"
      ],
      [
        "N",
        "xd7"
      ],
      [
        "N",
        "xd2"
      ],
      [
        "Q",
        "d5"
      ],
      [
        "Q",
        "e6"
      ],
      [
        "Q",
        "d6"
      ],
      [
        "Q",
        "h6"
      ],
      [
        "Q",
        "xe2"
      ],
      [
        "R",
        "xe7"
      ],
      [
        "R",
        "xb6"
      ],
      [
        " N",
        "e"
      ],
      [
        " N",
        "b5"
      ],
      [
        " N",
        "a7"
      ],
      [
        " B",
        "xd6"
      ],
      [
        " R",
        "xe5"
      ],
      [
        " R",
        "xd2"
      ],
      [
        " Q",
        "e4"
      ],
      [
        " Q",
        "xb2"
      ],
      [
        " K",
        "d4"
      ],
      [
        " K",
        "b6"
      ],
      [
        " K",
        "h5"
      ],
      [
        " K",
        "h6"
      ],
      [
        " Rx",
        "f6"
      ],
      [
        "gx",
        "f3"
      ],
      [
        "Qx",
        "f6"
      ],
      [
        "Qx",
        "g5"
      ],
      [
        "Qx",
        "a7"
      ],
      [
        "Nx",
        "f4"
      ],
      [
        "Nx",
        "g5"
      ],
      [
        " Qx",
        "g5"
      ],
      [
        " ",
        "g3"
      ],
      [
        "B",
        "f5"
      ],
      [
        "B",
        "c7"
      ],
      [
        "B",
        "e1"
      ],
      [
        "N",
        "e"
      ],
      [
        "N",
        "g6"
      ],
      [
        "Q",
        "e5"
      ],
      [
        "Q",
        "c5"
      ],
      [
        "Q",
        "xe5"
      ],
      [
        "Q",
        "c7"
      ],
      [
        "Q",
        "a5"
      ],
      [
        "Q",
        "xd2"
      ],
      [
        "R",
        "1"
      ],
      [
        "R",
        "xc4"
      ],
      [
        "R",
        "xc6"
      ],
      [
        "R",
        "h7"
      ],
      [
        "R",
        "xc8"
      ],
      [
        " N",
        "c"
      ],
      [
        " N",
        "g7"
      ],
      [
        " B",
        "f3"
      ],
      [
        " B",
        "h3"
      ],
      [
        " R",
        "f3"
      ],
      [
        " R",
        "g5"
      ],
      [
        " R",
        "xd4"
      ],
      [
        " R",
        "d5"
      ],
      [
        " R",
        "xe4"
      ],
      [
        " R",
        "h7"
      ],
      [
        " R",
        "xe1"
      ],
      [
        " Q",
        "d3"
      ],
      [
        " Q",
        "xd7"
      ],
      [
        " K",
        "g4"
      ],
      [
        " K",
        "xd8"
      ],
      [
        " d",
        "xc3"
      ],
      [
        "Bx",
        "f4"
      ],
      [
        " Ra",
        "e8"
      ],
      [
        " Bx",
        "f1"
      ],
      [
        "Rx",
        "f6"
      ],
      [
        " Rx",
        "f4"
      ],
      [
        " 7",
        "4."
      ],
      [
        " 7",
        "5."
      ],
      [
        " Nx",
        "f3"
      ],
      [
        " f",
        "xg4"
      ],
      [
        " ex",
        "f3"
      ],
      [
        "Nd",
        "b5"
      ],
      [
        " bx",
        "a4"
      ],
      [
        "B",
        "e7"
      ],
      [
        "B",
        "g6"
      ],
      [
        "B",
        "xd3"
      ],
      [
        "K",
        "f5"
      ],
      [
        "K",
        "d5"
      ],
      [
        "K",
        "d1"
      ],
      [
        "N",
        "e7"
      ],
      [
        "N",
        "h5"
      ],
      [
        "N",
        "a5"
      ],
      [
        "R",
        "e5"
      ],
      [
        "R",
        "e6"
      ],
      [
        "R",
        "g2"
      ],
      [
        "R",
        "e8"
      ],
      [
        "R",
        "f8"
      ],
      [
        "R",
        "xd2"
      ],
      [
        "c",
        "xb4"
      ],
      [
        "c",
        "xd6"
      ],
      [
        " N",
        "xd2"
      ],
      [
        " B",
        "d2"
      ],
      [
        " B",
        "xd3"
      ],
      [
        " R",
        "d4"
      ],
      [
        " R",
        "f5"
      ],
      [
        " R",
        "e3"
      ],
      [
        " R",
        "d1"
      ],
      [
        " R",
        "xb5"
      ],
      [
        " R",
        "xb3"
      ],
      [
        " Q",
        "c3"
      ],
      [
        " Q",
        "c1"
      ],
      [
        " Q",
        "xc6"
      ],
      [
        " Q",
        "b2"
      ],
      [
        " Q",
        "xb5"
      ],
      [
        " K",
        "f4"
      ],
      [
        " c",
        "xb3"
      ],
      [
        " d",
        "xc6"
      ],
      [
        "Bx",
        "h6"
      ],
      [
        " Bx",
        "f4"
      ],
      [
        "Rx",
        "a1"
      ],
      [
        "Qx",
        "a5"
      ],
      [
        " Qx",
        "a2"
      ],
      [
        " 7",
        "6."
      ],
      [
        " Nx",
        "f5"
      ],
      [
        " Nx",
        "g3"
      ],
      [
        "Rf",
        "b1"
      ],
      [
        " f",
        "xg3"
      ],
      [
        "ex",
        "f4"
      ],
      [
        "B",
        "c6"
      ],
      [
        "B",
        "b7"
      ],
      [
        "B",
        "a2"
      ],
      [
        "N",
        "f"
      ],
      [
        "N",
        "d7"
      ],
      [
        "N",
        "xe7"
      ],
      [
        "N",
        "h2"
      ],
      [
        "Q",
        "c6"
      ],
      [
        "Q",
        "f7"
      ],
      [
        "Q",
        "f1"
      ],
      [
        "R",
        "g6"
      ],
      [
        "R",
        "xe6"
      ],
      [
        "R",
        "xc7"
      ],
      [
        "d",
        "xc6"
      ],
      [
        "h",
        "xg6"
      ],
      [
        " N",
        "d2"
      ],
      [
        " N",
        "a4"
      ],
      [
        " N",
        "d8"
      ],
      [
        " N",
        "b7"
      ],
      [
        " N",
        "xc4"
      ],
      [
        " N",
        "g8"
      ],
      [
        " N",
        "xb4"
      ],
      [
        " B",
        "a4"
      ],
      [
        " B",
        "a3"
      ],
      [
        " B",
        "a7"
      ],
      [
        " B",
        "xb2"
      ],
      [
        " R",
        "e1"
      ],
      [
        " R",
        "xb4"
      ],
      [
        " R",
        "xe2"
      ],
      [
        " R",
        "h2"
      ],
      [
        " Q",
        "xc4"
      ],
      [
        " Q",
        "b1"
      ],
      [
        " Q",
        "xb4"
      ],
      [
        " Q",
        "xe6"
      ],
      [
        " Q",
        "xe3"
      ],
      [
        " Q",
        "a7"
      ],
      [
        " Q",
        "xd2"
      ],
      [
        " Q",
        "a8"
      ],
      [
        " c",
        "xb5"
      ],
      [
        " a",
        "2"
      ],
      [
        " a",
        "xb3"
      ],
      [
        " h",
        "2"
      ],
      [
        "Bx",
        "g6"
      ],
      [
        "Bx",
        "f7"
      ],
      [
        "Bx",
        "h5"
      ],
      [
        " Ra",
        "f8"
      ],
      [
        "Rx",
        "f8"
      ],
      [
        "Rx",
        "a5"
      ],
      [
        "Rx",
        "f1"
      ],
      [
        " Rx",
        "f7"
      ],
      [
        " Rx",
        "f1"
      ],
      [
        "Qx",
        "f5"
      ],
      [
        " Qx",
        "f4"
      ],
      [
        " Rf",
        "b8"
      ],
      [
        "Rh",
        "e1"
      ],
      [
        "bx",
        "a4"
      ],
      [
        "bx",
        "a5"
      ],
      [
        "Rc",
        "d1"
      ],
      [
        "B",
        "xc3"
      ],
      [
        "B",
        "a6"
      ],
      [
        "B",
        "xb6"
      ],
      [
        "K",
        "g5"
      ],
      [
        "K",
        "b5"
      ],
      [
        "N",
        "c7"
      ],
      [
        "N",
        "xb6"
      ],
      [
        "N",
        "xb7"
      ],
      [
        "Q",
        "xe7"
      ],
      [
        "Q",
        "xd7"
      ],
      [
        "R",
        "g"
      ],
      [
        "R",
        "f6"
      ],
      [
        "R",
        "h4"
      ],
      [
        "R",
        "b5"
      ],
      [
        "R",
        "xb4"
      ],
      [
        "a",
        "xb6"
      ],
      [
        "d",
        "xe6"
      ],
      [
        " N",
        "xc6"
      ],
      [
        " N",
        "xe3"
      ],
      [
        " N",
        "xe2"
      ],
      [
        " B",
        "xb4"
      ],
      [
        " R",
        "g"
      ],
      [
        " R",
        "e4"
      ],
      [
        " R",
        "g3"
      ],
      [
        " R",
        "h3"
      ],
      [
        " R",
        "h5"
      ],
      [
        " R",
        "xc6"
      ],
      [
        " R",
        "xd6"
      ],
      [
        " R",
        "xc1"
      ],
      [
        " Q",
        "xb3"
      ],
      [
        " Q",
        "xd1"
      ],
      [
        " K",
        "c8"
      ],
      [
        " K",
        "xd7"
      ],
      [
        " Bx",
        "g4"
      ],
      [
        "Rx",
        "g6"
      ],
      [
        "Rx",
        "h5"
      ],
      [
        "Rx",
        "a6"
      ],
      [
        " Rx",
        "a4"
      ],
      [
        " Rx",
        "g2"
      ],
      [
        " Rx",
        "a1"
      ],
      [
        "gx",
        "h4"
      ],
      [
        "Qx",
        "f7"
      ],
      [
        "Nx",
        "h5"
      ],
      [
        " 7",
        "7."
      ],
      [
        " 7",
        "8."
      ],
      [
        " 7",
        "9."
      ],
      [
        " Nx",
        "f6"
      ],
      [
        " Nx",
        "f4"
      ],
      [
        " Nx",
        "a5"
      ],
      [
        " Kx",
        "f6"
      ],
      [
        " Kx",
        "f8"
      ],
      [
        "ex",
        "f7"
      ],
      [
        "Rd",
        "e1"
      ],
      [
        " Rh",
        "e8"
      ],
      [
        " bx",
        "a5"
      ],
      [
        " Rd",
        "e8"
      ],
      [
        " Rc",
        "d8"
      ],
      [
        "B",
        "a5"
      ],
      [
        "K",
        "f6"
      ],
      [
        "K",
        "d6"
      ],
      [
        "N",
        "g2"
      ],
      [
        "N",
        "f7"
      ],
      [
        "N",
        "b7"
      ],
      [
        "N",
        "xc7"
      ],
      [
        "Q",
        "e7"
      ],
      [
        "Q",
        "g6"
      ],
      [
        "Q",
        "c8"
      ],
      [
        "Q",
        "xb6"
      ],
      [
        "R",
        "f5"
      ],
      [
        "R",
        "g5"
      ],
      [
        "R",
        "g8"
      ],
      [
        "R",
        "xe3"
      ],
      [
        "R",
        "xb3"
      ],
      [
        "d",
        "xc4"
      ],
      [
        "e",
        "xd6"
      ],
      [
        "f",
        "xg3"
      ],
      [
        " N",
        "b3"
      ],
      [
        " N",
        "c2"
      ],
      [
        " N",
        "xe7"
      ],
      [
        " B",
        "h4"
      ],
      [
        " B",
        "xe6"
      ],
      [
        " R",
        "g4"
      ],
      [
        " R",
        "xd7"
      ],
      [
        " R",
        "xd3"
      ],
      [
        " R",
        "xb6"
      ],
      [
        " R",
        "xb7"
      ],
      [
        " R",
        "xc8"
      ],
      [
        " R",
        "xe8"
      ],
      [
        " Q",
        "e3"
      ],
      [
        " Q",
        "g1"
      ],
      [
        " Q",
        "xc7"
      ],
      [
        " Q",
        "xc2"
      ],
      [
        " K",
        "c4"
      ],
      [
        " K",
        "e3"
      ],
      [
        " K",
        "g3"
      ],
      [
        " K",
        "h4"
      ],
      [
        " K",
        "a7"
      ],
      [
        " b",
        "xc3"
      ],
      [
        " Bx",
        "h3"
      ],
      [
        " Bx",
        "f2"
      ],
      [
        "Rx",
        "f3"
      ],
      [
        "Rx",
        "a4"
      ],
      [
        "Rx",
        "h6"
      ],
      [
        "Rx",
        "h7"
      ],
      [
        "Rx",
        "a8"
      ],
      [
        " Rx",
        "h3"
      ],
      [
        " Rx",
        "a3"
      ],
      [
        " Rx",
        "a6"
      ],
      [
        "gx",
        "h5"
      ],
      [
        "Qx",
        "g4"
      ],
      [
        "Nx",
        "g4"
      ],
      [
        " Nx",
        "g5"
      ],
      [
        " f",
        "xg5"
      ],
      [
        " gx",
        "h4"
      ],
      [
        " gx",
        "h5"
      ],
      [
        " Kx",
        "h7"
      ],
      [
        "Rh",
        "g1"
      ],
      [
        "Rd",
        "c1"
      ],
      [
        "Nd",
        "f3"
      ],
      [
        "bx",
        "a6"
      ],
      [
        "B",
        "g7"
      ],
      [
        "B",
        "d8"
      ],
      [
        "B",
        "h5"
      ],
      [
        "B",
        "h7"
      ],
      [
        "K",
        "a4"
      ],
      [
        "K",
        "h4"
      ],
      [
        "K",
        "xc4"
      ],
      [
        "K",
        "xe2"
      ],
      [
        "N",
        "b6"
      ],
      [
        "N",
        "xc3"
      ],
      [
        "N",
        "h6"
      ],
      [
        "Q",
        "e8"
      ],
      [
        "Q",
        "b7"
      ],
      [
        "Q",
        "xc6"
      ],
      [
        "Q",
        "xb5"
      ],
      [
        "Q",
        "xb4"
      ],
      [
        "Q",
        "xb7"
      ],
      [
        "Q",
        "xc7"
      ],
      [
        "Q",
        "xc2"
      ],
      [
        "R",
        "g7"
      ],
      [
        "R",
        "b4"
      ],
      [
        "R",
        "xb5"
      ],
      [
        "f",
        "xe6"
      ],
      [
        "f",
        "xg4"
      ],
      [
        " N",
        "a3"
      ],
      [
        " N",
        "xc2"
      ],
      [
        " B",
        "e3"
      ],
      [
        " B",
        "a2"
      ],
      [
        " R",
        "f1"
      ],
      [
        " R",
        "xe6"
      ],
      [
        " R",
        "xc7"
      ],
      [
        " R",
        "xb8"
      ],
      [
        " Q",
        "f3"
      ],
      [
        " Q",
        "g3"
      ],
      [
        " Q",
        "d1"
      ],
      [
        " Q",
        "a3"
      ],
      [
        " Q",
        "xe2"
      ],
      [
        " Q",
        "xb7"
      ],
      [
        " K",
        "f3"
      ],
      [
        "Bx",
        "g4"
      ],
      [
        "Bx",
        "a7"
      ],
      [
        " Bx",
        "a4"
      ],
      [
        "Rx",
        "a7"
      ],
      [
        " Rx",
        "g5"
      ],
      [
        "Qx",
        "a6"
      ],
      [
        " Qx",
        "g4"
      ],
      [
        " Nb",
        "c6"
      ],
      [
        " f",
        "xg6"
      ],
      [
        " Kx",
        "f5"
      ],
      [
        "Kx",
        "f2"
      ],
      [
        " 8",
        "0."
      ],
      [
        " Rh",
        "1"
      ],
      [
        " bx",
        "a3"
      ],
      [
        "Nc",
        "e2"
      ],
      [
        "Rb",
        "d1"
      ],
      [
        " Nd",
        "f6"
      ],
      [
        " ",
        "f2"
      ],
      [
        "B",
        "f8"
      ],
      [
        "B",
        "xc7"
      ],
      [
        "B",
        "xc8"
      ],
      [
        "K",
        "c6"
      ],
      [
        "K",
        "e6"
      ],
      [
        "K",
        "b6"
      ],
      [
        "K",
        "h5"
      ],
      [
        "N",
        "g1"
      ],
      [
        "N",
        "xe3"
      ],
      [
        "N",
        "a2"
      ],
      [
        "N",
        "xe2"
      ],
      [
        "Q",
        "d7"
      ],
      [
        "Q",
        "b8"
      ],
      [
        "Q",
        "a6"
      ],
      [
        "Q",
        "xe6"
      ],
      [
        "Q",
        "a7"
      ],
      [
        "Q",
        "a1"
      ],
      [
        "R",
        "g4"
      ],
      [
        "R",
        "h6"
      ],
      [
        "R",
        "xd3"
      ],
      [
        "R",
        "xc2"
      ],
      [
        "R",
        "xe1"
      ],
      [
        "R",
        "xc1"
      ],
      [
        "R",
        "xb1"
      ],
      [
        " N",
        "e2"
      ],
      [
        " N",
        "f2"
      ],
      [
        " N",
        "xe6"
      ],
      [
        " B",
        "e2"
      ],
      [
        " B",
        "d1"
      ],
      [
        " B",
        "xb3"
      ],
      [
        " B",
        "xc2"
      ],
      [
        " R",
        "f4"
      ],
      [
        " R",
        "g1"
      ],
      [
        " R",
        "xb1"
      ],
      [
        " Q",
        "b3"
      ],
      [
        " Q",
        "h3"
      ],
      [
        " Q",
        "a2"
      ],
      [
        " Q",
        "a1"
      ],
      [
        " K",
        "xe5"
      ],
      [
        " K",
        "g2"
      ],
      [
        " K",
        "xe6"
      ],
      [
        " c",
        "xd3"
      ],
      [
        " e",
        "2"
      ],
      [
        " h",
        "xg3"
      ],
      [
        "Bx",
        "a5"
      ],
      [
        "Bx",
        "h7"
      ],
      [
        " Bx",
        "g3"
      ],
      [
        " Bx",
        "h4"
      ],
      [
        " Bx",
        "h6"
      ],
      [
        " Bx",
        "a6"
      ],
      [
        "Rx",
        "f4"
      ],
      [
        "Rx",
        "g5"
      ],
      [
        "Rx",
        "a3"
      ],
      [
        "Rx",
        "a2"
      ],
      [
        " Rx",
        "f3"
      ],
      [
        " Rx",
        "h4"
      ],
      [
        " Rx",
        "h5"
      ],
      [
        " Rx",
        "h2"
      ],
      [
        "gx",
        "h6"
      ],
      [
        "Qx",
        "f4"
      ],
      [
        "Qx",
        "g6"
      ],
      [
        "Qx",
        "h6"
      ],
      [
        "Nx",
        "a4"
      ],
      [
        "Nx",
        "h6"
      ],
      [
        " Qx",
        "g7"
      ],
      [
        " Qx",
        "f2"
      ],
      [
        " Nx",
        "g4"
      ],
      [
        "Kx",
        "f3"
      ],
      [
        "Kx",
        "f1"
      ],
      [
        " ex",
        "f6"
      ],
      [
        "Rh",
        "f1"
      ],
      [
        "Rd",
        "g1"
      ],
      [
        "Ng",
        "f3"
      ],
      [
        "Nd",
        "e2"
      ],
      [
        "B",
        "f7"
      ],
      [
        "B",
        "xe3"
      ],
      [
        "B",
        "xb3"
      ],
      [
        "B",
        "xe2"
      ],
      [
        "B",
        "xc2"
      ],
      [
        "K",
        "a2"
      ],
      [
        "N",
        "c8"
      ],
      [
        "N",
        "f8"
      ],
      [
        "N",
        "xb4"
      ],
      [
        "Q",
        "b6"
      ],
      [
        "Q",
        "xb3"
      ],
      [
        "R",
        "3"
      ],
      [
        "R",
        "4"
      ],
      [
        "R",
        "5"
      ],
      [
        "R",
        "xe2"
      ],
      [
        "R",
        "xb2"
      ],
      [
        "b",
        "xc6"
      ],
      [
        "c",
        "xb6"
      ],
      [
        "d",
        "xc3"
      ],
      [
        "f",
        "xg6"
      ],
      [
        "x",
        "g7"
      ],
      [
        " N",
        "xd6"
      ],
      [
        " B",
        "a5"
      ],
      [
        " B",
        "xe7"
      ],
      [
        " B",
        "xd8"
      ],
      [
        " B",
        "a8"
      ],
      [
        " B",
        "h2"
      ],
      [
        " B",
        "a1"
      ],
      [
        " R",
        "8"
      ],
      [
        " R",
        "h4"
      ],
      [
        " Q",
        "a4"
      ],
      [
        " Q",
        "g2"
      ],
      [
        " Q",
        "e1"
      ],
      [
        " Q",
        "xd3"
      ],
      [
        " Q",
        "xd8"
      ],
      [
        " Q",
        "xc8"
      ],
      [
        " Q",
        "xe8"
      ],
      [
        " Q",
        "xc1"
      ],
      [
        " K",
        "c3"
      ],
      [
        " K",
        "f2"
      ],
      [
        " c",
        "xd6"
      ],
      [
        " e",
        "xd6"
      ],
      [
        " Bx",
        "a3"
      ],
      [
        " Bx",
        "a5"
      ],
      [
        " Bx",
        "a1"
      ],
      [
        " Rx",
        "g3"
      ],
      [
        " Rx",
        "g1"
      ],
      [
        "Qx",
        "f2"
      ],
      [
        "Qx",
        "h5"
      ],
      [
        "Qx",
        "f1"
      ],
      [
        "Nx",
        "f3"
      ],
      [
        "Nx",
        "f7"
      ],
      [
        "Nx",
        "f8"
      ],
      [
        "Nx",
        "a5"
      ],
      [
        " Qx",
        "f3"
      ],
      [
        " Qx",
        "g2"
      ],
      [
        " Qx",
        "h3"
      ],
      [
        " Qx",
        "h4"
      ],
      [
        " Qx",
        "a5"
      ],
      [
        " Qx",
        "h2"
      ],
      [
        " Nx",
        "a4"
      ],
      [
        " Nx",
        "g2"
      ],
      [
        " gx",
        "h6"
      ],
      [
        " Kx",
        "g6"
      ],
      [
        "Kx",
        "g5"
      ],
      [
        "Kx",
        "a5"
      ],
      [
        "Kx",
        "h2"
      ],
      [
        "Rh",
        "d1"
      ],
      [
        "Rd",
        "d1"
      ],
      [
        " 8",
        "1."
      ],
      [
        " 8",
        "4."
      ],
      [
        " 8",
        "5."
      ],
      [
        " 8",
        "2."
      ],
      [
        " 8",
        "3."
      ],
      [
        " Rh",
        "c8"
      ],
      [
        " Rh",
        "d8"
      ],
      [
        " Rh",
        "g8"
      ],
      [
        "bx",
        "a3"
      ],
      [
        " Rd",
        "c8"
      ],
      [
        "Nc",
        "xe4"
      ],
      [
        "B",
        "g1"
      ],
      [
        "B",
        "xd8"
      ],
      [
        "B",
        "h2"
      ],
      [
        "B",
        "a1"
      ],
      [
        "B",
        "xe8"
      ],
      [
        "B",
        "xc1"
      ],
      [
        "K",
        "e7"
      ],
      [
        "K",
        "xd4"
      ],
      [
        "K",
        "xd3"
      ],
      [
        "K",
        "xd2"
      ],
      [
        "K",
        "xd1"
      ],
      [
        "N",
        "e8"
      ],
      [
        "N",
        "h7"
      ],
      [
        "N",
        "xb3"
      ],
      [
        "Q",
        "a2"
      ],
      [
        "Q",
        "xd1"
      ],
      [
        "Q",
        "xb2"
      ],
      [
        "R",
        "h2"
      ],
      [
        "R",
        "xb8"
      ],
      [
        "c",
        "xb3"
      ],
      [
        "c",
        "xd3"
      ],
      [
        "x",
        "g2"
      ],
      [
        " N",
        "6"
      ],
      [
        " N",
        "8"
      ],
      [
        " N",
        "h"
      ],
      [
        " N",
        "g3"
      ],
      [
        " N",
        "h3"
      ],
      [
        " N",
        "xb6"
      ],
      [
        " N",
        "xc1"
      ],
      [
        " B",
        "b8"
      ],
      [
        " B",
        "g8"
      ],
      [
        " B",
        "h8"
      ],
      [
        " B",
        "xd7"
      ],
      [
        " B",
        "xc8"
      ],
      [
        " Q",
        "f2"
      ],
      [
        " Q",
        "xb6"
      ],
      [
        " Q",
        "h2"
      ],
      [
        " K",
        "xb5"
      ],
      [
        " K",
        "xe7"
      ],
      [
        " K",
        "xc7"
      ],
      [
        " c",
        "2"
      ],
      [
        " h",
        "1"
      ],
      [
        "Ra",
        "f1"
      ],
      [
        "Bx",
        "f8"
      ],
      [
        " Ra",
        "a8"
      ],
      [
        " Bx",
        "h5"
      ],
      [
        " Bx",
        "h2"
      ],
      [
        "Rx",
        "g8"
      ],
      [
        "Rx",
        "g1"
      ],
      [
        " Rx",
        "f8"
      ],
      [
        " Rx",
        "h7"
      ],
      [
        " Rx",
        "a7"
      ],
      [
        " Rx",
        "a8"
      ],
      [
        "gx",
        "f6"
      ],
      [
        "gx",
        "h3"
      ],
      [
        "Qx",
        "h7"
      ],
      [
        "Qx",
        "a8"
      ],
      [
        "Nx",
        "g7"
      ],
      [
        "Nx",
        "a7"
      ],
      [
        " Qx",
        "a4"
      ],
      [
        " Qx",
        "a3"
      ],
      [
        " Qx",
        "f7"
      ],
      [
        " Nx",
        "g6"
      ],
      [
        " Nx",
        "a3"
      ],
      [
        " Nx",
        "h6"
      ],
      [
        " Rf",
        "a8"
      ],
      [
        " gx",
        "f3"
      ],
      [
        " Kx",
        "g3"
      ],
      [
        "Kx",
        "f4"
      ],
      [
        "Kx",
        "g4"
      ],
      [
        "Kx",
        "h3"
      ],
      [
        " Rh",
        "f8"
      ],
      [
        "Rc",
        "c1"
      ],
      [
        " Rb",
        "d8"
      ],
      [
        " Nd",
        "e5"
      ],
      [
        " Re",
        "c8"
      ],
      [
        "Rg",
        "d1"
      ],
      [
        " ",
        "g2"
      ],
      [
        "B",
        "d7"
      ],
      [
        "B",
        "xd2"
      ],
      [
        "B",
        "xd1"
      ],
      [
        "B",
        "xe1"
      ],
      [
        "K",
        "d7"
      ],
      [
        "K",
        "g7"
      ],
      [
        "K",
        "a5"
      ],
      [
        "K",
        "a6"
      ],
      [
        "K",
        "xb5"
      ],
      [
        "K",
        "xe3"
      ],
      [
        "K",
        "xb6"
      ],
      [
        "K",
        "a1"
      ],
      [
        "K",
        "xb2"
      ],
      [
        "N",
        "2"
      ],
      [
        "N",
        "h"
      ],
      [
        "N",
        "g7"
      ],
      [
        "N",
        "d8"
      ],
      [
        "N",
        "b1"
      ],
      [
        "N",
        "b2"
      ],
      [
        "N",
        "xd3"
      ],
      [
        "N",
        "xc8"
      ],
      [
        "N",
        "xe1"
      ],
      [
        "N",
        "exd4"
      ],
      [
        "Q",
        "f6"
      ],
      [
        "Q",
        "g7"
      ],
      [
        "Q",
        "d8"
      ],
      [
        "Q",
        "h8"
      ],
      [
        "Q",
        "a8"
      ],
      [
        "Q",
        "xc8"
      ],
      [
        "Q",
        "xe1"
      ],
      [
        "h",
        "xg7"
      ],
      [
        "x",
        "f5"
      ],
      [
        " N",
        "d1"
      ],
      [
        " N",
        "h4"
      ],
      [
        " N",
        "b1"
      ],
      [
        " N",
        "b2"
      ],
      [
        " N",
        "xd1"
      ],
      [
        " N",
        "a8"
      ],
      [
        " N",
        "xb2"
      ],
      [
        " N",
        "xe8"
      ],
      [
        " B",
        "b1"
      ],
      [
        " B",
        "h7"
      ],
      [
        " B",
        "xd1"
      ],
      [
        " B",
        "xb1"
      ],
      [
        " R",
        "2"
      ],
      [
        " Q",
        "f1"
      ],
      [
        " Q",
        "h7"
      ],
      [
        " Q",
        "g8"
      ],
      [
        " Q",
        "xe1"
      ],
      [
        " Q",
        "xb1"
      ],
      [
        " K",
        "e2"
      ],
      [
        " K",
        "d3"
      ],
      [
        " K",
        "xe4"
      ],
      [
        " K",
        "b5"
      ],
      [
        " K",
        "xb6"
      ],
      [
        " K",
        "a8"
      ],
      [
        " d",
        "2"
      ],
      [
        " a",
        "1"
      ],
      [
        "Ra",
        "g1"
      ],
      [
        "Bx",
        "a3"
      ],
      [
        "Bx",
        "f1"
      ],
      [
        " Ra",
        "x"
      ],
      [
        " Bx",
        "g7"
      ],
      [
        " Bx",
        "f7"
      ],
      [
        "Rx",
        "h3"
      ],
      [
        "Rx",
        "h4"
      ],
      [
        " Rx",
        "g4"
      ],
      [
        " Rx",
        "g7"
      ],
      [
        "Qx",
        "g7"
      ],
      [
        "Qx",
        "a4"
      ],
      [
        "Qx",
        "h3"
      ],
      [
        "Qx",
        "h4"
      ],
      [
        "Nx",
        "a3"
      ],
      [
        "Nx",
        "h4"
      ],
      [
        "Nx",
        "a6"
      ],
      [
        "Nx",
        "h7"
      ],
      [
        " Qx",
        "g6"
      ],
      [
        " Qx",
        "f8"
      ],
      [
        " Qx",
        "h5"
      ],
      [
        " Qx",
        "h6"
      ],
      [
        " Qx",
        "a8"
      ],
      [
        " Nb",
        "xd7"
      ],
      [
        " Nx",
        "h3"
      ],
      [
        " Nx",
        "h4"
      ],
      [
        " Nx",
        "f2"
      ],
      [
        " Nx",
        "h5"
      ],
      [
        " Nx",
        "f1"
      ],
      [
        " Nx",
        "h2"
      ],
      [
        " Nx",
        "a1"
      ],
      [
        "Rf",
        "a1"
      ],
      [
        " f",
        "xe3"
      ],
      [
        " f",
        "xg2"
      ],
      [
        " gx",
        "h3"
      ],
      [
        " Kx",
        "h4"
      ],
      [
        " Kx",
        "h6"
      ],
      [
        " Kx",
        "g8"
      ],
      [
        "Kx",
        "h4"
      ],
      [
        " 8",
        "6."
      ],
      [
        " 8",
        "7."
      ],
      [
        "Nd",
        "e4"
      ],
      [
        " Nf",
        "d5"
      ],
      [
        "Re",
        "e1"
      ],
      [
        "Re",
        "b1"
      ],
      [
        " bx",
        "a6"
      ],
      [
        "Rc",
        "e3"
      ],
      [
        "Rc",
        "e1"
      ],
      [
        " Rc",
        "e8"
      ],
      [
        " Rc",
        "a8"
      ],
      [
        "Nc",
        "e5"
      ],
      [
        "Nc",
        "b5"
      ],
      [
        " Rb",
        "e8"
      ],
      [
        " Rb",
        "c8"
      ],
      [
        " Rb",
        "f8"
      ],
      [
        " Re",
        "d8"
      ],
      [
        " Ne",
        "d7"
      ],
      [
        " Ne",
        "c6"
      ],
      [
        "Ne",
        "f3"
      ],
      [
        "Ne",
        "c3"
      ],
      [
        " Nc",
        "d7"
      ],
      [
        " Nc",
        "e7"
      ],
      [
        "Nf",
        "d4"
      ],
      [
        "Nf",
        "d2"
      ],
      [
        " Rg",
        "f8"
      ],
      [
        " ",
        "g1"
      ],
      [
        "5",
        "b6"
      ],
      [
        "B",
        "e8"
      ],
      [
        "B",
        "g8"
      ],
      [
        "B",
        "xb2"
      ],
      [
        "B",
        "h1"
      ],
      [
        "B",
        "xb8"
      ],
      [
        "K",
        "e8"
      ],
      [
        "K",
        "xe4"
      ],
      [
        "K",
        "a3"
      ],
      [
        "K",
        "f7"
      ],
      [
        "K",
        "xc5"
      ],
      [
        "K",
        "xc3"
      ],
      [
        "K",
        "h6"
      ],
      [
        "K",
        "a7"
      ],
      [
        "K",
        "a8"
      ],
      [
        "N",
        "4"
      ],
      [
        "N",
        "5"
      ],
      [
        "N",
        "a"
      ],
      [
        "N",
        "a6"
      ],
      [
        "N",
        "h8"
      ],
      [
        "N",
        "xd8"
      ],
      [
        "N",
        "xd1"
      ],
      [
        "N",
        "xe8"
      ],
      [
        "N",
        "xb8"
      ],
      [
        "Q",
        "g8"
      ],
      [
        "Q",
        "g1"
      ],
      [
        "Q",
        "h2"
      ],
      [
        "Q",
        "xc1"
      ],
      [
        "Q",
        "xb1"
      ],
      [
        "R",
        "6"
      ],
      [
        "R",
        "h5"
      ],
      [
        "a",
        "c5"
      ],
      [
        "b",
        "xc7"
      ],
      [
        "d",
        "xc7"
      ],
      [
        "e",
        "xd7"
      ],
      [
        "f",
        "xg7"
      ],
      [
        " N",
        "7"
      ],
      [
        " N",
        "xd8"
      ],
      [
        " N",
        "a2"
      ],
      [
        " N",
        "xb7"
      ],
      [
        " N",
        "xc7"
      ],
      [
        " N",
        "xe1"
      ],
      [
        " N",
        "xb8"
      ],
      [
        " N",
        "5b6"
      ],
      [
        " N",
        "ac5"
      ],
      [
        " B",
        "g3"
      ],
      [
        " B",
        "f2"
      ],
      [
        " B",
        "b2"
      ],
      [
        " R",
        "4"
      ],
      [
        " R",
        "6"
      ],
      [
        " Q",
        "e2"
      ],
      [
        " Q",
        "h8"
      ],
      [
        " Q",
        "h1"
      ],
      [
        " K",
        "d2"
      ],
      [
        " K",
        "xd5"
      ],
      [
        " K",
        "b3"
      ],
      [
        " K",
        "b4"
      ],
      [
        " K",
        "h3"
      ],
      [
        " K",
        "xd6"
      ],
      [
        " K",
        "xe3"
      ],
      [
        " K",
        "xd3"
      ],
      [
        " K",
        "h2"
      ],
      [
        " K",
        "xe8"
      ],
      [
        " c",
        "xb6"
      ],
      [
        " c",
        "xb2"
      ],
      [
        " e",
        "1"
      ],
      [
        " e",
        "xd3"
      ],
      [
        " d",
        "xe3"
      ],
      [
        " b",
        "2"
      ],
      [
        "Ra",
        "a8"
      ],
      [
        "Ra",
        "a1"
      ],
      [
        "Bx",
        "g3"
      ],
      [
        "Bx",
        "a4"
      ],
      [
        "Bx",
        "g2"
      ],
      [
        "Bx",
        "h4"
      ],
      [
        "Bx",
        "h8"
      ],
      [
        "Bx",
        "a2"
      ],
      [
        "Bx",
        "a8"
      ],
      [
        " Bx",
        "g6"
      ],
      [
        " Bx",
        "f8"
      ],
      [
        " Bx",
        "h8"
      ],
      [
        " Bx",
        "a2"
      ],
      [
        "Rx",
        "g4"
      ],
      [
        "Rx",
        "g3"
      ],
      [
        "Rx",
        "f2"
      ],
      [
        "Rx",
        "h8"
      ],
      [
        "Rx",
        "h2"
      ],
      [
        "Rx",
        "h1"
      ],
      [
        " Rx",
        "g6"
      ],
      [
        " Rx",
        "h6"
      ],
      [
        " Rx",
        "h1"
      ],
      [
        "gx",
        "h7"
      ],
      [
        "Qx",
        "g2"
      ],
      [
        "Qx",
        "a1"
      ],
      [
        "Nx",
        "f2"
      ],
      [
        " Qx",
        "g3"
      ],
      [
        " Qx",
        "a6"
      ],
      [
        " Nb",
        "d5"
      ],
      [
        " Nx",
        "g7"
      ],
      [
        " Nx",
        "g8"
      ],
      [
        " Nx",
        "a2"
      ],
      [
        " Nx",
        "h1"
      ],
      [
        " Rf",
        "f8"
      ],
      [
        " Kx",
        "f3"
      ],
      [
        " Kx",
        "h3"
      ],
      [
        " Kx",
        "h5"
      ],
      [
        " Kx",
        "a6"
      ],
      [
        "ex",
        "f3"
      ],
      [
        "Kx",
        "g6"
      ],
      [
        "Kx",
        "g3"
      ],
      [
        "Kx",
        "a3"
      ],
      [
        "Kx",
        "f7"
      ],
      [
        "Kx",
        "g1"
      ],
      [
        "Kx",
        "h1"
      ],
      [
        "Nb",
        "xd4"
      ],
      [
        "Rh",
        "c1"
      ],
      [
        "Rh",
        "a1"
      ],
      [
        "Rd",
        "e2"
      ],
      [
        "Rd",
        "f1"
      ],
      [
        "Rd",
        "b2"
      ],
      [
        "Rd",
        "h1"
      ],
      [
        "Ng",
        "e4"
      ],
      [
        "Ng",
        "xe2"
      ],
      [
        " Ng",
        "xe7"
      ],
      [
        " 8",
        "8."
      ],
      [
        "Nd",
        "e3"
      ],
      [
        "Nd",
        "e5"
      ],
      [
        "Nd",
        "xe4"
      ],
      [
        " Rh",
        "b8"
      ],
      [
        " Nf",
        "d4"
      ],
      [
        " Nf",
        "e7"
      ],
      [
        " Nf",
        "g4"
      ],
      [
        " Nf",
        "xd5"
      ],
      [
        "Re",
        "e7"
      ],
      [
        "Re",
        "d2"
      ],
      [
        "Re",
        "c1"
      ],
      [
        "Re",
        "a1"
      ],
      [
        "Rc",
        "xb5"
      ],
      [
        " Rd",
        "xd5"
      ],
      [
        " Rd",
        "d8"
      ],
      [
        " Rc",
        "d6"
      ],
      [
        " Rc",
        "c7"
      ],
      [
        " Rc",
        "c8"
      ],
      [
        " Rc",
        "f8"
      ],
      [
        "Nc",
        "e3"
      ],
      [
        "Rb",
        "b1"
      ],
      [
        " Nd",
        "c5"
      ],
      [
        " Re",
        "e2"
      ],
      [
        " Ne",
        "d4"
      ],
      [
        "Ne",
        "d4"
      ],
      [
        "Ne",
        "d2"
      ],
      [
        "R1",
        "e2"
      ],
      [
        "R1",
        "c2"
      ],
      [
        "R1",
        "a2"
      ],
      [
        " Nc",
        "xe5"
      ],
      [
        "Nf",
        "g5"
      ],
      [
        "R3",
        "e2"
      ],
      [
        "R4",
        "d2"
      ],
      [
        "R5",
        "d2"
      ],
      [
        " N6",
        "d7"
      ],
      [
        " N8",
        "d7"
      ],
      [
        "Nh",
        "f3"
      ],
      [
        " ",
        "9"
      ],
      [
        " ",
        "f1"
      ],
      [
        "1",
        "e3"
      ],
      [
        "3",
        "d2"
      ],
      [
        "3",
        "a4"
      ],
      [
        "7",
        "xe6"
      ],
      [
        "8",
        "e7"
      ],
      [
        "B",
        "c8"
      ],
      [
        "B",
        "b8"
      ],
      [
        "B",
        "h8"
      ],
      [
        "K",
        "g6"
      ],
      [
        "K",
        "f8"
      ],
      [
        "K",
        "g8"
      ],
      [
        "K",
        "xb4"
      ],
      [
        "K",
        "xe6"
      ],
      [
        "K",
        "xb3"
      ],
      [
        "K",
        "xc7"
      ],
      [
        "K",
        "xc2"
      ],
      [
        "N",
        "b8"
      ],
      [
        "N",
        "g8"
      ],
      [
        "N",
        "a7"
      ],
      [
        "N",
        "xc1"
      ],
      [
        "N",
        "xb1"
      ],
      [
        "N",
        "exf7"
      ],
      [
        "N",
        "1e3"
      ],
      [
        "N",
        "3d2"
      ],
      [
        "Q",
        "d"
      ],
      [
        "Q",
        "f8"
      ],
      [
        "Q",
        "h7"
      ],
      [
        "Q",
        "xe8"
      ],
      [
        "Q",
        "h1"
      ],
      [
        "Q",
        "xb8"
      ],
      [
        "R",
        "gx"
      ],
      [
        "R",
        "cxd5"
      ],
      [
        "R",
        "7xe6"
      ],
      [
        "R",
        "8e7"
      ],
      [
        "b",
        "xc8"
      ],
      [
        "f",
        "xe7"
      ],
      [
        "x",
        "f6"
      ],
      [
        "x",
        "f2"
      ],
      [
        " N",
        "g2"
      ],
      [
        " N",
        "e1"
      ],
      [
        " N",
        "c1"
      ],
      [
        " N",
        "f1"
      ],
      [
        " N",
        "xb5"
      ],
      [
        " N",
        "h8"
      ],
      [
        " N",
        "exd5"
      ],
      [
        " N",
        "a1"
      ],
      [
        " N",
        "dxe5"
      ],
      [
        " N",
        "xc8"
      ],
      [
        " B",
        "e1"
      ],
      [
        " B",
        "c1"
      ],
      [
        " B",
        "f1"
      ],
      [
        " B",
        "xb6"
      ],
      [
        " B",
        "xb7"
      ],
      [
        " B",
        "xc7"
      ],
      [
        " B",
        "xe8"
      ],
      [
        " B",
        "xc1"
      ],
      [
        " R",
        "3a4"
      ],
      [
        " K",
        "xd4"
      ],
      [
        " K",
        "a4"
      ],
      [
        " K",
        "a3"
      ],
      [
        " K",
        "a5"
      ],
      [
        " K",
        "xc5"
      ],
      [
        " K",
        "xc4"
      ],
      [
        " K",
        "xc6"
      ],
      [
        " K",
        "b2"
      ],
      [
        " K",
        "g1"
      ],
      [
        " K",
        "xc8"
      ],
      [
        " K",
        "h1"
      ],
      [
        " c",
        "xd2"
      ],
      [
        " d",
        "xc2"
      ],
      [
        " b",
        "1"
      ],
      [
        " b",
        "xc2"
      ],
      [
        " a",
        "xb2"
      ],
      [
        " h",
        "xg2"
      ],
      [
        "Ra",
        "g7"
      ],
      [
        "Ra",
        "c2"
      ],
      [
        "Ra",
        "f2"
      ],
      [
        "Ra",
        "xd1"
      ],
      [
        "Ra",
        "h1"
      ],
      [
        "Bx",
        "h3"
      ],
      [
        "Bx",
        "f2"
      ],
      [
        "Bx",
        "a1"
      ],
      [
        " Ra",
        "b4"
      ],
      [
        " Ra",
        "a4"
      ],
      [
        " Ra",
        "b7"
      ],
      [
        " Ra",
        "g8"
      ],
      [
        " Ra",
        "xd8"
      ],
      [
        " Ra",
        "xb7"
      ],
      [
        " Bx",
        "h7"
      ],
      [
        " Bx",
        "a8"
      ],
      [
        " Bx",
        "h1"
      ],
      [
        " Rx",
        "a5"
      ],
      [
        " Rx",
        "g8"
      ],
      [
        "Kh",
        "7"
      ],
      [
        "Qx",
        "h2"
      ],
      [
        "Nx",
        "g3"
      ],
      [
        "Nx",
        "g2"
      ],
      [
        "Nx",
        "f1"
      ],
      [
        "Nx",
        "g8"
      ],
      [
        "Nx",
        "a8"
      ],
      [
        " Qx",
        "f1"
      ],
      [
        " Qx",
        "a7"
      ],
      [
        " Nb",
        "c2"
      ],
      [
        " Nb",
        "a5"
      ],
      [
        " Nb",
        "xd3"
      ],
      [
        " Nx",
        "f8"
      ],
      [
        " Nx",
        "a6"
      ],
      [
        " Nx",
        "g1"
      ],
      [
        "Rf",
        "f6"
      ],
      [
        "Rf",
        "d2"
      ],
      [
        "Rf",
        "b3"
      ],
      [
        "Rf",
        "e6"
      ],
      [
        "Rf",
        "xd1"
      ],
      [
        "Rf",
        "xf5"
      ],
      [
        " Rf",
        "f4"
      ],
      [
        " Rf",
        "d6"
      ],
      [
        " Rf",
        "f1"
      ],
      [
        " Rf",
        "xd8"
      ],
      [
        " Rf",
        "xc8"
      ],
      [
        " Rf",
        "xf5"
      ],
      [
        " Rf",
        "xf2"
      ],
      [
        " gx",
        "h2"
      ],
      [
        " Kx",
        "f4"
      ],
      [
        " Kx",
        "g5"
      ],
      [
        " Kx",
        "g4"
      ],
      [
        " Kx",
        "a4"
      ],
      [
        " Kx",
        "a2"
      ],
      [
        " Kx",
        "h1"
      ],
      [
        "Kx",
        "f5"
      ],
      [
        "Kx",
        "h5"
      ],
      [
        "Kx",
        "h6"
      ],
      [
        "Kx",
        "a6"
      ],
      [
        "Nb",
        "d4"
      ],
      [
        "Nb",
        "d3"
      ],
      [
        "Nb",
        "d5"
      ],
      [
        "Nb",
        "c7"
      ],
      [
        "Nb",
        "c2"
      ],
      [
        "Nb",
        "xd2"
      ],
      [
        "Rh",
        "g5"
      ],
      [
        "Rh",
        "d2"
      ],
      [
        "Rh",
        "d6"
      ],
      [
        "Rd",
        "f3"
      ],
      [
        "Rd",
        "d4"
      ],
      [
        "Rd",
        "c3"
      ],
      [
        "Rd",
        "d7"
      ],
      [
        "Rd",
        "d3"
      ],
      [
        "Rd",
        "d6"
      ],
      [
        "Rd",
        "a3"
      ],
      [
        "Rd",
        "c2"
      ],
      [
        "Rd",
        "f2"
      ],
      [
        "Rd",
        "b1"
      ],
      [
        "Rd",
        "xc6"
      ],
      [
        "Rd",
        "a1"
      ],
      [
        "Rd",
        "xc1"
      ],
      [
        "Ng",
        "e3"
      ],
      [
        "Ng",
        "e6"
      ],
      [
        "Ng",
        "xe6"
      ],
      [
        " Ng",
        "xe5"
      ],
      [
        " 8",
        "9."
      ],
      [
        "Nd",
        "c3"
      ],
      [
        "Nd",
        "c4"
      ],
      [
        "Nd",
        "b3"
      ],
      [
        "Nd",
        "f2"
      ],
      [
        "Nd",
        "f1"
      ],
      [
        "Nd",
        "xb5"
      ],
      [
        " Rh",
        "f6"
      ],
      [
        " Rh",
        "c2"
      ],
      [
        " Nf",
        "xd4"
      ],
      [
        " Nf",
        "e6"
      ],
      [
        " Nf",
        "xe4"
      ],
      [
        " Nf",
        "xd3"
      ],
      [
        "Re",
        "xe5"
      ],
      [
        "Re",
        "f1"
      ],
      [
        "Re",
        "xe3"
      ],
      [
        "Re",
        "xe1"
      ],
      [
        " bx",
        "a2"
      ],
      [
        "Rc",
        "f3"
      ],
      [
        "Rc",
        "d4"
      ],
      [
        "Rc",
        "c7"
      ],
      [
        "Rc",
        "c2"
      ],
      [
        "Rc",
        "c8"
      ],
      [
        "Rc",
        "b1"
      ],
      [
        "Rc",
        "xe8"
      ],
      [
        "Rc",
        "h1"
      ],
      [
        " Rd",
        "f6"
      ],
      [
        " Rd",
        "d7"
      ],
      [
        " Rd",
        "e7"
      ],
      [
        " Rd",
        "d2"
      ],
      [
        " Rd",
        "c6"
      ],
      [
        " Rd",
        "g7"
      ],
      [
        " Rd",
        "d6"
      ],
      [
        " Rd",
        "c7"
      ],
      [
        " Rd",
        "b8"
      ],
      [
        " Rd",
        "xd6"
      ],
      [
        " Rd",
        "a8"
      ],
      [
        " Rd",
        "xf5"
      ],
      [
        " Rc",
        "d7"
      ],
      [
        " Rc",
        "e7"
      ],
      [
        " Rc",
        "e6"
      ],
      [
        " Rc",
        "b8"
      ],
      [
        " Rc",
        "xd6"
      ],
      [
        " Rc",
        "xe3"
      ],
      [
        "Nc",
        "d4"
      ],
      [
        "Nc",
        "e4"
      ],
      [
        "Nc",
        "e6"
      ],
      [
        "Nc",
        "xe5"
      ],
      [
        "Nc",
        "d1"
      ],
      [
        "Nc",
        "a3"
      ],
      [
        "Nc",
        "xd1"
      ],
      [
        " Rb",
        "c3"
      ],
      [
        " Rb",
        "d7"
      ],
      [
        " Rb",
        "xd5"
      ],
      [
        " Rb",
        "c7"
      ],
      [
        " Rb",
        "f7"
      ],
      [
        " Rb",
        "b2"
      ],
      [
        " Rb",
        "g8"
      ],
      [
        " Rb",
        "xb3"
      ],
      [
        " Rb",
        "xb7"
      ],
      [
        " Rb",
        "a8"
      ],
      [
        "Rb",
        "d2"
      ],
      [
        "Rb",
        "c2"
      ],
      [
        "Rb",
        "c1"
      ],
      [
        "Rb",
        "g1"
      ],
      [
        "Rb",
        "xe7"
      ],
      [
        "Rb",
        "a1"
      ],
      [
        "Rb",
        "h1"
      ],
      [
        " Nd",
        "c3"
      ],
      [
        " Nd",
        "xf6"
      ],
      [
        " Re",
        "c3"
      ],
      [
        " Re",
        "d7"
      ],
      [
        " Re",
        "e7"
      ],
      [
        " Re",
        "c7"
      ],
      [
        " Re",
        "f8"
      ],
      [
        " Re",
        "b8"
      ],
      [
        " Ne",
        "f3"
      ],
      [
        " Ne",
        "c4"
      ],
      [
        " Ne",
        "d5"
      ],
      [
        " Ne",
        "d6"
      ],
      [
        " Ne",
        "f7"
      ],
      [
        "Ne",
        "g5"
      ],
      [
        "Ne",
        "d5"
      ],
      [
        "R1",
        "d3"
      ],
      [
        "R1",
        "e6"
      ],
      [
        "R1",
        "f2"
      ],
      [
        "R1",
        "h5"
      ],
      [
        "R1",
        "b7"
      ],
      [
        "R1",
        "a6"
      ],
      [
        " Nc",
        "d4"
      ],
      [
        " Nc",
        "e5"
      ],
      [
        " Nc",
        "b8"
      ],
      [
        " Nc",
        "xe7"
      ],
      [
        "Nf",
        "e5"
      ],
      [
        "Nf",
        "xd2"
      ],
      [
        "Rg",
        "f5"
      ],
      [
        "Rg",
        "d3"
      ],
      [
        "Rg",
        "g6"
      ],
      [
        "Rg",
        "c1"
      ],
      [
        "Rg",
        "h1"
      ],
      [
        " Rg",
        "f6"
      ],
      [
        " Rg",
        "f5"
      ],
      [
        " Rg",
        "g3"
      ],
      [
        " Rg",
        "g2"
      ],
      [
        " Rg",
        "e8"
      ],
      [
        " Rg",
        "d8"
      ],
      [
        "R3",
        "c2"
      ],
      [
        "R3",
        "f2"
      ],
      [
        "R3",
        "b2"
      ],
      [
        "R4",
        "h3"
      ],
      [
        "R4",
        "a3"
      ],
      [
        "R4",
        "c2"
      ],
      [
        "R5",
        "e3"
      ],
      [
        "R5",
        "a3"
      ],
      [
        "R5",
        "xd2"
      ],
      [
        " R8",
        "f6"
      ],
      [
        " R8",
        "f5"
      ],
      [
        " R8",
        "d7"
      ],
      [
        " R8",
        "b3"
      ],
      [
        " R8",
        "c7"
      ],
      [
        " N6",
        "g5"
      ],
      [
        " N6",
        "xd5"
      ],
      [
        " N8",
        "e7"
      ],
      [
        " N8",
        "c7"
      ],
      [
        " Nh",
        "f6"
      ],
      [
        " Nh",
        "f4"
      ],
      [
        " Nh",
        "g5"
      ],
      [
        " Nh",
        "g4"
      ],
      [
        "N2",
        "f3"
      ],
      [
        "N2",
        "c3"
      ],
      [
        "N2",
        "b3"
      ],
      [
        "Nh",
        "g6"
      ],
      [
        " R2",
        "f5"
      ],
      [
        " R2",
        "b4"
      ],
      [
        " R2",
        "b6"
      ],
      [
        " Rax",
        "a3"
      ],
      [
        " Rax",
        "a2"
      ],
      [
        " Rax",
        "a8"
      ],
      [
        "N4",
        "g3"
      ],
      [
        "N4",
        "b3"
      ],
      [
        "N5",
        "f3"
      ],
      [
        "N5",
        "c3"
      ],
      [
        "Na",
        "b3"
      ],
      [
        "Na",
        "c2"
      ],
      [
        "R6",
        "d4"
      ],
      [
        "R6",
        "e4"
      ],
      [
        " N7",
        "c6"
      ],
      [
        " N7",
        "c5"
      ],
      [
        " R4",
        "b7"
      ],
      [
        " R4",
        "xe7"
      ],
      [
        " R6",
        "e7"
      ],
      [
        " R6",
        "b7"
      ],
      [
        " 9",
        "0."
      ],
      [
        "Qd",
        "d5"
      ],
      [
        "Rgx",
        "g7"
      ]
    ]
  }
}